{
  "version": "1.0",
  "truncation": null,
  "padding": null,
  "added_tokens": [
    {
      "id": 0,
      "content": "<unk>",
      "single_word": false,
      "lstrip": false,
      "rstrip": false,
      "normalized": false,
      "special": true
    },
    {
      "id": 1,
      "content": "<bos>",
      "single_word": false,
      "lstrip": false,
      "rstrip": false,
      "normalized": false,
      "special": true
    },
    {
      "id": 2,
      "content": "<eos>",
      "single_word": false,
      "lstrip": false,
      "rstrip": false,
      "normalized": false,
      "special": true
    },
    {
      "id": 3,
      "content": "<pad>",
      "single_word": false,
      "lstrip": false,
      "rstrip": false,
      "normalized": false,
      "special": true
    }
  ],
  "normalizer": null,
  "pre_tokenizer": {
    "type": "Whitespace"
  },
  "post_processor": null,
  "decoder": {
    "type": "WordPiece",
    "prefix": "##",
    "cleanup": true
  },
  "model": {
    "type": "BPE",
    "dropout": null,
    "unk_token": "<unk>",
    "continuing_subword_prefix": "##",
    "end_of_word_suffix": null,
    "fuse_unk": false,
    "byte_fallback": false,
    "ignore_merges": false,
    "vocab": {
      "<unk>": 0,
      "<bos>": 1,
      "<eos>": 2,
      "<pad>": 3,
      "!": 4,
      "\"": 5,
      "#": 6,
      "$": 7,
      "%": 8,
      "&": 9,
      "'": 10,
      "(": 11,
      ")": 12,
      "*": 13,
      "+": 14,
      ",": 15,
      "-": 16,
      ".": 17,
      "/": 18,
      "0": 19,
      "1": 20,
      "2": 21,
      "3": 22,
      "4": 23,
      "5": 24,
      "6": 25,
      "7": 26,
      "8": 27,
      "9": 28,
      ":": 29,
      ";": 30,
      "<": 31,
      "=": 32,
      ">": 33,
      "?": 34,
      "@": 35,
      "A": 36,
      "B": 37,
      "C": 38,
      "D": 39,
      "E": 40,
      "F": 41,
      "G": 42,
      "H": 43,
      "I": 44,
      "J": 45,
      "K": 46,
      "L": 47,
      "M": 48,
      "N": 49,
      "O": 50,
      "P": 51,
      "Q": 52,
      "R": 53,
      "S": 54,
      "T": 55,
      "U": 56,
      "V": 57,
      "W": 58,
      "X": 59,
      "Y": 60,
      "Z": 61,
      "[": 62,
      "]": 63,
      "^": 64,
      "_": 65,
      "a": 66,
      "b": 67,
      "c": 68,
      "d": 69,
      "e": 70,
      "f": 71,
      "g": 72,
      "h": 73,
      "i": 74,
      "j": 75,
      "k": 76,
      "l": 77,
      "m": 78,
      "n": 79,
      "o": 80,
      "p": 81,
      "q": 82,
      "r": 83,
      "s": 84,
      "t": 85,
      "u": 86,
      "v": 87,
      "w": 88,
      "x": 89,
      "y": 90,
      "z": 91,
      "£": 92,
      "«": 93,
      "­": 94,
      "°": 95,
      "²": 96,
      "³": 97,
      "´": 98,
      "º": 99,
      "»": 100,
      "½": 101,
      "À": 102,
      "Á": 103,
      "É": 104,
      "Í": 105,
      "×": 106,
      "Ø": 107,
      "Ú": 108,
      "à": 109,
      "á": 110,
      "â": 111,
      "ã": 112,
      "ä": 113,
      "æ": 114,
      "ç": 115,
      "è": 116,
      "é": 117,
      "ê": 118,
      "ë": 119,
      "í": 120,
      "î": 121,
      "ï": 122,
      "ñ": 123,
      "ó": 124,
      "ô": 125,
      "ö": 126,
      "ø": 127,
      "ú": 128,
      "û": 129,
      "ü": 130,
      "ā": 131,
      "ć": 132,
      "ĉ": 133,
      "č": 134,
      "đ": 135,
      "ē": 136,
      "ę": 137,
      "ĝ": 138,
      "ĥ": 139,
      "İ": 140,
      "ĵ": 141,
      "ł": 142,
      "ń": 143,
      "ņ": 144,
      "ō": 145,
      "ŝ": 146,
      "š": 147,
      "ū": 148,
      "ŭ": 149,
      "ź": 150,
      "Ω": 151,
      "π": 152,
      "М": 153,
      "С": 154,
      "Т": 155,
      "Ч": 156,
      "а": 157,
      "г": 158,
      "д": 159,
      "е": 160,
      "з": 161,
      "и": 162,
      "й": 163,
      "к": 164,
      "л": 165,
      "м": 166,
      "н": 167,
      "о": 168,
      "р": 169,
      "с": 170,
      "т": 171,
      "у": 172,
      "ч": 173,
      "ы": 174,
      "ь": 175,
      "э": 176,
      "я": 177,
      "ׁ": 178,
      "ׂ": 179,
      "ḥ": 180,
      "ṃ": 181,
      "ẽ": 182,
      "ồ": 183,
      "​": 184,
      "–": 185,
      "—": 186,
      "‘": 187,
      "’": 188,
      "“": 189,
      "”": 190,
      "…": 191,
      "‽": 192,
      "₂": 193,
      "₫": 194,
      "€": 195,
      "₵": 196,
      "→": 197,
      "−": 198,
      "☭": 199,
      "♗": 200,
      "♘": 201,
      "々": 202,
      "あ": 203,
      "##e": 204,
      "##d": 205,
      "##i": 206,
      "##n": 207,
      "##g": 208,
      "##o": 209,
      "##s": 210,
      "##c": 211,
      "##a": 212,
      "##t": 213,
      "##l": 214,
      "##r": 215,
      "##m": 216,
      "##p": 217,
      "##f": 218,
      "##u": 219,
      "##h": 220,
      "##b": 221,
      "##v": 222,
      "##y": 223,
      "##k": 224,
      "##5": 225,
      "##0": 226,
      "##w": 227,
      "##3": 228,
      "##7": 229,
      "##4": 230,
      "##1": 231,
      "##.": 232,
      "##?": 233,
      "##\"": 234,
      "##9": 235,
      "##č": 236,
      "##x": 237,
      "##j": 238,
      "##6": 239,
      "##2": 240,
      "##ä": 241,
      "##ö": 242,
      "##z": 243,
      "##ь": 244,
      "##с": 245,
      "##я": 246,
      "##8": 247,
      "##A": 248,
      "##L": 249,
      "##q": 250,
      "##,": 251,
      "##P": 252,
      "##C": 253,
      "##​": 254,
      "##ë": 255,
      "##í": 256,
      "##ï": 257,
      "##;": 258,
      "##ê": 259,
      "##W": 260,
      "##Q": 261,
      "##F": 262,
      "##K": 263,
      "##!": 264,
      "##M": 265,
      "##G": 266,
      "##S": 267,
      "##E": 268,
      "##I": 269,
      "##’": 270,
      "##O": 271,
      "##T": 272,
      "##ó": 273,
      "##š": 274,
      "##ŭ": 275,
      "##U": 276,
      "##”": 277,
      "##á": 278,
      "##)": 279,
      "##ü": 280,
      "##B": 281,
      "##V": 282,
      "##D": 283,
      "##♗": 284,
      "##é": 285,
      "##à": 286,
      "##R": 287,
      "##H": 288,
      "##р": 289,
      "##у": 290,
      "##г": 291,
      "##æ": 292,
      "##N": 293,
      "##X": 294,
      "##ń": 295,
      "##-": 296,
      "##ã": 297,
      "##J": 298,
      "##+": 299,
      "##ú": 300,
      "##о": 301,
      "##ô": 302,
      "##ồ": 303,
      "##м": 304,
      "##а": 305,
      "##к": 306,
      "##&": 307,
      "##ł": 308,
      "##'": 309,
      "##₵": 310,
      "##Y": 311,
      "##ç": 312,
      "##î": 313,
      "##:": 314,
      "##ū": 315,
      "##ṃ": 316,
      "##ō": 317,
      "##º": 318,
      "##Ú": 319,
      "##♘": 320,
      "##ē": 321,
      "##з": 322,
      "##л": 323,
      "##>": 324,
      "##ы": 325,
      "##â": 326,
      "##ø": 327,
      "##т": 328,
      "##н": 329,
      "###": 330,
      "##ę": 331,
      "##ā": 332,
      "##è": 333,
      "##‘": 334,
      "##Z": 335,
      "##ź": 336,
      "##û": 337,
      "##₫": 338,
      "##ñ": 339,
      "##_": 340,
      "##ņ": 341,
      "##е": 342,
      "##ч": 343,
      "##й": 344,
      "##(": 345,
      "##ḥ": 346,
      "##э": 347,
      "##и": 348,
      "##@": 349,
      "##ć": 350,
      "##ou": 351,
      "th": 352,
      "##er": 353,
      "##om": 354,
      "##in": 355,
      "to": 356,
      "you": 357,
      "##at": 358,
      "Tom": 359,
      "##an": 360,
      "##ed": 361,
      "##on": 362,
      "the": 363,
      "##en": 364,
      "##ing": 365,
      "##ar": 366,
      "##or": 367,
      "##is": 368,
      "##es": 369,
      "##as": 370,
      "##ll": 371,
      "##ow": 372,
      "is": 373,
      "##re": 374,
      "##ve": 375,
      "##id": 376,
      "##th": 377,
      "##he": 378,
      "that": 379,
      "in": 380,
      "##ld": 381,
      "do": 382,
      "ha": 383,
      "be": 384,
      "an": 385,
      "##ay": 386,
      "me": 387,
      "##ere": 388,
      "##ot": 389,
      "##le": 390,
      "of": 391,
      "was": 392,
      "##st": 393,
      "re": 394,
      "he": 395,
      "##hat": 396,
      "##et": 397,
      "##im": 398,
      "wi": 399,
      "li": 400,
      "kn": 401,
      "##ch": 402,
      "##ke": 403,
      "go": 404,
      "on": 405,
      "##ant": 406,
      "##it": 407,
      "You": 408,
      "for": 409,
      "it": 410,
      "The": 411,
      "##gh": 412,
      "st": 413,
      "did": 414,
      "know": 415,
      "##ver": 416,
      "##ary": 417,
      "##al": 418,
      "##ic": 419,
      "have": 420,
      "want": 421,
      "ne": 422,
      "Mary": 423,
      "##ut": 424,
      "don": 425,
      "##ome": 426,
      "##ould": 427,
      "##se": 428,
      "He": 429,
      "##ad": 430,
      "##oo": 431,
      "##ght": 432,
      "##ent": 433,
      "Wh": 434,
      "with": 435,
      "your": 436,
      "##ly": 437,
      "We": 438,
      "wh": 439,
      "not": 440,
      "can": 441,
      "##ir": 442,
      "and": 443,
      "##ell": 444,
      "this": 445,
      "my": 446,
      "her": 447,
      "##ink": 448,
      "##ee": 449,
      "##all": 450,
      "##ur": 451,
      "##ter": 452,
      "him": 453,
      "are": 454,
      "##ri": 455,
      "##am": 456,
      "as": 457,
      "Th": 458,
      "##ea": 459,
      "##ion": 460,
      "like": 461,
      "##one": 462,
      "sh": 463,
      "It": 464,
      "think": 465,
      "at": 466,
      "ab": 467,
      "his": 468,
      "didn": 469,
      "##ac": 470,
      "##pp": 471,
      "what": 472,
      "Do": 473,
      "##ust": 474,
      "##out": 475,
      "##thing": 476,
      "She": 477,
      "ll": 478,
      "##ook": 479,
      "What": 480,
      "##op": 481,
      "sa": 482,
      "##od": 483,
      "al": 484,
      "any": 485,
      "##ain": 486,
      "we": 487,
      "##ost": 488,
      "##ce": 489,
      "##nd": 490,
      "ve": 491,
      "wor": 492,
      "tr": 493,
      "about": 494,
      "has": 495,
      "##est": 496,
      "su": 497,
      "##ro": 498,
      "us": 499,
      "##ther": 500,
      "##ake": 501,
      "##ct": 502,
      "##and": 503,
      "##ight": 504,
      "will": 505,
      "so": 506,
      "##us": 507,
      "##ore": 508,
      "##lp": 509,
      "here": 510,
      "##ge": 511,
      "need": 512,
      "told": 513,
      "help": 514,
      "ch": 515,
      "##alk": 516,
      "them": 517,
      "##end": 518,
      "tim": 519,
      "##ill": 520,
      "sp": 521,
      "tell": 522,
      "##ind": 523,
      "##very": 524,
      "all": 525,
      "##ry": 526,
      "##ery": 527,
      "going": 528,
      "##ess": 529,
      "some": 530,
      "pl": 531,
      "How": 532,
      "##rom": 533,
      "##ong": 534,
      "##ive": 535,
      "no": 536,
      "one": 537,
      "does": 538,
      "very": 539,
      "##il": 540,
      "##ren": 541,
      "time": 542,
      "##ul": 543,
      "see": 544,
      "Why": 545,
      "##un": 546,
      "ex": 547,
      "This": 548,
      "##ear": 549,
      "said": 550,
      "##day": 551,
      "##ame": 552,
      "get": 553,
      "had": 554,
      "were": 555,
      "##ate": 556,
      "##ist": 557,
      "happ": 558,
      "##ays": 559,
      "##ble": 560,
      "up": 561,
      "talk": 562,
      "Don": 563,
      "would": 564,
      "##ish": 565,
      "##ally": 566,
      "she": 567,
      "car": 568,
      "##ast": 569,
      "They": 570,
      "##ie": 571,
      "Did": 572,
      "##ol": 573,
      "##ked": 574,
      "##ought": 575,
      "lo": 576,
      "should": 577,
      "from": 578,
      "out": 579,
      "##ree": 580,
      "there": 581,
      "de": 582,
      "##ack": 583,
      "too": 584,
      "look": 585,
      "##ase": 586,
      "ag": 587,
      "##ave": 588,
      "That": 589,
      "won": 590,
      "never": 591,
      "##ard": 592,
      "every": 593,
      "##ers": 594,
      "man": 595,
      "##lf": 596,
      "than": 597,
      "se": 598,
      "##ven": 599,
      "##ice": 600,
      "##if": 601,
      "could": 602,
      "com": 603,
      "doesn": 604,
      "##art": 605,
      "##ath": 606,
      "work": 607,
      "been": 608,
      "who": 609,
      "My": 610,
      "Bost": 611,
      "Boston": 612,
      "by": 613,
      "##ap": 614,
      "Are": 615,
      "mu": 616,
      "but": 617,
      "just": 618,
      "##ew": 619,
      "con": 620,
      "##ak": 621,
      "got": 622,
      "##os": 623,
      "happen": 624,
      "good": 625,
      "cl": 626,
      "come": 627,
      "##lease": 628,
      "wr": 629,
      "pr": 630,
      "##ous": 631,
      "much": 632,
      "home": 633,
      "qu": 634,
      "##row": 635,
      "Can": 636,
      "##au": 637,
      "##riend": 638,
      "##ation": 639,
      "There": 640,
      "##ect": 641,
      "call": 642,
      "##eak": 643,
      "Let": 644,
      "##um": 645,
      "bo": 646,
      "##ite": 647,
      "ar": 648,
      "now": 649,
      "mo": 650,
      "le": 651,
      "dr": 652,
      "##ound": 653,
      "Is": 654,
      "##ody": 655,
      "am": 656,
      "if": 657,
      "hou": 658,
      "lea": 659,
      "##ck": 660,
      "back": 661,
      "##ait": 662,
      "##ved": 663,
      "##self": 664,
      "bu": 665,
      "how": 666,
      "##ob": 667,
      "more": 668,
      "say": 669,
      "##ig": 670,
      "af": 671,
      "co": 672,
      "pro": 673,
      "##ort": 674,
      "##ng": 675,
      "eat": 676,
      "##ady": 677,
      "or": 678,
      "##ried": 679,
      "thought": 680,
      "speak": 681,
      "##ine": 682,
      "isn": 683,
      "##rench": 684,
      "French": 685,
      "##ang": 686,
      "really": 687,
      "##nder": 688,
      "##ag": 689,
      "un": 690,
      "friend": 691,
      "off": 692,
      "##ud": 693,
      "book": 694,
      "exp": 695,
      "##ather": 696,
      "anything": 697,
      "ro": 698,
      "##ass": 699,
      "Where": 700,
      "under": 701,
      "wait": 702,
      "##ra": 703,
      "wanted": 704,
      "when": 705,
      "##fe": 706,
      "still": 707,
      "##ep": 708,
      "long": 709,
      "year": 710,
      "let": 711,
      "##em": 712,
      "bet": 713,
      "##oney": 714,
      "something": 715,
      "##ick": 716,
      "##ning": 717,
      "##ves": 718,
      "##ild": 719,
      "wat": 720,
      "en": 721,
      "Please": 722,
      "knew": 723,
      "take": 724,
      "Who": 725,
      "##eop": 726,
      "##eople": 727,
      "again": 728,
      "only": 729,
      "find": 730,
      "lot": 731,
      "money": 732,
      "leave": 733,
      "they": 734,
      "today": 735,
      "bus": 736,
      "sm": 737,
      "bel": 738,
      "##ber": 739,
      "right": 740,
      "three": 741,
      "##ways": 742,
      "new": 743,
      "##ool": 744,
      "last": 745,
      "day": 746,
      "old": 747,
      "int": 748,
      "asked": 749,
      "always": 750,
      "##ft": 751,
      "##ving": 752,
      "##ide": 753,
      "ask": 754,
      "play": 755,
      "love": 756,
      "where": 757,
      "sure": 758,
      "##iss": 759,
      "wasn": 760,
      "##ue": 761,
      "mad": 762,
      "##ty": 763,
      "##orrow": 764,
      "Tell": 765,
      "tw": 766,
      "##ia": 767,
      "##age": 768,
      "ad": 769,
      "bl": 770,
      "people": 771,
      "many": 772,
      "im": 773,
      "buy": 774,
      "Have": 775,
      "##ood": 776,
      "##urn": 777,
      "##iz": 778,
      "stay": 779,
      "##body": 780,
      "##ope": 781,
      "If": 782,
      "our": 783,
      "house": 784,
      "forg": 785,
      "##ten": 786,
      "When": 787,
      "##ans": 788,
      "underst": 789,
      "why": 790,
      "must": 791,
      "bro": 792,
      "belie": 793,
      "doing": 794,
      "better": 795,
      "left": 796,
      "comp": 797,
      "##ure": 798,
      "##ough": 799,
      "room": 800,
      "read": 801,
      "made": 802,
      "make": 803,
      "##ready": 804,
      "already": 805,
      "give": 806,
      "child": 807,
      "op": 808,
      "##ence": 809,
      "happened": 810,
      "saw": 811,
      "##el": 812,
      "stud": 813,
      "went": 814,
      "mar": 815,
      "thing": 816,
      "##ich": 817,
      "No": 818,
      "##fore": 819,
      "##oun": 820,
      "##ach": 821,
      "##own": 822,
      "##ents": 823,
      "##cc": 824,
      "bec": 825,
      "tom": 826,
      "understand": 827,
      "tea": 828,
      "sch": 829,
      "fl": 830,
      "##ying": 831,
      "pre": 832,
      "##ab": 833,
      "##og": 834,
      "##der": 835,
      "##ting": 836,
      "aw": 837,
      "rem": 838,
      "before": 839,
      "##ity": 840,
      "##ff": 841,
      "fir": 842,
      "tomorrow": 843,
      "##leep": 844,
      "##tle": 845,
      "fa": 846,
      "knows": 847,
      "##act": 848,
      "dog": 849,
      "everything": 850,
      "sw": 851,
      "way": 852,
      "##ise": 853,
      "##able": 854,
      "other": 855,
      "Every": 856,
      "##ies": 857,
      "##ance": 858,
      "##ace": 859,
      "school": 860,
      "down": 861,
      "##estion": 862,
      "##ult": 863,
      "##ose": 864,
      "gl": 865,
      "well": 866,
      "wants": 867,
      "##ian": 868,
      "hand": 869,
      "ever": 870,
      "di": 871,
      "##eel": 872,
      "win": 873,
      "live": 874,
      "##ester": 875,
      "par": 876,
      "plan": 877,
      "believe": 878,
      "done": 879,
      "into": 880,
      "even": 881,
      "##ated": 882,
      "father": 883,
      "question": 884,
      "hope": 885,
      "years": 886,
      "##eek": 887,
      "##ount": 888,
      "##esterday": 889,
      "week": 890,
      "over": 891,
      ".\"": 892,
      "##xt": 893,
      "sc": 894,
      "two": 895,
      "br": 896,
      "##our": 897,
      "##ict": 898,
      "##iff": 899,
      "imp": 900,
      "dec": 901,
      "feel": 902,
      "gr": 903,
      "friends": 904,
      "ear": 905,
      "alone": 906,
      "cat": 907,
      "##ank": 908,
      "yet": 909,
      "##ired": 910,
      "meet": 911,
      "##ious": 912,
      "start": 913,
      "name": 914,
      "diff": 915,
      "##blem": 916,
      "id": 917,
      "problem": 918,
      "##eep": 919,
      "po": 920,
      "first": 921,
      "St": 922,
      "says": 923,
      "yesterday": 924,
      "happy": 925,
      "lit": 926,
      "##ese": 927,
      "wrong": 928,
      "care": 929,
      "##wn": 930,
      "put": 931,
      "##ful": 932,
      "##gry": 933,
      "after": 934,
      "gu": 935,
      "ph": 936,
      "dis": 937,
      "##pt": 938,
      "hard": 939,
      "watch": 940,
      "teach": 941,
      "lear": 942,
      "little": 943,
      "life": 944,
      "##aught": 945,
      "seen": 946,
      "##ngl": 947,
      "came": 948,
      "drink": 949,
      "bre": 950,
      "##ised": 951,
      "##ange": 952,
      "##wer": 953,
      "gir": 954,
      "night": 955,
      "##ile": 956,
      "used": 957,
      "nothing": 958,
      "job": 959,
      "late": 960,
      "app": 961,
      "inter": 962,
      "away": 963,
      "door": 964,
      "gave": 965,
      "##ral": 966,
      "bought": 967,
      "Ch": 968,
      "Aust": 969,
      "Engl": 970,
      "mother": 971,
      "found": 972,
      "sleep": 973,
      "res": 974,
      "##ok": 975,
      "##akes": 976,
      "list": 977,
      "kill": 978,
      "ans": 979,
      "next": 980,
      "gre": 981,
      "##ember": 982,
      "##ire": 983,
      "##mer": 984,
      "sur": 985,
      "open": 986,
      "Austral": 987,
      "couldn": 988,
      "often": 989,
      "seem": 990,
      "their": 991,
      "looking": 992,
      "##raid": 993,
      "Australia": 994,
      "str": 995,
      "married": 996,
      "afraid": 997,
      "dri": 998,
      "children": 999,
      "fin": 1000,
      "##erm": 1001,
      "pers": 1002,
      "##ted": 1003,
      "wouldn": 1004,
      "stop": 1005,
      "Does": 1006,
      "took": 1007,
      "miss": 1008,
      "anyone": 1009,
      "answer": 1010,
      "Your": 1011,
      "walk": 1012,
      "##ip": 1013,
      "pol": 1014,
      "young": 1015,
      "haven": 1016,
      "sing": 1017,
      "##are": 1018,
      "English": 1019,
      "tru": 1020,
      "soon": 1021,
      "el": 1022,
      "remember": 1023,
      "?\"": 1024,
      "lost": 1025,
      "##qu": 1026,
      "part": 1027,
      "without": 1028,
      "show": 1029,
      "te": 1030,
      "water": 1031,
      "##pr": 1032,
      "same": 1033,
      "acc": 1034,
      "heard": 1035,
      "##ment": 1036,
      "turn": 1037,
      "##ily": 1038,
      "busy": 1039,
      "hear": 1040,
      "learn": 1041,
      "##ause": 1042,
      "bad": 1043,
      "##kes": 1044,
      "brother": 1045,
      "wear": 1046,
      "##other": 1047,
      "else": 1048,
      "mor": 1049,
      "##ey": 1050,
      "tired": 1051,
      "likes": 1052,
      "May": 1053,
      "##aut": 1054,
      "fam": 1055,
      "may": 1056,
      "talking": 1057,
      "In": 1058,
      "##sp": 1059,
      "##up": 1060,
      "ap": 1061,
      "rain": 1062,
      "##angu": 1063,
      "att": 1064,
      "##ory": 1065,
      "tried": 1066,
      "word": 1067,
      "idea": 1068,
      "##ize": 1069,
      "morning": 1070,
      "count": 1071,
      "mist": 1072,
      "sho": 1073,
      "rec": 1074,
      "##te": 1075,
      "person": 1076,
      "eas": 1077,
      "fo": 1078,
      "both": 1079,
      "langu": 1080,
      "able": 1081,
      "##ater": 1082,
      "called": 1083,
      "war": 1084,
      "trust": 1085,
      "##ister": 1086,
      "beaut": 1087,
      "##ually": 1088,
      "hur": 1089,
      "use": 1090,
      "##ress": 1091,
      "Some": 1092,
      "des": 1093,
      "##ix": 1094,
      "che": 1095,
      "##oke": 1096,
      "bed": 1097,
      "sit": 1098,
      "prom": 1099,
      "enough": 1100,
      "ey": 1101,
      "truth": 1102,
      "##igh": 1103,
      "##oss": 1104,
      "##more": 1105,
      "##ark": 1106,
      "anymore": 1107,
      "big": 1108,
      "##gg": 1109,
      "##most": 1110,
      "listen": 1111,
      "boy": 1112,
      "hour": 1113,
      "girl": 1114,
      "cont": 1115,
      "sent": 1116,
      "yourself": 1117,
      "##ible": 1118,
      "##olog": 1119,
      "hun": 1120,
      "##lain": 1121,
      "##ner": 1122,
      "ten": 1123,
      "##ret": 1124,
      "best": 1125,
      "please": 1126,
      "##air": 1127,
      "bor": 1128,
      "min": 1129,
      "sn": 1130,
      "swim": 1131,
      "try": 1132,
      "##iful": 1133,
      "##orry": 1134,
      "Jap": 1135,
      "Japan": 1136,
      "##aw": 1137,
      "##les": 1138,
      "letter": 1139,
      "##ctor": 1140,
      "##ail": 1141,
      "ready": 1142,
      "parents": 1143,
      "##ull": 1144,
      "inv": 1145,
      "cold": 1146,
      "things": 1147,
      "almost": 1148,
      "clo": 1149,
      "beautiful": 1150,
      "wind": 1151,
      "sister": 1152,
      "##aking": 1153,
      "##oh": 1154,
      "beg": 1155,
      "##uck": 1156,
      "keep": 1157,
      "mat": 1158,
      "sec": 1159,
      "##ond": 1160,
      "forget": 1161,
      "thir": 1162,
      "vis": 1163,
      "met": 1164,
      "##any": 1165,
      "pass": 1166,
      "sk": 1167,
      "##ream": 1168,
      "##ited": 1169,
      "interest": 1170,
      "bir": 1171,
      "wonder": 1172,
      "cr": 1173,
      "Didn": 1174,
      "waiting": 1175,
      "hot": 1176,
      "himself": 1177,
      "His": 1178,
      "##pped": 1179,
      "world": 1180,
      "##ince": 1181,
      "##ided": 1182,
      "because": 1183,
      "mind": 1184,
      "wom": 1185,
      "adv": 1186,
      "##ced": 1187,
      "phone": 1188,
      "aren": 1189,
      "surpr": 1190,
      "##oc": 1191,
      "rep": 1192,
      "##vor": 1193,
      "true": 1194,
      "kind": 1195,
      "##be": 1196,
      "needs": 1197,
      "died": 1198,
      "fr": 1199,
      "##ffee": 1200,
      "cle": 1201,
      "own": 1202,
      "these": 1203,
      "train": 1204,
      "##ign": 1205,
      "##orm": 1206,
      "mon": 1207,
      "##ens": 1208,
      "##ons": 1209,
      "##ished": 1210,
      "expect": 1211,
      "All": 1212,
      "pret": 1213,
      "glad": 1214,
      "coffee": 1215,
      "##ert": 1216,
      "sl": 1217,
      "teacher": 1218,
      "##ied": 1219,
      "police": 1220,
      "started": 1221,
      "another": 1222,
      "myself": 1223,
      "around": 1224,
      "looks": 1225,
      "As": 1226,
      "writ": 1227,
      "On": 1228,
      "##ions": 1229,
      "books": 1230,
      "run": 1231,
      "##here": 1232,
      "being": 1233,
      "forgot": 1234,
      "##ever": 1235,
      "cry": 1236,
      "rest": 1237,
      "##cle": 1238,
      "Give": 1239,
      "pay": 1240,
      "##ork": 1241,
      "##gether": 1242,
      "break": 1243,
      "lau": 1244,
      "Nob": 1245,
      "key": 1246,
      "wife": 1247,
      "looked": 1248,
      "##ohn": 1249,
      "days": 1250,
      "John": 1251,
      "##ared": 1252,
      "Thank": 1253,
      "great": 1254,
      "##side": 1255,
      "mov": 1256,
      "minut": 1257,
      "together": 1258,
      "Nobody": 1259,
      "lives": 1260,
      "decided": 1261,
      "doctor": 1262,
      "arri": 1263,
      "sorry": 1264,
      "##uss": 1265,
      "ser": 1266,
      "diffic": 1267,
      "##ord": 1268,
      "shouldn": 1269,
      "act": 1270,
      "##oud": 1271,
      "apolog": 1272,
      "sto": 1273,
      "such": 1274,
      "hungry": 1275,
      "agree": 1276,
      "Everyone": 1277,
      "change": 1278,
      "working": 1279,
      "trying": 1280,
      "fun": 1281,
      "ago": 1282,
      "Sh": 1283,
      "few": 1284,
      "each": 1285,
      "##oy": 1286,
      "wish": 1287,
      "kid": 1288,
      "##osed": 1289,
      "sick": 1290,
      "pict": 1291,
      "##ident": 1292,
      "most": 1293,
      "differ": 1294,
      "eyes": 1295,
      "pain": 1296,
      "##ote": 1297,
      "##iver": 1298,
      "Will": 1299,
      "laugh": 1300,
      "##ars": 1301,
      "per": 1302,
      "##ating": 1303,
      "hair": 1304,
      "hate": 1305,
      "window": 1306,
      "son": 1307,
      "place": 1308,
      "import": 1309,
      "trans": 1310,
      "language": 1311,
      "while": 1312,
      "difficult": 1313,
      "30": 1314,
      "##mb": 1315,
      "everyone": 1316,
      "easy": 1317,
      "end": 1318,
      "unt": 1319,
      "class": 1320,
      "early": 1321,
      "cook": 1322,
      "far": 1323,
      "rel": 1324,
      "ob": 1325,
      "ret": 1326,
      "someone": 1327,
      "coming": 1328,
      "family": 1329,
      "write": 1330,
      "times": 1331,
      "food": 1332,
      "ref": 1333,
      "kiss": 1334,
      "##ates": 1335,
      "month": 1336,
      "##we": 1337,
      "ac": 1338,
      "angry": 1339,
      "mus": 1340,
      "##where": 1341,
      "bit": 1342,
      "Would": 1343,
      "##ors": 1344,
      "##ci": 1345,
      "Be": 1346,
      "Mon": 1347,
      "anybody": 1348,
      "##int": 1349,
      "supp": 1350,
      "##ss": 1351,
      "questions": 1352,
      "num": 1353,
      "gone": 1354,
      "mean": 1355,
      "##app": 1356,
      "##inner": 1357,
      "hands": 1358,
      "Could": 1359,
      "study": 1360,
      "Take": 1361,
      "fish": 1362,
      "country": 1363,
      "until": 1364,
      "##used": 1365,
      "getting": 1366,
      "mine": 1367,
      "head": 1368,
      "fire": 1369,
      "favor": 1370,
      "meeting": 1371,
      "fell": 1372,
      "important": 1373,
      "Just": 1374,
      "Which": 1375,
      "needed": 1376,
      "##ital": 1377,
      "TV": 1378,
      "Germ": 1379,
      "##und": 1380,
      "##ple": 1381,
      "small": 1382,
      "Go": 1383,
      "##ub": 1384,
      "##ush": 1385,
      "##led": 1386,
      "beh": 1387,
      "Monday": 1388,
      "pres": 1389,
      "##unch": 1390,
      "killed": 1391,
      "light": 1392,
      "table": 1393,
      "glass": 1394,
      "matter": 1395,
      "##ger": 1396,
      "##ces": 1397,
      "##llow": 1398,
      "hurt": 1399,
      "might": 1400,
      "real": 1401,
      "pa": 1402,
      "##night": 1403,
      "dinner": 1404,
      "##ash": 1405,
      "##ossible": 1406,
      "visit": 1407,
      "##cept": 1408,
      "##ither": 1409,
      "##als": 1410,
      "music": 1411,
      "mistake": 1412,
      "daught": 1413,
      "liked": 1414,
      "drive": 1415,
      "##oice": 1416,
      "later": 1417,
      "explain": 1418,
      "grand": 1419,
      "##ouch": 1420,
      "red": 1421,
      "##ably": 1422,
      "snow": 1423,
      "##ph": 1424,
      "once": 1425,
      "usually": 1426,
      "cons": 1427,
      "transl": 1428,
      "number": 1429,
      "##ier": 1430,
      "seems": 1431,
      "chang": 1432,
      "hours": 1433,
      "##irt": 1434,
      "##omet": 1435,
      "wearing": 1436,
      "longer": 1437,
      "##not": 1438,
      "exact": 1439,
      "air": 1440,
      "born": 1441,
      "die": 1442,
      "free": 1443,
      "##ized": 1444,
      "wash": 1445,
      "city": 1446,
      "near": 1447,
      "Look": 1448,
      "then": 1449,
      "woman": 1450,
      "##av": 1451,
      "living": 1452,
      "helped": 1453,
      "surprised": 1454,
      "add": 1455,
      "reading": 1456,
      "##ages": 1457,
      "box": 1458,
      "An": 1459,
      "cannot": 1460,
      "##az": 1461,
      "stand": 1462,
      "tall": 1463,
      "disc": 1464,
      "resp": 1465,
      "Maybe": 1466,
      "dress": 1467,
      "those": 1468,
      "##anger": 1469,
      "follow": 1470,
      "em": 1471,
      "ele": 1472,
      "##less": 1473,
      "##ical": 1474,
      "five": 1475,
      "reg": 1476,
      "movie": 1477,
      "cost": 1478,
      "dream": 1479,
      "party": 1480,
      "rich": 1481,
      "prob": 1482,
      "##work": 1483,
      "##ense": 1484,
      "lived": 1485,
      "Her": 1486,
      "dead": 1487,
      "OK": 1488,
      "flow": 1489,
      "##aper": 1490,
      "##ings": 1491,
      "since": 1492,
      "comm": 1493,
      "worry": 1494,
      "hasn": 1495,
      "exactly": 1496,
      "chance": 1497,
      "##unk": 1498,
      "Stop": 1499,
      "cut": 1500,
      "probably": 1501,
      "exam": 1502,
      "secret": 1503,
      "pretty": 1504,
      "##ason": 1505,
      "conc": 1506,
      "makes": 1507,
      "thirty": 1508,
      "##reet": 1509,
      "playing": 1510,
      "fast": 1511,
      "##red": 1512,
      "quite": 1513,
      "##oking": 1514,
      "minutes": 1515,
      "law": 1516,
      "lunch": 1517,
      "doll": 1518,
      "##elt": 1519,
      "age": 1520,
      "##ned": 1521,
      "shoes": 1522,
      "apologize": 1523,
      "sat": 1524,
      "cor": 1525,
      "sol": 1526,
      "mil": 1527,
      "##rect": 1528,
      "##br": 1529,
      "tre": 1530,
      "daughter": 1531,
      "Get": 1532,
      "##iness": 1533,
      "thinks": 1534,
      "##ately": 1535,
      "Our": 1536,
      "birth": 1537,
      "picture": 1538,
      "hor": 1539,
      "sum": 1540,
      "loved": 1541,
      "##ison": 1542,
      "##ention": 1543,
      "order": 1544,
      "##upid": 1545,
      "##alth": 1546,
      "become": 1547,
      "##ient": 1548,
      "lie": 1549,
      "pen": 1550,
      "having": 1551,
      "broke": 1552,
      "story": 1553,
      "##lic": 1554,
      "##ax": 1555,
      "favorite": 1556,
      "Amer": 1557,
      "thr": 1558,
      "stupid": 1559,
      "Americ": 1560,
      "turned": 1561,
      "fix": 1562,
      "tonight": 1563,
      "##ision": 1564,
      "high": 1565,
      "tree": 1566,
      "##ike": 1567,
      "which": 1568,
      "##icy": 1569,
      "inf": 1570,
      "These": 1571,
      "##ject": 1572,
      "serious": 1573,
      "Canad": 1574,
      "talked": 1575,
      "##ross": 1576,
      "##thes": 1577,
      "susp": 1578,
      "##osp": 1579,
      "felt": 1580,
      "song": 1581,
      "##ered": 1582,
      "lar": 1583,
      "through": 1584,
      "yours": 1585,
      "##raz": 1586,
      "##ug": 1587,
      "game": 1588,
      "whe": 1589,
      "##med": 1590,
      "heart": 1591,
      "Everybody": 1592,
      "##ition": 1593,
      "wrote": 1594,
      "20": 1595,
      "return": 1596,
      "danger": 1597,
      "face": 1598,
      "##oin": 1599,
      "##ball": 1600,
      "park": 1601,
      "tri": 1602,
      "spend": 1603,
      "##ometim": 1604,
      "fall": 1605,
      "touch": 1606,
      "comput": 1607,
      "##old": 1608,
      "older": 1609,
      "##ations": 1610,
      "ate": 1611,
      "##ife": 1612,
      "caught": 1613,
      "homework": 1614,
      "careful": 1615,
      "Come": 1616,
      "quick": 1617,
      "Put": 1618,
      "promised": 1619,
      "Sp": 1620,
      "Japanese": 1621,
      "##vel": 1622,
      "different": 1623,
      "##ative": 1624,
      "asleep": 1625,
      "finished": 1626,
      "clothes": 1627,
      "cap": 1628,
      "comple": 1629,
      "strong": 1630,
      "proud": 1631,
      "eating": 1632,
      "summer": 1633,
      "wine": 1634,
      "##ience": 1635,
      "##oon": 1636,
      "inc": 1637,
      "mom": 1638,
      "works": 1639,
      "col": 1640,
      "its": 1641,
      "against": 1642,
      "Un": 1643,
      "bab": 1644,
      "At": 1645,
      "interesting": 1646,
      "One": 1647,
      "hosp": 1648,
      "##port": 1649,
      "##ensive": 1650,
      "comes": 1651,
      "changed": 1652,
      "hospital": 1653,
      "##rist": 1654,
      "allow": 1655,
      "close": 1656,
      "arrived": 1657,
      "hum": 1658,
      "##fect": 1659,
      "##eal": 1660,
      "conv": 1661,
      "Al": 1662,
      "conf": 1663,
      "sign": 1664,
      "abs": 1665,
      "death": 1666,
      "Russ": 1667,
      "nice": 1668,
      "words": 1669,
      "dark": 1670,
      "##so": 1671,
      "town": 1672,
      "loves": 1673,
      "##ming": 1674,
      "thank": 1675,
      "drunk": 1676,
      "clean": 1677,
      "news": 1678,
      "accident": 1679,
      "gi": 1680,
      "##ets": 1681,
      "black": 1682,
      "reason": 1683,
      "arm": 1684,
      "speaks": 1685,
      "begin": 1686,
      "white": 1687,
      "!\"": 1688,
      "##fast": 1689,
      "tele": 1690,
      "paid": 1691,
      "hat": 1692,
      "##iled": 1693,
      "Now": 1694,
      "sell": 1695,
      "birthday": 1696,
      "sal": 1697,
      "shirt": 1698,
      "wall": 1699,
      "##ently": 1700,
      "##ouble": 1701,
      "ill": 1702,
      "six": 1703,
      "##ness": 1704,
      "med": 1705,
      "office": 1706,
      "sentence": 1707,
      "saying": 1708,
      "advice": 1709,
      "bicy": 1710,
      "leaving": 1711,
      "Christ": 1712,
      "sun": 1713,
      "clock": 1714,
      "thinking": 1715,
      "leg": 1716,
      "lying": 1717,
      "known": 1718,
      "station": 1719,
      "weather": 1720,
      "##ometimes": 1721,
      "outside": 1722,
      "Chin": 1723,
      "##nis": 1724,
      "##cked": 1725,
      "##bt": 1726,
      "##itch": 1727,
      "also": 1728,
      "milk": 1729,
      "luck": 1730,
      "hotel": 1731,
      "breakfast": 1732,
      "baby": 1733,
      "##per": 1734,
      "computer": 1735,
      "##aur": 1736,
      "lose": 1737,
      "God": 1738,
      "ran": 1739,
      "build": 1740,
      "##eren": 1741,
      "promise": 1742,
      "adm": 1743,
      "##gn": 1744,
      "##ested": 1745,
      "##ime": 1746,
      "##ept": 1747,
      "scared": 1748,
      "watching": 1749,
      "##ended": 1750,
      "disapp": 1751,
      "hid": 1752,
      "expensive": 1753,
      "enj": 1754,
      "##ump": 1755,
      "art": 1756,
      "##cess": 1757,
      "trave": 1758,
      "became": 1759,
      "less": 1760,
      "##ato": 1761,
      "bicycle": 1762,
      "Fr": 1763,
      "pat": 1764,
      "##uct": 1765,
      "making": 1766,
      "sound": 1767,
      "##aken": 1768,
      "##airs": 1769,
      "brought": 1770,
      "catch": 1771,
      "strange": 1772,
      "mess": 1773,
      "##iet": 1774,
      "##sc": 1775,
      "fault": 1776,
      "tennis": 1777,
      "four": 1778,
      "##amp": 1779,
      "guy": 1780,
      "##rell": 1781,
      "##mbrell": 1782,
      "whether": 1783,
      "umbrell": 1784,
      "suspect": 1785,
      "bag": 1786,
      "##ib": 1787,
      "full": 1788,
      "weren": 1789,
      "anim": 1790,
      "began": 1791,
      "finish": 1792,
      "##ween": 1793,
      "sim": 1794,
      "bird": 1795,
      "complete": 1796,
      "Were": 1797,
      "ev": 1798,
      "short": 1799,
      "hop": 1800,
      "##ont": 1801,
      "arr": 1802,
      "kids": 1803,
      "Ask": 1804,
      "flowers": 1805,
      "goes": 1806,
      "missed": 1807,
      "health": 1808,
      "street": 1809,
      "between": 1810,
      "studying": 1811,
      "stopped": 1812,
      "##dd": 1813,
      "##pl": 1814,
      "move": 1815,
      "Thanks": 1816,
      "men": 1817,
      "everybody": 1818,
      "dollars": 1819,
      "team": 1820,
      "enjoy": 1821,
      "##band": 1822,
      "inst": 1823,
      "##man": 1824,
      "planning": 1825,
      "##by": 1826,
      "safe": 1827,
      "##usband": 1828,
      "fe": 1829,
      "husband": 1830,
      "##amed": 1831,
      "##use": 1832,
      "##ased": 1833,
      "umbrella": 1834,
      "##room": 1835,
      "tick": 1836,
      "telling": 1837,
      "##land": 1838,
      "girlf": 1839,
      "##ual": 1840,
      "half": 1841,
      "whole": 1842,
      "girlfriend": 1843,
      "students": 1844,
      "river": 1845,
      "behind": 1846,
      "possible": 1847,
      "quickly": 1848,
      "ass": 1849,
      "bring": 1850,
      "##ures": 1851,
      "##ward": 1852,
      "trouble": 1853,
      "flo": 1854,
      "German": 1855,
      "gard": 1856,
      "taking": 1857,
      "sugg": 1858,
      "problems": 1859,
      "##ower": 1860,
      "pie": 1861,
      "##ring": 1862,
      "point": 1863,
      "##ken": 1864,
      "##rew": 1865,
      "worked": 1866,
      "worried": 1867,
      "business": 1868,
      "##ling": 1869,
      "coll": 1870,
      "##bed": 1871,
      "neigh": 1872,
      "recog": 1873,
      "##aster": 1874,
      "crying": 1875,
      "closed": 1876,
      "younger": 1877,
      "neighb": 1878,
      "pur": 1879,
      "suit": 1880,
      "garden": 1881,
      "kept": 1882,
      "##set": 1883,
      "prot": 1884,
      "evening": 1885,
      "##aurant": 1886,
      "recogn": 1887,
      "Was": 1888,
      "set": 1889,
      "ins": 1890,
      "weekend": 1891,
      "##iction": 1892,
      "Try": 1893,
      "dou": 1894,
      "restaurant": 1895,
      "borrow": 1896,
      "ter": 1897,
      "##fer": 1898,
      "##ames": 1899,
      "sad": 1900,
      "##ith": 1901,
      "opin": 1902,
      "interested": 1903,
      "perfect": 1904,
      "spent": 1905,
      "swe": 1906,
      "regret": 1907,
      "craz": 1908,
      "exc": 1909,
      "dist": 1910,
      "So": 1911,
      "cou": 1912,
      "det": 1913,
      "##yp": 1914,
      "##cy": 1915,
      "complain": 1916,
      "languages": 1917,
      "present": 1918,
      "##get": 1919,
      "##ics": 1920,
      "blue": 1921,
      "broken": 1922,
      "##00": 1923,
      "plans": 1924,
      "##ny": 1925,
      "hurry": 1926,
      "crazy": 1927,
      "Canadian": 1928,
      "Here": 1929,
      "choice": 1930,
      "keys": 1931,
      "cur": 1932,
      "sou": 1933,
      "written": 1934,
      "##eb": 1935,
      "save": 1936,
      "##ins": 1937,
      "driver": 1938,
      "glasses": 1939,
      "fact": 1940,
      "grow": 1941,
      "Aren": 1942,
      "Many": 1943,
      "hit": 1944,
      "##ding": 1945,
      "##reed": 1946,
      "def": 1947,
      "opened": 1948,
      "smoking": 1949,
      "Oct": 1950,
      "road": 1951,
      "stayed": 1952,
      "##ric": 1953,
      "mistakes": 1954,
      "doubt": 1955,
      "cup": 1956,
      "bot": 1957,
      "##iv": 1958,
      "##ial": 1959,
      "beer": 1960,
      "second": 1961,
      "upset": 1962,
      "##ober": 1963,
      "October": 1964,
      "##ead": 1965,
      "foot": 1966,
      "Has": 1967,
      "invited": 1968,
      "pop": 1969,
      "##vered": 1970,
      "trip": 1971,
      "To": 1972,
      "fight": 1973,
      "##ists": 1974,
      "famous": 1975,
      "##io": 1976,
      "##ature": 1977,
      "large": 1978,
      "store": 1979,
      "sold": 1980,
      "##ular": 1981,
      "Everything": 1982,
      "##gar": 1983,
      "##ract": 1984,
      "marry": 1985,
      "opinion": 1986,
      "gen": 1987,
      "##ely": 1988,
      "##bit": 1989,
      "diction": 1990,
      "##rible": 1991,
      "least": 1992,
      "decision": 1993,
      "##ully": 1994,
      "inside": 1995,
      "##ccess": 1996,
      "situ": 1997,
      "floor": 1998,
      "alive": 1999,
      "women": 2000,
      "dangerous": 2001,
      "pian": 2002,
      "##erv": 2003,
      "##ured": 2004,
      "For": 2005,
      "cour": 2006,
      "##aged": 2007,
      "clear": 2008,
      "People": 2009,
      "##ift": 2010,
      "fore": 2011,
      "refused": 2012,
      "discuss": 2013,
      "either": 2014,
      "walked": 2015,
      "Someone": 2016,
      "completely": 2017,
      "pick": 2018,
      "rid": 2019,
      "meat": 2020,
      "##ants": 2021,
      "anywhere": 2022,
      "prison": 2023,
      "sleeping": 2024,
      "##ove": 2025,
      "inform": 2026,
      "##fully": 2027,
      "##ator": 2028,
      "herself": 2029,
      "ext": 2030,
      "guit": 2031,
      "##ertain": 2032,
      "wake": 2033,
      "##pty": 2034,
      "sub": 2035,
      "waited": 2036,
      "prop": 2037,
      "apart": 2038,
      "front": 2039,
      "ple": 2040,
      "past": 2041,
      "##rit": 2042,
      "poor": 2043,
      "gets": 2044,
      "prefer": 2045,
      "apple": 2046,
      "sitting": 2047,
      "swimming": 2048,
      "Af": 2049,
      "mou": 2050,
      "##ats": 2051,
      "protect": 2052,
      "cal": 2053,
      "post": 2054,
      "##sel": 2055,
      "eaten": 2056,
      "company": 2057,
      "dance": 2058,
      "ind": 2059,
      "writing": 2060,
      "consid": 2061,
      "Sund": 2062,
      "fine": 2063,
      "fool": 2064,
      "##right": 2065,
      "impress": 2066,
      "slow": 2067,
      "##uit": 2068,
      "guitar": 2069,
      "##fort": 2070,
      "##way": 2071,
      "horse": 2072,
      "dictionary": 2073,
      "rul": 2074,
      "##mas": 2075,
      "means": 2076,
      "##ries": 2077,
      "##ape": 2078,
      "exper": 2079,
      "##ountain": 2080,
      "listening": 2081,
      "accept": 2082,
      "Call": 2083,
      "speaking": 2084,
      "desk": 2085,
      "elect": 2086,
      "Christmas": 2087,
      "egg": 2088,
      "tax": 2089,
      "##uring": 2090,
      "spoke": 2091,
      "bread": 2092,
      "char": 2093,
      "moved": 2094,
      "situation": 2095,
      "19": 2096,
      "And": 2097,
      "bank": 2098,
      "esc": 2099,
      "##enty": 2100,
      "months": 2101,
      "Tod": 2102,
      "libr": 2103,
      "##oose": 2104,
      "spe": 2105,
      "played": 2106,
      "dogs": 2107,
      "ris": 2108,
      "##ane": 2109,
      "weight": 2110,
      "bother": 2111,
      "fut": 2112,
      "side": 2113,
      "knife": 2114,
      "success": 2115,
      "arg": 2116,
      "earth": 2117,
      "address": 2118,
      "Today": 2119,
      "Keep": 2120,
      "##oth": 2121,
      "empty": 2122,
      "medic": 2123,
      "Not": 2124,
      "##ears": 2125,
      "cake": 2126,
      "squ": 2127,
      "test": 2128,
      "##atur": 2129,
      "coat": 2130,
      "shot": 2131,
      "dep": 2132,
      "correct": 2133,
      "building": 2134,
      "aff": 2135,
      "feeling": 2136,
      "deser": 2137,
      "##ians": 2138,
      "##ences": 2139,
      "likely": 2140,
      "others": 2141,
      "##undred": 2142,
      "enter": 2143,
      "ru": 2144,
      "heav": 2145,
      "Stay": 2146,
      "future": 2147,
      "sometimes": 2148,
      "taken": 2149,
      "happens": 2150,
      "learning": 2151,
      "moment": 2152,
      "##selves": 2153,
      "certain": 2154,
      "ice": 2155,
      "tem": 2156,
      "##hip": 2157,
      "fired": 2158,
      "kissed": 2159,
      "bath": 2160,
      "smoke": 2161,
      "prep": 2162,
      "##medi": 2163,
      "piano": 2164,
      "quit": 2165,
      "respect": 2166,
      "yell": 2167,
      "##iced": 2168,
      "finally": 2169,
      "rather": 2170,
      "lied": 2171,
      "supposed": 2172,
      "cross": 2173,
      "immedi": 2174,
      "winter": 2175,
      "lucky": 2176,
      "learned": 2177,
      "av": 2178,
      "paper": 2179,
      "##ade": 2180,
      "attention": 2181,
      "library": 2182,
      "blame": 2183,
      "mountain": 2184,
      "##idge": 2185,
      "gift": 2186,
      "hundred": 2187,
      "ign": 2188,
      "pun": 2189,
      "##vious": 2190,
      "clim": 2191,
      "Mr": 2192,
      "##ented": 2193,
      "Tok": 2194,
      "sy": 2195,
      "sil": 2196,
      "##ron": 2197,
      "seven": 2198,
      "quiet": 2199,
      "base": 2200,
      "eight": 2201,
      "tast": 2202,
      "##..": 2203,
      "student": 2204,
      "fishing": 2205,
      "color": 2206,
      "Even": 2207,
      "Yes": 2208,
      "sle": 2209,
      "Nothing": 2210,
      "immediately": 2211,
      "fly": 2212,
      "hon": 2213,
      "send": 2214,
      "voice": 2215,
      "showed": 2216,
      "arrested": 2217,
      "Both": 2218,
      "vac": 2219,
      "##ock": 2220,
      "phot": 2221,
      "animals": 2222,
      "boss": 2223,
      "somewhere": 2224,
      "sand": 2225,
      "taught": 2226,
      "##ton": 2227,
      "mem": 2228,
      "expected": 2229,
      "hold": 2230,
      "smell": 2231,
      "ball": 2232,
      "##ude": 2233,
      "along": 2234,
      "belong": 2235,
      "asking": 2236,
      "admit": 2237,
      "takes": 2238,
      "somebody": 2239,
      "twice": 2240,
      "forgive": 2241,
      "girls": 2242,
      "rules": 2243,
      "##uff": 2244,
      "plane": 2245,
      "sky": 2246,
      "rece": 2247,
      "lawy": 2248,
      "helping": 2249,
      "unl": 2250,
      "expl": 2251,
      "minute": 2252,
      "ship": 2253,
      "cats": 2254,
      "##oken": 2255,
      "Germany": 2256,
      "message": 2257,
      "bur": 2258,
      "kitch": 2259,
      "mur": 2260,
      "necess": 2261,
      "guess": 2262,
      "##phone": 2263,
      "Mar": 2264,
      "cent": 2265,
      "ring": 2266,
      "running": 2267,
      "kitchen": 2268,
      "Eur": 2269,
      "sense": 2270,
      "##arm": 2271,
      "drinking": 2272,
      "difference": 2273,
      "passed": 2274,
      "chess": 2275,
      "enem": 2276,
      "surprise": 2277,
      "report": 2278,
      "Ex": 2279,
      "beach": 2280,
      "hardly": 2281,
      "Chinese": 2282,
      "Wait": 2283,
      "##ived": 2284,
      "##ror": 2285,
      "##ined": 2286,
      "##ened": 2287,
      "newsp": 2288,
      "impossible": 2289,
      "arrive": 2290,
      "allowed": 2291,
      "joke": 2292,
      "owe": 2293,
      "perm": 2294,
      "##era": 2295,
      "stole": 2296,
      "Russian": 2297,
      "travel": 2298,
      "apartment": 2299,
      "cow": 2300,
      "ra": 2301,
      "rad": 2302,
      "##father": 2303,
      "##ceed": 2304,
      "course": 2305,
      "deep": 2306,
      "##inc": 2307,
      "##icked": 2308,
      "except": 2309,
      "cond": 2310,
      "eye": 2311,
      "But": 2312,
      "opp": 2313,
      "blood": 2314,
      "##ots": 2315,
      "mag": 2316,
      "##ask": 2317,
      "result": 2318,
      "imag": 2319,
      "translate": 2320,
      "Lea": 2321,
      "##ram": 2322,
      "##odu": 2323,
      "uncle": 2324,
      "weeks": 2325,
      "aftern": 2326,
      "medicine": 2327,
      "Europe": 2328,
      "eng": 2329,
      "##veral": 2330,
      "several": 2331,
      "##cial": 2332,
      "pri": 2333,
      "##yo": 2334,
      "afternoon": 2335,
      "##olut": 2336,
      "Ne": 2337,
      "dro": 2338,
      "dish": 2339,
      "jump": 2340,
      "typ": 2341,
      "reach": 2342,
      "seat": 2343,
      "actually": 2344,
      "##cil": 2345,
      "##pping": 2346,
      "chair": 2347,
      "lawyer": 2348,
      "murder": 2349,
      "hide": 2350,
      "Ital": 2351,
      "airport": 2352,
      "America": 2353,
      "join": 2354,
      "Tokyo": 2355,
      "bar": 2356,
      "##reat": 2357,
      "ent": 2358,
      "##arely": 2359,
      "movies": 2360,
      "couple": 2361,
      "cam": 2362,
      "card": 2363,
      "contin": 2364,
      "New": 2365,
      "stol": 2366,
      "stolen": 2367,
      "shut": 2368,
      "##oof": 2369,
      "Show": 2370,
      "Should": 2371,
      "trees": 2372,
      "sea": 2373,
      "##ys": 2374,
      "noticed": 2375,
      "concert": 2376,
      "##omm": 2377,
      "##ities": 2378,
      "star": 2379,
      "fair": 2380,
      "Par": 2381,
      "Sam": 2382,
      "during": 2383,
      "##een": 2384,
      "Leave": 2385,
      "mis": 2386,
      "##anc": 2387,
      "happening": 2388,
      "believed": 2389,
      "warm": 2390,
      "visited": 2391,
      "pictures": 2392,
      "laughing": 2393,
      "grandfather": 2394,
      "body": 2395,
      "wed": 2396,
      "worth": 2397,
      "smart": 2398,
      "funny": 2399,
      "##eba": 2400,
      "##ony": 2401,
      "##eeth": 2402,
      "necessary": 2403,
      "eff": 2404,
      "nor": 2405,
      "##cceed": 2406,
      "succeed": 2407,
      "##aps": 2408,
      "##rab": 2409,
      "worse": 2410,
      "agreed": 2411,
      "eggs": 2412,
      "inn": 2413,
      "stra": 2414,
      "decide": 2415,
      "##ru": 2416,
      "##anish": 2417,
      "notice": 2418,
      "noise": 2419,
      "##izz": 2420,
      "raining": 2421,
      "suff": 2422,
      "slept": 2423,
      "Tato": 2424,
      "fing": 2425,
      "##road": 2426,
      "spoken": 2427,
      "information": 2428,
      "date": 2429,
      "ride": 2430,
      "##ls": 2431,
      "##teen": 2432,
      "##ointed": 2433,
      "terrible": 2434,
      "Oh": 2435,
      "human": 2436,
      "solve": 2437,
      "radio": 2438,
      "##oid": 2439,
      "clos": 2440,
      "telephone": 2441,
      "Am": 2442,
      "burn": 2443,
      "gun": 2444,
      "tie": 2445,
      "nobody": 2446,
      "##acks": 2447,
      "Something": 2448,
      "laughed": 2449,
      "##bs": 2450,
      "fruit": 2451,
      "Sunday": 2452,
      "risk": 2453,
      "honest": 2454,
      "Tatoeba": 2455,
      "hates": 2456,
      "##ex": 2457,
      "##urch": 2458,
      "driving": 2459,
      "pencil": 2460,
      "suggest": 2461,
      "...": 2462,
      "vacation": 2463,
      "wedding": 2464,
      "fil": 2465,
      "##ache": 2466,
      "fat": 2467,
      "lend": 2468,
      "mid": 2469,
      "power": 2470,
      "meant": 2471,
      "hadn": 2472,
      "##cket": 2473,
      "easily": 2474,
      "##ails": 2475,
      "##ealous": 2476,
      "bottle": 2477,
      "##eech": 2478,
      "warn": 2479,
      "given": 2480,
      "innoc": 2481,
      "##iew": 2482,
      "##orts": 2483,
      "smile": 2484,
      "blind": 2485,
      "singing": 2486,
      "check": 2487,
      "sentences": 2488,
      "American": 2489,
      "##ism": 2490,
      "veget": 2491,
      "##ilt": 2492,
      "deal": 2493,
      "calling": 2494,
      "patient": 2495,
      "recognize": 2496,
      "taxi": 2497,
      "bill": 2498,
      "##friend": 2499,
      "##ern": 2500,
      "##aked": 2501,
      "##ained": 2502,
      "sugar": 2503,
      "fig": 2504,
      "wood": 2505,
      "##aff": 2506,
      "##ination": 2507,
      "green": 2508,
      "ticket": 2509,
      "purp": 2510,
      "After": 2511,
      "afford": 2512,
      "camera": 2513,
      "jealous": 2514,
      "##omed": 2515,
      "price": 2516,
      "prog": 2517,
      "##sper": 2518,
      "land": 2519,
      "##mother": 2520,
      "plays": 2521,
      "convince": 2522,
      "Sami": 2523,
      "top": 2524,
      "cand": 2525,
      "speech": 2526,
      "##ief": 2527,
      "forgotten": 2528,
      "disappointed": 2529,
      "heavy": 2530,
      "teeth": 2531,
      "##iling": 2532,
      "mouth": 2533,
      "offer": 2534,
      "understood": 2535,
      "ce": 2536,
      "##gy": 2537,
      "##atch": 2538,
      "##irty": 2539,
      "##tern": 2540,
      "##oph": 2541,
      "church": 2542,
      "idi": 2543,
      "wonderful": 2544,
      "##ushed": 2545,
      "Spanish": 2546,
      "hoping": 2547,
      "nerv": 2548,
      "##ugg": 2549,
      "##orn": 2550,
      "##ird": 2551,
      "novel": 2552,
      "univer": 2553,
      "studied": 2554,
      "earl": 2555,
      "seemed": 2556,
      "polit": 2557,
      "purpose": 2558,
      "nervous": 2559,
      "pea": 2560,
      "watched": 2561,
      "pub": 2562,
      "##res": 2563,
      "##uts": 2564,
      "abroad": 2565,
      "sudd": 2566,
      "hiding": 2567,
      "sudden": 2568,
      "vill": 2569,
      "##bo": 2570,
      "##aces": 2571,
      "##ific": 2572,
      "boyfriend": 2573,
      "single": 2574,
      "case": 2575,
      "fill": 2576,
      "##rol": 2577,
      "##ility": 2578,
      "##ocol": 2579,
      "gener": 2580,
      "##iday": 2581,
      "carefully": 2582,
      "foreign": 2583,
      "ca": 2584,
      "##head": 2585,
      "##acked": 2586,
      "drank": 2587,
      "birds": 2588,
      "##cum": 2589,
      "common": 2590,
      "slowly": 2591,
      "baseball": 2592,
      "apples": 2593,
      "obvious": 2594,
      "dirty": 2595,
      "faster": 2596,
      "##ray": 2597,
      "##oned": 2598,
      "prof": 2599,
      "intr": 2600,
      "across": 2601,
      "##oint": 2602,
      "##come": 2603,
      "##ts": 2604,
      "##rem": 2605,
      "hist": 2606,
      "player": 2607,
      "earlier": 2608,
      "Sorry": 2609,
      "waste": 2610,
      "choose": 2611,
      "pract": 2612,
      "##ousand": 2613,
      "eats": 2614,
      "##vision": 2615,
      "##ored": 2616,
      "chocol": 2617,
      "opt": 2618,
      "mach": 2619,
      "##na": 2620,
      "##inced": 2621,
      "##isf": 2622,
      "exist": 2623,
      "cla": 2624,
      "moon": 2625,
      "brothers": 2626,
      "piece": 2627,
      "##sperant": 2628,
      "crow": 2629,
      "##cri": 2630,
      "##ze": 2631,
      "Well": 2632,
      "sleepy": 2633,
      "windows": 2634,
      "201": 2635,
      "10": 2636,
      "Esperant": 2637,
      "lead": 2638,
      "dressed": 2639,
      "##ued": 2640,
      "##earch": 2641,
      "walking": 2642,
      "Paris": 2643,
      "##ices": 2644,
      "saved": 2645,
      "##essed": 2646,
      "surv": 2647,
      "returned": 2648,
      "convinced": 2649,
      "newspaper": 2650,
      "named": 2651,
      "pizz": 2652,
      "step": 2653,
      "Isn": 2654,
      "Hey": 2655,
      "dem": 2656,
      "Cl": 2657,
      "Lond": 2658,
      "Turn": 2659,
      "mod": 2660,
      "cars": 2661,
      "grew": 2662,
      "London": 2663,
      "hated": 2664,
      "pot": 2665,
      "throw": 2666,
      "##vers": 2667,
      "failed": 2668,
      "cooking": 2669,
      "taller": 2670,
      "equ": 2671,
      "fif": 2672,
      "##rap": 2673,
      "carry": 2674,
      "dating": 2675,
      "##ale": 2676,
      "##cks": 2677,
      "match": 2678,
      "ski": 2679,
      "apologized": 2680,
      "Bring": 2681,
      "##iol": 2682,
      "##ilty": 2683,
      "guilty": 2684,
      "France": 2685,
      "popular": 2686,
      "Tw": 2687,
      "cre": 2688,
      "##ik": 2689,
      "##ives": 2690,
      "shy": 2691,
      "##ains": 2692,
      "remind": 2693,
      "feed": 2694,
      "Good": 2695,
      "bat": 2696,
      "till": 2697,
      "Those": 2698,
      "shop": 2699,
      "divor": 2700,
      "boys": 2701,
      "bored": 2702,
      "grandmother": 2703,
      "soup": 2704,
      "Esperanto": 2705,
      "fear": 2706,
      "##ged": 2707,
      "poison": 2708,
      "##appy": 2709,
      "Never": 2710,
      "##pen": 2711,
      "tot": 2712,
      "respons": 2713,
      "beginning": 2714,
      "punished": 2715,
      "##ines": 2716,
      "bear": 2717,
      "ann": 2718,
      "del": 2719,
      "leaves": 2720,
      "United": 2721,
      "calm": 2722,
      "consider": 2723,
      "escape": 2724,
      "Sm": 2725,
      "##gest": 2726,
      "hell": 2727,
      "##ution": 2728,
      "appro": 2729,
      "China": 2730,
      "idiot": 2731,
      "With": 2732,
      "##ole": 2733,
      "threw": 2734,
      "##ldom": 2735,
      "##ccer": 2736,
      "chocolate": 2737,
      "Of": 2738,
      "mill": 2739,
      "woke": 2740,
      "los": 2741,
      "seldom": 2742,
      "answered": 2743,
      "ed": 2744,
      "mir": 2745,
      "##den": 2746,
      "##wich": 2747,
      "built": 2748,
      "invite": 2749,
      "wallet": 2750,
      "innocent": 2751,
      "Most": 2752,
      "cream": 2753,
      "den": 2754,
      "though": 2755,
      "##ission": 2756,
      "direct": 2757,
      "expecting": 2758,
      "support": 2759,
      "absolut": 2760,
      "sandwich": 2761,
      "introdu": 2762,
      "Gree": 2763,
      "bike": 2764,
      "hang": 2765,
      "mood": 2766,
      "viol": 2767,
      "##ior": 2768,
      "##lcome": 2769,
      "##stairs": 2770,
      "##une": 2771,
      "self": 2772,
      "appear": 2773,
      "recomm": 2774,
      "suitc": 2775,
      "dishes": 2776,
      "pizza": 2777,
      "Sw": 2778,
      "native": 2779,
      "##eg": 2780,
      "##key": 2781,
      "fail": 2782,
      "capital": 2783,
      "##ef": 2784,
      "##eas": 2785,
      "flu": 2786,
      "machine": 2787,
      "sight": 2788,
      "##ones": 2789,
      "experience": 2790,
      "Life": 2791,
      "pull": 2792,
      "##sty": 2793,
      "soccer": 2794,
      "letters": 2795,
      "followed": 2796,
      "neighbor": 2797,
      "village": 2798,
      "dest": 2799,
      "##ables": 2800,
      "satisf": 2801,
      "wet": 2802,
      "##istic": 2803,
      "loc": 2804,
      "contact": 2805,
      "Any": 2806,
      "collect": 2807,
      "temper": 2808,
      "dad": 2809,
      "##hood": 2810,
      "covered": 2811,
      "##ager": 2812,
      "drinks": 2813,
      "text": 2814,
      "advised": 2815,
      "repl": 2816,
      "television": 2817,
      "extrem": 2818,
      "claim": 2819,
      "cell": 2820,
      "cous": 2821,
      "line": 2822,
      "mot": 2823,
      "##dle": 2824,
      "##par": 2825,
      "stood": 2826,
      "shar": 2827,
      "##ational": 2828,
      "shopping": 2829,
      "listened": 2830,
      "map": 2831,
      "thousand": 2832,
      "##inite": 2833,
      "inj": 2834,
      "persu": 2835,
      "simple": 2836,
      "Ar": 2837,
      "Yesterday": 2838,
      "form": 2839,
      "twenty": 2840,
      "staying": 2841,
      "handed": 2842,
      "bridge": 2843,
      "States": 2844,
      "passport": 2845,
      "##rupt": 2846,
      "\".": 2847,
      "lake": 2848,
      "rob": 2849,
      "yes": 2850,
      "gold": 2851,
      "##itted": 2852,
      "##umb": 2853,
      "##ildren": 2854,
      "appre": 2855,
      "Somebody": 2856,
      "Russia": 2857,
      "peace": 2858,
      "aut": 2859,
      "talks": 2860,
      "##acket": 2861,
      "flight": 2862,
      "names": 2863,
      "##uc": 2864,
      "lic": 2865,
      "##ounded": 2866,
      "intell": 2867,
      "warned": 2868,
      "island": 2869,
      "##idence": 2870,
      "##ters": 2871,
      "##rig": 2872,
      "Whose": 2873,
      "absent": 2874,
      "history": 2875,
      "gas": 2876,
      "lone": 2877,
      "##overed": 2878,
      "##ically": 2879,
      "traff": 2880,
      "locked": 2881,
      "smiled": 2882,
      "cop": 2883,
      "val": 2884,
      "##ises": 2885,
      "##esh": 2886,
      "breath": 2887,
      "singer": 2888,
      "capt": 2889,
      "gar": 2890,
      "##ster": 2891,
      "boring": 2892,
      "traffic": 2893,
      "kil": 2894,
      "laz": 2895,
      "##ends": 2896,
      "standing": 2897,
      "enemy": 2898,
      "ban": 2899,
      "king": 2900,
      "loud": 2901,
      "##con": 2902,
      "##aded": 2903,
      "sisters": 2904,
      "seriously": 2905,
      "film": 2906,
      "appreci": 2907,
      "norm": 2908,
      "##haps": 2909,
      "neither": 2910,
      "weird": 2911,
      "mark": 2912,
      "Only": 2913,
      "##rite": 2914,
      "requ": 2915,
      "##ield": 2916,
      "butter": 2917,
      "scar": 2918,
      "scream": 2919,
      "pretended": 2920,
      "object": 2921,
      "legs": 2922,
      "##ruct": 2923,
      "##ories": 2924,
      "shall": 2925,
      "nose": 2926,
      "##ume": 2927,
      "trusted": 2928,
      "cheese": 2929,
      "received": 2930,
      "absolutely": 2931,
      "Park": 2932,
      "Read": 2933,
      "roof": 2934,
      "tal": 2935,
      "ur": 2936,
      "##ety": 2937,
      "##rog": 2938,
      "plant": 2939,
      "##unately": 2940,
      "lock": 2941,
      "ordered": 2942,
      "##bye": 2943,
      "sweater": 2944,
      "lonely": 2945,
      "Per": 2946,
      "##ps": 2947,
      "##ances": 2948,
      "missing": 2949,
      "president": 2950,
      "straight": 2951,
      ",\"": 2952,
      "weak": 2953,
      "##book": 2954,
      "##omp": 2955,
      "crowd": 2956,
      "##raph": 2957,
      "cust": 2958,
      "fit": 2959,
      "hol": 2960,
      "mail": 2961,
      "tears": 2962,
      "##mat": 2963,
      "##ues": 2964,
      "truck": 2965,
      "sooner": 2966,
      "example": 2967,
      "million": 2968,
      "intellig": 2969,
      "Make": 2970,
      "nine": 2971,
      "ash": 2972,
      "lazy": 2973,
      "Tr": 2974,
      "pos": 2975,
      "##arth": 2976,
      "forest": 2977,
      "feelings": 2978,
      "##ocked": 2979,
      "arms": 2980,
      "artic": 2981,
      "deserve": 2982,
      "Dr": 2983,
      "Sometimes": 2984,
      "moving": 2985,
      "awake": 2986,
      "attack": 2987,
      "pleas": 2988,
      "permission": 2989,
      "extremely": 2990,
      "Open": 2991,
      "danc": 2992,
      "hired": 2993,
      "##rel": 2994,
      "control": 2995,
      "sounds": 2996,
      "dying": 2997,
      "##host": 2998,
      "gover": 2999,
      "##seum": 3000,
      "shower": 3001,
      "attract": 3002,
      "recently": 3003,
      "feet": 3004,
      "pleased": 3005,
      "avoid": 3006,
      "figure": 3007,
      "Ken": 3008,
      "occ": 3009,
      "view": 3010,
      "##over": 3011,
      "##aj": 3012,
      "##ma": 3013,
      "##inal": 3014,
      "##antly": 3015,
      "whatever": 3016,
      "spring": 3017,
      "20th": 3018,
      "prepared": 3019,
      "dam": 3020,
      "er": 3021,
      "vol": 3022,
      "Help": 3023,
      "museum": 3024,
      "button": 3025,
      "healthy": 3026,
      "neighbors": 3027,
      "By": 3028,
      "low": 3029,
      "rude": 3030,
      "##la": 3031,
      "Their": 3032,
      "draw": 3033,
      "project": 3034,
      "aware": 3035,
      "Street": 3036,
      "thirsty": 3037,
      "handsome": 3038,
      "Earth": 3039,
      "Fin": 3040,
      "##ases": 3041,
      "##stem": 3042,
      "flat": 3043,
      "wears": 3044,
      "special": 3045,
      "recommend": 3046,
      "##ards": 3047,
      "painted": 3048,
      "injured": 3049,
      "emb": 3050,
      "jud": 3051,
      "##aid": 3052,
      "##kay": 3053,
      "held": 3054,
      "express": 3055,
      "##okes": 3056,
      "skin": 3057,
      "painting": 3058,
      "explained": 3059,
      "guys": 3060,
      "entire": 3061,
      "bri": 3062,
      "##gent": 3063,
      "##lebr": 3064,
      "cloud": 3065,
      "prove": 3066,
      "bigger": 3067,
      "license": 3068,
      "custom": 3069,
      "Jacks": 3070,
      "joking": 3071,
      "##aven": 3072,
      "##under": 3073,
      "stuff": 3074,
      "canc": 3075,
      "betray": 3076,
      "pocket": 3077,
      "belongs": 3078,
      "suddenly": 3079,
      "2013": 3080,
      "search": 3081,
      "##arter": 3082,
      "##oted": 3083,
      "sup": 3084,
      "##ession": 3085,
      "##unt": 3086,
      "##els": 3087,
      "impro": 3088,
      "attend": 3089,
      "event": 3090,
      "##asket": 3091,
      "Two": 3092,
      "ben": 3093,
      "cried": 3094,
      "ghost": 3095,
      "pool": 3096,
      "##ah": 3097,
      "##awn": 3098,
      "##eng": 3099,
      "goodbye": 3100,
      "cool": 3101,
      "natur": 3102,
      "##ec": 3103,
      "account": 3104,
      "cheap": 3105,
      "##ording": 3106,
      "engine": 3107,
      "celebr": 3108,
      "filled": 3109,
      "satisfied": 3110,
      "Ind": 3111,
      "cause": 3112,
      "hire": 3113,
      "##uty": 3114,
      "##oduct": 3115,
      "##ili": 3116,
      "##rown": 3117,
      "boat": 3118,
      "lots": 3119,
      "grad": 3120,
      "costs": 3121,
      "salary": 3122,
      "definite": 3123,
      "type": 3124,
      "See": 3125,
      "bright": 3126,
      "fur": 3127,
      "##rees": 3128,
      "managed": 3129,
      "descri": 3130,
      "obey": 3131,
      "recognized": 3132,
      "football": 3133,
      "public": 3134,
      "totally": 3135,
      "Satur": 3136,
      "ahead": 3137,
      "forward": 3138,
      "partic": 3139,
      "reply": 3140,
      "Saturday": 3141,
      "basket": 3142,
      "vote": 3143,
      "##ai": 3144,
      "##aced": 3145,
      "unf": 3146,
      "countries": 3147,
      "##arket": 3148,
      "washing": 3149,
      "govern": 3150,
      "superm": 3151,
      "Braz": 3152,
      "ble": 3153,
      "chick": 3154,
      "comfort": 3155,
      "offered": 3156,
      "##rage": 3157,
      "believes": 3158,
      "accused": 3159,
      "subject": 3160,
      "program": 3161,
      "Brazil": 3162,
      "York": 3163,
      "ir": 3164,
      "threat": 3165,
      "wit": 3166,
      "unh": 3167,
      "normal": 3168,
      "Perhaps": 3169,
      "dare": 3170,
      "habit": 3171,
      "golf": 3172,
      "England": 3173,
      "salt": 3174,
      "system": 3175,
      "Rem": 3176,
      "jacket": 3177,
      "##uge": 3178,
      "##read": 3179,
      "lift": 3180,
      "anyway": 3181,
      "ground": 3182,
      "propos": 3183,
      "##fortunately": 3184,
      "000": 3185,
      "Dan": 3186,
      "cast": 3187,
      "themselves": 3188,
      "##ograph": 3189,
      "supermarket": 3190,
      "Write": 3191,
      "lim": 3192,
      "size": 3193,
      "##ipped": 3194,
      "thief": 3195,
      "state": 3196,
      "##ests": 3197,
      "##romise": 3198,
      "Children": 3199,
      "yellow": 3200,
      "suitcase": 3201,
      "cir": 3202,
      "fright": 3203,
      "tong": 3204,
      "beat": 3205,
      "polite": 3206,
      "crime": 3207,
      "##atoes": 3208,
      "animal": 3209,
      "assist": 3210,
      "Arab": 3211,
      "barely": 3212,
      "ju": 3213,
      "zoo": 3214,
      "whose": 3215,
      "##ected": 3216,
      "planet": 3217,
      "scient": 3218,
      "grou": 3219,
      "easier": 3220,
      "bedroom": 3221,
      "pretend": 3222,
      "meaning": 3223,
      "lights": 3224,
      "enjoyed": 3225,
      "photo": 3226,
      "condition": 3227,
      "finger": 3228,
      "appreciate": 3229,
      "pack": 3230,
      "vict": 3231,
      "##ides": 3232,
      "forced": 3233,
      "stick": 3234,
      "cance": 3235,
      "using": 3236,
      "##uel": 3237,
      "ears": 3238,
      "hurts": 3239,
      "realize": 3240,
      "pe": 3241,
      "##lect": 3242,
      "forever": 3243,
      "##ury": 3244,
      "sports": 3245,
      "seeing": 3246,
      "##ateful": 3247,
      "const": 3248,
      "shoot": 3249,
      "relations": 3250,
      "Exc": 3251,
      "definitely": 3252,
      "tongue": 3253,
      "vide": 3254,
      "##ne": 3255,
      "##sh": 3256,
      "##sity": 3257,
      "##rib": 3258,
      "dev": 3259,
      "flower": 3260,
      "fixed": 3261,
      "unlike": 3262,
      "dropped": 3263,
      "iron": 3264,
      "wea": 3265,
      "yen": 3266,
      "ideas": 3267,
      "relax": 3268,
      "##ashed": 3269,
      "songs": 3270,
      "giving": 3271,
      "explan": 3272,
      "Jackson": 3273,
      "docum": 3274,
      "neck": 3275,
      "tooth": 3276,
      "translated": 3277,
      "washed": 3278,
      "tickets": 3279,
      "sweet": 3280,
      "priv": 3281,
      "article": 3282,
      "unhappy": 3283,
      "Excuse": 3284,
      "mention": 3285,
      "##cious": 3286,
      "##erc": 3287,
      "lies": 3288,
      "stone": 3289,
      "above": 3290,
      "##apers": 3291,
      "product": 3292,
      "understands": 3293,
      "grateful": 3294,
      "poem": 3295,
      "dreams": 3296,
      "instead": 3297,
      "squir": 3298,
      "suffer": 3299,
      "Greek": 3300,
      "duty": 3301,
      "pu": 3302,
      "rice": 3303,
      "##ium": 3304,
      "##ging": 3305,
      "##rat": 3306,
      "##omes": 3307,
      "ste": 3308,
      "unc": 3309,
      "personal": 3310,
      "third": 3311,
      "impressed": 3312,
      "taste": 3313,
      "Italy": 3314,
      "##bers": 3315,
      "stuck": 3316,
      "##isten": 3317,
      "manage": 3318,
      "amb": 3319,
      "##ipe": 3320,
      "jumped": 3321,
      "government": 3322,
      "jail": 3323,
      "offic": 3324,
      "rose": 3325,
      "##ourn": 3326,
      "useful": 3327,
      "keeps": 3328,
      "considered": 3329,
      "rule": 3330,
      "raised": 3331,
      "results": 3332,
      "vegetables": 3333,
      "juice": 3334,
      "steal": 3335,
      "socks": 3336,
      "club": 3337,
      "buying": 3338,
      "pregn": 3339,
      "Unfortunately": 3340,
      "ashamed": 3341,
      "natural": 3342,
      "Listen": 3343,
      "games": 3344,
      "orig": 3345,
      "tur": 3346,
      "##gan": 3347,
      "note": 3348,
      "Things": 3349,
      "calls": 3350,
      "drop": 3351,
      "drug": 3352,
      "##ortun": 3353,
      "teaching": 3354,
      "rains": 3355,
      "behav": 3356,
      "corner": 3357,
      "magaz": 3358,
      "Gu": 3359,
      "Ky": 3360,
      "None": 3361,
      "Pl": 3362,
      "Rome": 3363,
      "naked": 3364,
      "pour": 3365,
      "##coh": 3366,
      "##que": 3367,
      "tow": 3368,
      "among": 3369,
      "orange": 3370,
      "adop": 3371,
      "thirteen": 3372,
      "solution": 3373,
      "destro": 3374,
      "sharp": 3375,
      "##cohol": 3376,
      "Pol": 3377,
      "dry": 3378,
      "field": 3379,
      "##itive": 3380,
      "##ode": 3381,
      "invit": 3382,
      "fresh": 3383,
      "obs": 3384,
      "acqu": 3385,
      "headache": 3386,
      "translation": 3387,
      "following": 3388,
      "entered": 3389,
      "burned": 3390,
      "fed": 3391,
      "wa": 3392,
      "##iers": 3393,
      "##cause": 3394,
      "toward": 3395,
      "##hemat": 3396,
      "stom": 3397,
      "sex": 3398,
      "prev": 3399,
      "acting": 3400,
      "Because": 3401,
      "nearly": 3402,
      "disappear": 3403,
      "Italian": 3404,
      "divorced": 3405,
      "fre": 3406,
      "pill": 3407,
      "rent": 3408,
      "##uth": 3409,
      "Tomorrow": 3410,
      "worst": 3411,
      "##ulation": 3412,
      "##aped": 3413,
      "brave": 3414,
      "disag": 3415,
      "resc": 3416,
      "opportun": 3417,
      "drove": 3418,
      "reached": 3419,
      "stomach": 3420,
      "ast": 3421,
      "bark": 3422,
      "##line": 3423,
      "##uses": 3424,
      "gotten": 3425,
      "Alger": 3426,
      "memory": 3427,
      "##omeday": 3428,
      "##board": 3429,
      "losing": 3430,
      "temperature": 3431,
      "weap": 3432,
      "Brit": 3433,
      "Tur": 3434,
      "page": 3435,
      "##oll": 3436,
      "##form": 3437,
      "##erg": 3438,
      "storm": 3439,
      "pron": 3440,
      "amaz": 3441,
      "intend": 3442,
      "relig": 3443,
      "Friday": 3444,
      "imagine": 3445,
      "middle": 3446,
      "responsible": 3447,
      "mirror": 3448,
      "rarely": 3449,
      "##omen": 3450,
      "welcome": 3451,
      "surr": 3452,
      "incre": 3453,
      "chicken": 3454,
      "unlikely": 3455,
      "Bu": 3456,
      "Em": 3457,
      "drow": 3458,
      "rum": 3459,
      "theory": 3460,
      "##ising": 3461,
      "wealth": 3462,
      "tells": 3463,
      "delic": 3464,
      "smarter": 3465,
      "explanation": 3466,
      "term": 3467,
      "##its": 3468,
      "usual": 3469,
      "##ung": 3470,
      "press": 3471,
      "brush": 3472,
      "crim": 3473,
      "crit": 3474,
      "paint": 3475,
      "related": 3476,
      "touched": 3477,
      "perfectly": 3478,
      "##apped": 3479,
      "##enced": 3480,
      "board": 3481,
      "record": 3482,
      "details": 3483,
      "bott": 3484,
      "Neither": 3485,
      "Lay": 3486,
      "Promise": 3487,
      "War": 3488,
      "aunt": 3489,
      "auth": 3490,
      "fle": 3491,
      "math": 3492,
      "##uing": 3493,
      "##ule": 3494,
      "##omb": 3495,
      "stamp": 3496,
      "##icide": 3497,
      "##ute": 3498,
      "pray": 3499,
      "shocked": 3500,
      "ended": 3501,
      "##ploy": 3502,
      "certainly": 3503,
      "cousin": 3504,
      "cancer": 3505,
      "proposal": 3506,
      "relationship": 3507,
      "100": 3508,
      "Since": 3509,
      "cig": 3510,
      "okay": 3511,
      "picked": 3512,
      "##ught": 3513,
      "Three": 3514,
      "sev": 3515,
      "policeman": 3516,
      "realized": 3517,
      "fallen": 3518,
      "electric": 3519,
      "continue": 3520,
      "huge": 3521,
      "main": 3522,
      "ug": 3523,
      "##lo": 3524,
      "##ply": 3525,
      "##word": 3526,
      "happiness": 3527,
      "upstairs": 3528,
      "adult": 3529,
      "swear": 3530,
      "earn": 3531,
      "##orses": 3532,
      "##ledge": 3533,
      "excell": 3534,
      "group": 3535,
      "Che": 3536,
      "oil": 3537,
      "##ments": 3538,
      "##ender": 3539,
      "##oses": 3540,
      "##asses": 3541,
      "feels": 3542,
      "writes": 3543,
      "silent": 3544,
      "banan": 3545,
      "intelligent": 3546,
      "cab": 3547,
      "none": 3548,
      "nuts": 3549,
      "ought": 3550,
      "##ius": 3551,
      "##anced": 3552,
      "##ched": 3553,
      "##ires": 3554,
      "area": 3555,
      "everywhere": 3556,
      "expert": 3557,
      "childhood": 3558,
      "doors": 3559,
      "mistaken": 3560,
      "suspected": 3561,
      "cards": 3562,
      "video": 3563,
      "pregnant": 3564,
      "destroy": 3565,
      "Jane": 3566,
      "Nor": 3567,
      "Pr": 3568,
      "##oto": 3569,
      "neg": 3570,
      "space": 3571,
      "shoulder": 3572,
      "env": 3573,
      "hopes": 3574,
      "courage": 3575,
      "pulled": 3576,
      "##conom": 3577,
      "excellent": 3578,
      "Love": 3579,
      "cough": 3580,
      "dea": 3581,
      "jokes": 3582,
      "##ler": 3583,
      "##mar": 3584,
      "beard": 3585,
      "wasting": 3586,
      "goal": 3587,
      "##tery": 3588,
      "##riage": 3589,
      "##usion": 3590,
      "##olved": 3591,
      "ord": 3592,
      "##abbit": 3593,
      "cookies": 3594,
      "elev": 3595,
      "stronger": 3596,
      "simply": 3597,
      "crossed": 3598,
      "staring": 3599,
      "optim": 3600,
      "##edict": 3601,
      "ones": 3602,
      "stars": 3603,
      "stairs": 3604,
      "share": 3605,
      "weigh": 3606,
      "##ilar": 3607,
      "##ified": 3608,
      "##apt": 3609,
      "oper": 3610,
      "cute": 3611,
      "largest": 3612,
      "earthqu": 3613,
      "Arabic": 3614,
      "Last": 3615,
      "actor": 3616,
      "ver": 3617,
      "##rain": 3618,
      "##men": 3619,
      "hero": 3620,
      "##astic": 3621,
      "rock": 3622,
      "sched": 3623,
      "harder": 3624,
      "interrupt": 3625,
      "judge": 3626,
      "dise": 3627,
      "harm": 3628,
      "pair": 3629,
      "shout": 3630,
      "suicide": 3631,
      "science": 3632,
      "skirt": 3633,
      "treat": 3634,
      "holding": 3635,
      "enemies": 3636,
      "educ": 3637,
      "dancing": 3638,
      "cigar": 3639,
      "Eat": 3640,
      "econom": 3641,
      "pet": 3642,
      "sang": 3643,
      "sour": 3644,
      "##vour": 3645,
      "ham": 3646,
      "##usted": 3647,
      "super": 3648,
      "exh": 3649,
      "blank": 3650,
      "ourselves": 3651,
      "Speak": 3652,
      "thanks": 3653,
      "distance": 3654,
      "caused": 3655,
      "skiing": 3656,
      "tour": 3657,
      "##iest": 3658,
      "##oming": 3659,
      "##allow": 3660,
      "alcohol": 3661,
      "helps": 3662,
      "favour": 3663,
      "glo": 3664,
      "Intern": 3665,
      "##ology": 3666,
      "retired": 3667,
      "admitted": 3668,
      "university": 3669,
      "persuade": 3670,
      "deaf": 3671,
      "Bill": 3672,
      "Say": 3673,
      "couch": 3674,
      "race": 3675,
      "##ege": 3676,
      "##sy": 3677,
      "##ches": 3678,
      "smiling": 3679,
      "kidding": 3680,
      "horrible": 3681,
      "patience": 3682,
      "college": 3683,
      "ignored": 3684,
      "flying": 3685,
      "demand": 3686,
      "author": 3687,
      "Ap": 3688,
      "Lat": 3689,
      "hob": 3690,
      "journ": 3691,
      "sons": 3692,
      "##ek": 3693,
      "convers": 3694,
      "##ument": 3695,
      "dra": 3696,
      "offended": 3697,
      "diet": 3698,
      "serv": 3699,
      "incl": 3700,
      "soldiers": 3701,
      "climbed": 3702,
      "urgent": 3703,
      "Bob": 3704,
      "Find": 3705,
      "due": 3706,
      "hole": 3707,
      "rang": 3708,
      "sens": 3709,
      "##ners": 3710,
      "##acy": 3711,
      "upon": 3712,
      "##umn": 3713,
      "##ago": 3714,
      "pale": 3715,
      "changes": 3716,
      "Canada": 3717,
      "##ibility": 3718,
      "market": 3719,
      "##underst": 3720,
      "betrayed": 3721,
      "private": 3722,
      "Kyoto": 3723,
      "ugly": 3724,
      "Hur": 3725,
      "Hold": 3726,
      "##wers": 3727,
      "##zz": 3728,
      "##ining": 3729,
      "fort": 3730,
      "alarm": 3731,
      "soft": 3732,
      "prov": 3733,
      "flag": 3734,
      "parked": 3735,
      "starting": 3736,
      "contract": 3737,
      "fridge": 3738,
      "classroom": 3739,
      "refuse": 3740,
      "discovered": 3741,
      "escaped": 3742,
      "motor": 3743,
      "Algeria": 3744,
      "Layla": 3745,
      "fash": 3746,
      "##ped": 3747,
      "##iment": 3748,
      "##pper": 3749,
      "answers": 3750,
      "password": 3751,
      "repe": 3752,
      "complaining": 3753,
      "mouse": 3754,
      "opportunity": 3755,
      "pronoun": 3756,
      "##oring": 3757,
      "Hell": 3758,
      "aband": 3759,
      "prin": 3760,
      "##ounds": 3761,
      "bull": 3762,
      "attacked": 3763,
      "desp": 3764,
      "##gged": 3765,
      "cruel": 3766,
      "curr": 3767,
      "climb": 3768,
      "effect": 3769,
      "behavior": 3770,
      "Father": 3771,
      "Time": 3772,
      "lad": 3773,
      "##ency": 3774,
      "##arian": 3775,
      "knowledge": 3776,
      "Think": 3777,
      "noon": 3778,
      "handle": 3779,
      "teachers": 3780,
      "repair": 3781,
      "similar": 3782,
      "distur": 3783,
      "curious": 3784,
      "charac": 3785,
      "misunderst": 3786,
      "Remember": 3787,
      "adopted": 3788,
      "elevator": 3789,
      "earthquake": 3790,
      "fashion": 3791,
      "18": 3792,
      "De": 3793,
      "Su": 3794,
      "cash": 3795,
      "dent": 3796,
      "furn": 3797,
      "horses": 3798,
      "someday": 3799,
      "##arr": 3800,
      "##het": 3801,
      "knock": 3802,
      "##chie": 3803,
      "##icago": 3804,
      "##elled": 3805,
      "Throw": 3806,
      "speaker": 3807,
      "Chicago": 3808,
      "concer": 3809,
      "treated": 3810,
      "facts": 3811,
      "bathroom": 3812,
      "member": 3813,
      "survive": 3814,
      "comfortable": 3815,
      "lay": 3816,
      "pan": 3817,
      "rope": 3818,
      "##cul": 3819,
      "##eral": 3820,
      "##atives": 3821,
      "##orter": 3822,
      "##ider": 3823,
      "ant": 3824,
      "webs": 3825,
      "##ouses": 3826,
      "remain": 3827,
      "intern": 3828,
      "hearing": 3829,
      "badly": 3830,
      "beauty": 3831,
      "slight": 3832,
      "writer": 3833,
      "farm": 3834,
      "gives": 3835,
      "evil": 3836,
      "suggested": 3837,
      "pieces": 3838,
      "proper": 3839,
      "depart": 3840,
      "practice": 3841,
      "introduce": 3842,
      "basketball": 3843,
      "frightened": 3844,
      "honey": 3845,
      "round": 3846,
      "tight": 3847,
      "##iven": 3848,
      "##att": 3849,
      "liar": 3850,
      "stories": 3851,
      "##rif": 3852,
      "conn": 3853,
      "lean": 3854,
      "winning": 3855,
      "suspic": 3856,
      "colour": 3857,
      "hoped": 3858,
      "argue": 3859,
      "ignore": 3860,
      "center": 3861,
      "obviously": 3862,
      "attractive": 3863,
      "bench": 3864,
      "cigaret": 3865,
      "conversation": 3866,
      "Mom": 3867,
      "aud": 3868,
      "pants": 3869,
      "rabbit": 3870,
      "wise": 3871,
      "liter": 3872,
      "##aled": 3873,
      "wore": 3874,
      "deg": 3875,
      "ener": 3876,
      "blow": 3877,
      "scr": 3878,
      "##cient": 3879,
      "suppose": 3880,
      "infl": 3881,
      "population": 3882,
      "Sundays": 3883,
      "accepted": 3884,
      "successful": 3885,
      "arguing": 3886,
      "universe": 3887,
      "position": 3888,
      "Bl": 3889,
      "Watch": 3890,
      "hill": 3891,
      "push": 3892,
      "sort": 3893,
      "##light": 3894,
      "heat": 3895,
      "##ulous": 3896,
      "complic": 3897,
      "poet": 3898,
      "lately": 3899,
      "mathemat": 3900,
      "lesson": 3901,
      "instruct": 3902,
      "soul": 3903,
      "fighting": 3904,
      "Afric": 3905,
      "tastes": 3906,
      "raise": 3907,
      "captain": 3908,
      "holiday": 3909,
      "poss": 3910,
      "##cent": 3911,
      "##fl": 3912,
      "##edit": 3913,
      "allerg": 3914,
      "paying": 3915,
      "daughters": 3916,
      "borrowed": 3917,
      "charge": 3918,
      "succeeded": 3919,
      "midnight": 3920,
      "delicious": 3921,
      "schedule": 3922,
      "Hurry": 3923,
      "dentist": 3924,
      "Acc": 3925,
      "Jim": 3926,
      "Mike": 3927,
      "Sc": 3928,
      "Sit": 3929,
      "cit": 3930,
      "kicked": 3931,
      "maj": 3932,
      "nur": 3933,
      "force": 3934,
      "##ainted": 3935,
      "##cean": 3936,
      "##estim": 3937,
      "##ction": 3938,
      "##using": 3939,
      "chose": 3940,
      "plenty": 3941,
      "##iable": 3942,
      "guests": 3943,
      "runs": 3944,
      "discussed": 3945,
      "##ugged": 3946,
      "approach": 3947,
      "magazine": 3948,
      "Gr": 3949,
      "Port": 3950,
      "Women": 3951,
      "##cut": 3952,
      "##asing": 3953,
      "itself": 3954,
      "##entle": 3955,
      "##riger": 3956,
      "##isted": 3957,
      "intention": 3958,
      "marriage": 3959,
      "scare": 3960,
      "phys": 3961,
      "matters": 3962,
      "##velop": 3963,
      "speed": 3964,
      "silence": 3965,
      "occur": 3966,
      "castle": 3967,
      "poured": 3968,
      "concerned": 3969,
      "Bel": 3970,
      "bow": 3971,
      "houses": 3972,
      "na": 3973,
      "spl": 3974,
      "season": 3975,
      "advant": 3976,
      "refriger": 3977,
      "claims": 3978,
      "Cut": 3979,
      "Wash": 3980,
      "achie": 3981,
      "coun": 3982,
      "##fa": 3983,
      "##ene": 3984,
      "mel": 3985,
      "##ician": 3986,
      "##empt": 3987,
      "##eless": 3988,
      "studies": 3989,
      "poin": 3990,
      "rained": 3991,
      "army": 3992,
      "illeg": 3993,
      "bothering": 3994,
      "Maria": 3995,
      "candy": 3996,
      "potatoes": 3997,
      "According": 3998,
      "Hun": 3999,
      "Mex": 4000,
      "bi": 4001,
      "grab": 4002,
      "nature": 4003,
      "##aving": 4004,
      "##uary": 4005,
      "thin": 4006,
      "##aring": 4007,
      "rele": 4008,
      "react": 4009,
      "##anges": 4010,
      "grass": 4011,
      "starts": 4012,
      "commit": 4013,
      "commun": 4014,
      "artist": 4015,
      "arrest": 4016,
      "Next": 4017,
      "introduced": 4018,
      "invitation": 4019,
      "destroyed": 4020,
      "website": 4021,
      "Mexic": 4022,
      "King": 4023,
      "Re": 4024,
      "camp": 4025,
      "gentle": 4026,
      "joy": 4027,
      "##eans": 4028,
      "##time": 4029,
      "##ker": 4030,
      "##erve": 4031,
      "##lled": 4032,
      "bell": 4033,
      "stri": 4034,
      "plants": 4035,
      "exerc": 4036,
      "brain": 4037,
      "teaches": 4038,
      "walks": 4039,
      "accent": 4040,
      "growing": 4041,
      "avail": 4042,
      "Without": 4043,
      "talented": 4044,
      "Drink": 4045,
      "disease": 4046,
      "gloves": 4047,
      "citiz": 4048,
      "Portug": 4049,
      "refrigerator": 4050,
      "From": 4051,
      "##writ": 4052,
      "##imum": 4053,
      "whis": 4054,
      "Then": 4055,
      "predict": 4056,
      "diary": 4057,
      "appoint": 4058,
      "cooked": 4059,
      "capable": 4060,
      "disappoint": 4061,
      "smells": 4062,
      "closer": 4063,
      "disappeared": 4064,
      "Latin": 4065,
      "drawer": 4066,
      "brown": 4067,
      "hug": 4068,
      "ow": 4069,
      "roses": 4070,
      "##ded": 4071,
      "##let": 4072,
      "##eter": 4073,
      "wild": 4074,
      "##ils": 4075,
      "carp": 4076,
      "cares": 4077,
      "##ify": 4078,
      "qual": 4079,
      "organ": 4080,
      "unable": 4081,
      "cheek": 4082,
      "invest": 4083,
      "Shut": 4084,
      "solved": 4085,
      "clearly": 4086,
      "profession": 4087,
      "complicated": 4088,
      "naive": 4089,
      "Ab": 4090,
      "rub": 4091,
      "##nic": 4092,
      "##co": 4093,
      "##inary": 4094,
      "uses": 4095,
      "log": 4096,
      "separ": 4097,
      "unb": 4098,
      "##epend": 4099,
      "compet": 4100,
      "clever": 4101,
      "supper": 4102,
      "examination": 4103,
      "concl": 4104,
      "equal": 4105,
      "disagree": 4106,
      "Ber": 4107,
      "Dad": 4108,
      "bite": 4109,
      "fuck": 4110,
      "jeans": 4111,
      "toy": 4112,
      "toile": 4113,
      "theater": 4114,
      "rev": 4115,
      "##antic": 4116,
      "##iture": 4117,
      "within": 4118,
      "willing": 4119,
      "nowhere": 4120,
      "level": 4121,
      "useless": 4122,
      "advise": 4123,
      "smaller": 4124,
      "snowing": 4125,
      "email": 4126,
      "committed": 4127,
      "concern": 4128,
      "postp": 4129,
      "depends": 4130,
      "receive": 4131,
      "politics": 4132,
      "copy": 4133,
      "document": 4134,
      "Man": 4135,
      "master": 4136,
      "odd": 4137,
      "##ees": 4138,
      "meas": 4139,
      "meal": 4140,
      "god": 4141,
      "forty": 4142,
      "sungl": 4143,
      "places": 4144,
      "underestim": 4145,
      "forgiven": 4146,
      "cheated": 4147,
      "Spain": 4148,
      "traveling": 4149,
      "climate": 4150,
      "imagination": 4151,
      "murdered": 4152,
      "violin": 4153,
      "towel": 4154,
      "allergic": 4155,
      "sunglasses": 4156,
      "Car": 4157,
      "fever": 4158,
      "gate": 4159,
      "lack": 4160,
      "pig": 4161,
      "wol": 4162,
      "##ov": 4163,
      "##mp": 4164,
      "##rels": 4165,
      "##ama": 4166,
      "##aint": 4167,
      "##roat": 4168,
      "##ongrat": 4169,
      "dece": 4170,
      "debt": 4171,
      "thanked": 4172,
      "friendly": 4173,
      "planned": 4174,
      "biggest": 4175,
      "snake": 4176,
      "percent": 4177,
      "classes": 4178,
      "dreamed": 4179,
      "secrets": 4180,
      "mountains": 4181,
      "fingers": 4182,
      "##exp": 4183,
      "progress": 4184,
      "amazing": 4185,
      "favourite": 4186,
      "Internet": 4187,
      "furniture": 4188,
      "available": 4189,
      "##ongratul": 4190,
      "Mother": 4191,
      "bes": 4192,
      "dig": 4193,
      "fence": 4194,
      "##nel": 4195,
      "shelf": 4196,
      "develop": 4197,
      "finding": 4198,
      "hung": 4199,
      "falling": 4200,
      "excuse": 4201,
      "straw": 4202,
      "Close": 4203,
      "##engers": 4204,
      "exha": 4205,
      "energy": 4206,
      "Col": 4207,
      "Send": 4208,
      "##dom": 4209,
      "##ouse": 4210,
      "##erry": 4211,
      "sofa": 4212,
      "chest": 4213,
      "lob": 4214,
      "coinc": 4215,
      "decl": 4216,
      "disg": 4217,
      "attempt": 4218,
      "involved": 4219,
      "##ucky": 4220,
      "Once": 4221,
      "larger": 4222,
      "confused": 4223,
      "begins": 4224,
      "illness": 4225,
      "elected": 4226,
      "photograph": 4227,
      "coward": 4228,
      "pleasure": 4229,
      "criminal": 4230,
      "critic": 4231,
      "major": 4232,
      "nurse": 4233,
      "Wor": 4234,
      "cities": 4235,
      "wounded": 4236,
      "##gery": 4237,
      "##erence": 4238,
      "##ara": 4239,
      "spo": 4240,
      "amount": 4241,
      "reads": 4242,
      "##icted": 4243,
      "putting": 4244,
      "interp": 4245,
      "strict": 4246,
      "wondered": 4247,
      "kinds": 4248,
      "spends": 4249,
      "Alice": 4250,
      "complained": 4251,
      "burst": 4252,
      "located": 4253,
      "garage": 4254,
      "eventually": 4255,
      "Guess": 4256,
      "motorcy": 4257,
      "Africa": 4258,
      "Act": 4259,
      "Face": 4260,
      "band": 4261,
      "hes": 4262,
      "nons": 4263,
      "##cl": 4264,
      "lips": 4265,
      "##itude": 4266,
      "##iculous": 4267,
      "Whatever": 4268,
      "sale": 4269,
      "##illy": 4270,
      "awful": 4271,
      "turns": 4272,
      "checked": 4273,
      "credit": 4274,
      "greatest": 4275,
      "incred": 4276,
      "insult": 4277,
      "square": 4278,
      "continued": 4279,
      "fifty": 4280,
      "failure": 4281,
      "fluently": 4282,
      "squirrel": 4283,
      "Buy": 4284,
      "hobby": 4285,
      "Hello": 4286,
      "illegal": 4287,
      "hesit": 4288,
      "Men": 4289,
      "har": 4290,
      "homes": 4291,
      "lady": 4292,
      "mer": 4293,
      "rom": 4294,
      "tor": 4295,
      "toys": 4296,
      "inh": 4297,
      "##itions": 4298,
      "##verage": 4299,
      "becoming": 4300,
      "friendship": 4301,
      "cheaper": 4302,
      "humor": 4303,
      "detail": 4304,
      "hello": 4305,
      "describe": 4306,
      "victim": 4307,
      "canceled": 4308,
      "instructions": 4309,
      "released": 4310,
      "En": 4311,
      "Rom": 4312,
      "cult": 4313,
      "mic": 4314,
      "und": 4315,
      "wide": 4316,
      "##mon": 4317,
      "thick": 4318,
      "##ina": 4319,
      "##ancy": 4320,
      "##isy": 4321,
      "##asons": 4322,
      "shorter": 4323,
      "depr": 4324,
      "##ckets": 4325,
      "switch": 4326,
      "airpl": 4327,
      "Americans": 4328,
      "signed": 4329,
      "ridiculous": 4330,
      "independ": 4331,
      "deserves": 4332,
      "century": 4333,
      "woods": 4334,
      "fifteen": 4335,
      "embarr": 4336,
      "brief": 4337,
      "clouds": 4338,
      "terms": 4339,
      "toilet": 4340,
      "World": 4341,
      "embarrass": 4342,
      "Jes": 4343,
      "Water": 4344,
      "lent": 4345,
      "nin": 4346,
      "ocean": 4347,
      "pic": 4348,
      "pil": 4349,
      "var": 4350,
      "voted": 4351,
      "##ulty": 4352,
      "exch": 4353,
      "unus": 4354,
      "minimum": 4355,
      "passengers": 4356,
      "doctors": 4357,
      "behave": 4358,
      "Canadians": 4359,
      "suggestion": 4360,
      "defend": 4361,
      "depend": 4362,
      "selfish": 4363,
      "planted": 4364,
      "witness": 4365,
      "British": 4366,
      "Jesus": 4367,
      "Ad": 4368,
      "Fo": 4369,
      "Rep": 4370,
      "baked": 4371,
      "fal": 4372,
      "hyp": 4373,
      "pity": 4374,
      "pushed": 4375,
      "vain": 4376,
      "##oved": 4377,
      "##ux": 4378,
      "##thod": 4379,
      "inse": 4380,
      "anger": 4381,
      "soci": 4382,
      "##unte": 4383,
      "manager": 4384,
      "comment": 4385,
      "affect": 4386,
      "asks": 4387,
      "imm": 4388,
      "##elve": 4389,
      "faith": 4390,
      "personally": 4391,
      "##azz": 4392,
      "respond": 4393,
      "lessons": 4394,
      "##iliar": 4395,
      "blew": 4396,
      "drowned": 4397,
      "stamps": 4398,
      "abandoned": 4399,
      "appointment": 4400,
      "Hi": 4401,
      "Os": 4402,
      "sink": 4403,
      "ways": 4404,
      "##rate": 4405,
      "##zen": 4406,
      "whom": 4407,
      "dele": 4408,
      "prices": 4409,
      "##agger": 4410,
      "belt": 4411,
      "pockets": 4412,
      "surgery": 4413,
      "drives": 4414,
      "fox": 4415,
      "fold": 4416,
      "begun": 4417,
      "funeral": 4418,
      "##reedom": 4419,
      "European": 4420,
      "denied": 4421,
      "autumn": 4422,
      "kilomet": 4423,
      "volunte": 4424,
      "ambul": 4425,
      "coincidence": 4426,
      "US": 4427,
      "ess": 4428,
      "tough": 4429,
      "##oying": 4430,
      "##bage": 4431,
      "##ids": 4432,
      "memb": 4433,
      "##ential": 4434,
      "cho": 4435,
      "spread": 4436,
      "carried": 4437,
      "defe": 4438,
      "##iform": 4439,
      "arch": 4440,
      "downstairs": 4441,
      "handwrit": 4442,
      "diam": 4443,
      "cheating": 4444,
      "contr": 4445,
      "eleph": 4446,
      "miles": 4447,
      "spec": 4448,
      "##gypt": 4449,
      "local": 4450,
      "textbook": 4451,
      "rescue": 4452,
      "wealthy": 4453,
      "influ": 4454,
      "Facebook": 4455,
      "ambulance": 4456,
      "?!": 4457,
      "Con": 4458,
      "Day": 4459,
      "Egypt": 4460,
      "Har": 4461,
      "mos": 4462,
      "nod": 4463,
      "vase": 4464,
      "##son": 4465,
      "##ald": 4466,
      "##yle": 4467,
      "##athe": 4468,
      "finds": 4469,
      "players": 4470,
      "guard": 4471,
      "sleeps": 4472,
      "bitten": 4473,
      "purse": 4474,
      "##garian": 4475,
      "impression": 4476,
      "unlucky": 4477,
      "reminds": 4478,
      "assistant": 4479,
      "optimistic": 4480,
      "motorcycle": 4481,
      "Haven": 4482,
      "##aul": 4483,
      "##to": 4484,
      "##lished": 4485,
      "##uk": 4486,
      "tool": 4487,
      "##eds": 4488,
      "##ores": 4489,
      "##ows": 4490,
      "rely": 4491,
      "saving": 4492,
      "##apes": 4493,
      "##aka": 4494,
      "uniform": 4495,
      "oldest": 4496,
      "ours": 4497,
      "remark": 4498,
      "div": 4499,
      "resist": 4500,
      "greet": 4501,
      "Mondays": 4502,
      "cleaning": 4503,
      "election": 4504,
      "prepare": 4505,
      "newspapers": 4506,
      "deeply": 4507,
      "replace": 4508,
      "scratch": 4509,
      "mathematics": 4510,
      "Ge": 4511,
      "Hum": 4512,
      "fro": 4513,
      "link": 4514,
      "lab": 4515,
      "non": 4516,
      "##onna": 4517,
      "stat": 4518,
      "##iles": 4519,
      "twelve": 4520,
      "remained": 4521,
      "advance": 4522,
      "relatives": 4523,
      "employ": 4524,
      "salad": 4525,
      "experi": 4526,
      "created": 4527,
      "pean": 4528,
      "Check": 4529,
      "picnic": 4530,
      "gather": 4531,
      "##ran": 4532,
      "##ji": 4533,
      "throat": 4534,
      "shape": 4535,
      "spot": 4536,
      "sheep": 4537,
      "##igner": 4538,
      "oranges": 4539,
      "##raw": 4540,
      "whenever": 4541,
      "resign": 4542,
      "##ips": 4543,
      "skill": 4544,
      "ruined": 4545,
      "divorce": 4546,
      "Smith": 4547,
      "Swed": 4548,
      "unfair": 4549,
      "barking": 4550,
      "weapon": 4551,
      "religion": 4552,
      "exhausted": 4553,
      "nonsense": 4554,
      "handwriting": 4555,
      "00": 4556,
      "Lear": 4557,
      "jam": 4558,
      "silly": 4559,
      "##iber": 4560,
      "##lin": 4561,
      "##uese": 4562,
      "##yl": 4563,
      "##inated": 4564,
      "##aries": 4565,
      "height": 4566,
      "myst": 4567,
      "##tered": 4568,
      "##amb": 4569,
      "##ustomed": 4570,
      "##anding": 4571,
      "spir": 4572,
      "proof": 4573,
      "##agon": 4574,
      "unless": 4575,
      "jobs": 4576,
      "Choose": 4577,
      "stands": 4578,
      "weekends": 4579,
      "extra": 4580,
      "explos": 4581,
      "entr": 4582,
      "deny": 4583,
      "gradu": 4584,
      "further": 4585,
      "blanket": 4586,
      "disturb": 4587,
      "suspicious": 4588,
      "Portuguese": 4589,
      "members": 4590,
      "Jack": 4591,
      "Me": 4592,
      "Pres": 4593,
      "hugged": 4594,
      "rac": 4595,
      "##rop": 4596,
      "##mates": 4597,
      "##ube": 4598,
      "##oms": 4599,
      "##asc": 4600,
      "##otion": 4601,
      "Welcome": 4602,
      "##ril": 4603,
      "saf": 4604,
      "quar": 4605,
      "uns": 4606,
      "breathe": 4607,
      "sings": 4608,
      "recovered": 4609,
      "300": 4610,
      "spending": 4611,
      "reasonable": 4612,
      "sells": 4613,
      "walls": 4614,
      "temp": 4615,
      "battle": 4616,
      "scientist": 4617,
      "towards": 4618,
      "orders": 4619,
      "exercise": 4620,
      "diamond": 4621,
      "\",": 4622,
      "Comp": 4623,
      "Money": 4624,
      "Or": 4625,
      "Ob": 4626,
      "gained": 4627,
      "mater": 4628,
      "national": 4629,
      "##oes": 4630,
      "##ks": 4631,
      "##omat": 4632,
      "##ata": 4633,
      "##though": 4634,
      "ancient": 4635,
      "##ima": 4636,
      "##vert": 4637,
      "##irst": 4638,
      "trad": 4639,
      "##cts": 4640,
      "spell": 4641,
      "gray": 4642,
      "##aughter": 4643,
      "familiar": 4644,
      "chem": 4645,
      "contain": 4646,
      "difficulty": 4647,
      "nearest": 4648,
      "concent": 4649,
      "200": 4650,
      "##ometime": 4651,
      "cleaned": 4652,
      "selling": 4653,
      "admire": 4654,
      "##ibly": 4655,
      "basement": 4656,
      "engaged": 4657,
      "threatened": 4658,
      "frequ": 4659,
      "education": 4660,
      "lobby": 4661,
      "First": 4662,
      "ath": 4663,
      "bomb": 4664,
      "peel": 4665,
      "raw": 4666,
      "sometime": 4667,
      "##aves": 4668,
      "##ym": 4669,
      "insp": 4670,
      "method": 4671,
      "knocked": 4672,
      "social": 4673,
      "decis": 4674,
      "accustomed": 4675,
      "desire": 4676,
      "##ologist": 4677,
      "perform": 4678,
      "ends": 4679,
      "highly": 4680,
      "conference": 4681,
      "determ": 4682,
      "genius": 4683,
      "foolish": 4684,
      "closet": 4685,
      "Smoking": 4686,
      "India": 4687,
      "bananas": 4688,
      "service": 4689,
      "audience": 4690,
      "pointed": 4691,
      "12": 4692,
      "Hand": 4693,
      "Mus": 4694,
      "Mos": 4695,
      "Pro": 4696,
      "Sch": 4697,
      "da": 4698,
      "emer": 4699,
      "fan": 4700,
      "fem": 4701,
      "pond": 4702,
      "tatt": 4703,
      "##ev": 4704,
      "##tain": 4705,
      "##wise": 4706,
      "##eding": 4707,
      "anx": 4708,
      "knee": 4709,
      "trick": 4710,
      "exagger": 4711,
      "ages": 4712,
      "##ective": 4713,
      "thoughts": 4714,
      "removed": 4715,
      "gram": 4716,
      "accomp": 4717,
      "promises": 4718,
      "boxes": 4719,
      "Forget": 4720,
      "prize": 4721,
      "vegetarian": 4722,
      "novels": 4723,
      "persuaded": 4724,
      "value": 4725,
      "improve": 4726,
      "flew": 4727,
      "character": 4728,
      "degrees": 4729,
      "advantage": 4730,
      "grabbed": 4731,
      "professional": 4732,
      "airplane": 4733,
      "unusual": 4734,
      "society": 4735,
      "15": 4736,
      "Great": 4737,
      "Uk": 4738,
      "average": 4739,
      "dust": 4740,
      "est": 4741,
      "fog": 4742,
      "gonna": 4743,
      "jazz": 4744,
      "##ipp": 4745,
      "##now": 4746,
      "##aved": 4747,
      "##rated": 4748,
      "##zed": 4749,
      "##iny": 4750,
      "##orge": 4751,
      "##orrect": 4752,
      "forb": 4753,
      "yourselves": 4754,
      "##irus": 4755,
      "noisy": 4756,
      "careless": 4757,
      "loss": 4758,
      "agg": 4759,
      "sees": 4760,
      "##anged": 4761,
      "lasted": 4762,
      "appl": 4763,
      "interv": 4764,
      "opening": 4765,
      "acted": 4766,
      "Union": 4767,
      "Almost": 4768,
      "bags": 4769,
      "soldier": 4770,
      "argument": 4771,
      "ruin": 4772,
      "burning": 4773,
      "efforts": 4774,
      "modern": 4775,
      "deliver": 4776,
      "particip": 4777,
      "particular": 4778,
      "princess": 4779,
      "romantic": 4780,
      "false": 4781,
      "mystery": 4782,
      "tattoo": 4783,
      "Add": 4784,
      "congratul": 4785,
      "eager": 4786,
      "tail": 4787,
      "van": 4788,
      "##ney": 4789,
      "##gth": 4790,
      "##cast": 4791,
      "##zer": 4792,
      "hall": 4793,
      "begged": 4794,
      "hel": 4795,
      "##uted": 4796,
      "##iri": 4797,
      "chos": 4798,
      "sport": 4799,
      "##rength": 4800,
      "##ecture": 4801,
      "blond": 4802,
      "screw": 4803,
      "slipped": 4804,
      "presents": 4805,
      "computers": 4806,
      "evidence": 4807,
      "grown": 4808,
      "buried": 4809,
      "##resp": 4810,
      "survived": 4811,
      "chosen": 4812,
      "Each": 4813,
      "Jud": 4814,
      "Ph": 4815,
      "Qu": 4816,
      "aim": 4817,
      "dess": 4818,
      "gay": 4819,
      "lamp": 4820,
      "lower": 4821,
      "lines": 4822,
      "nap": 4823,
      "pork": 4824,
      "task": 4825,
      "##tes": 4826,
      "##met": 4827,
      "##yond": 4828,
      "##ingu": 4829,
      "iss": 4830,
      "beyond": 4831,
      "##chn": 4832,
      "##iron": 4833,
      "shame": 4834,
      "ability": 4835,
      "workers": 4836,
      "##ection": 4837,
      "bush": 4838,
      "lovely": 4839,
      "flood": 4840,
      "wins": 4841,
      "stranger": 4842,
      "answering": 4843,
      "lightning": 4844,
      "musician": 4845,
      "changing": 4846,
      "eleven": 4847,
      "dollar": 4848,
      "assume": 4849,
      "insane": 4850,
      "##ival": 4851,
      "experiment": 4852,
      "generous": 4853,
      "##parents": 4854,
      "suffering": 4855,
      "original": 4856,
      "turning": 4857,
      "rumor": 4858,
      "Hungarian": 4859,
      "kilometers": 4860,
      "dessert": 4861,
      "Mil": 4862,
      "Sun": 4863,
      "Tony": 4864,
      "Tues": 4865,
      "bare": 4866,
      "file": 4867,
      "path": 4868,
      "rot": 4869,
      "##gu": 4870,
      "##af": 4871,
      "##lig": 4872,
      "ange": 4873,
      "meters": 4874,
      "heaven": 4875,
      "stared": 4876,
      "shit": 4877,
      "carr": 4878,
      "shoulders": 4879,
      "coin": 4880,
      "coins": 4881,
      "##ization": 4882,
      "grave": 4883,
      "ident": 4884,
      "##cially": 4885,
      "grandparents": 4886,
      "nearby": 4887,
      "added": 4888,
      "messages": 4889,
      "fully": 4890,
      "neighbour": 4891,
      "##ebook": 4892,
      "quietly": 4893,
      "ringing": 4894,
      "mirac": 4895,
      "ghosts": 4896,
      "astron": 4897,
      "environ": 4898,
      "includ": 4899,
      "pronounce": 4900,
      "citizen": 4901,
      "President": 4902,
      "Ukrain": 4903,
      "Tuesday": 4904,
      "Bet": 4905,
      "Ziri": 4906,
      "rough": 4907,
      "##ti": 4908,
      "##my": 4909,
      "##bles": 4910,
      "reasons": 4911,
      "##iter": 4912,
      "strength": 4913,
      "##iring": 4914,
      "##ament": 4915,
      "chairs": 4916,
      "agrees": 4917,
      "produ": 4918,
      "##ankly": 4919,
      "strang": 4920,
      "struck": 4921,
      "##pring": 4922,
      "tense": 4923,
      "invented": 4924,
      "actress": 4925,
      "traveled": 4926,
      "direction": 4927,
      "appeared": 4928,
      "appearance": 4929,
      "valu": 4930,
      "surrounded": 4931,
      "April": 4932,
      "Follow": 4933,
      "Osaka": 4934,
      "App": 4935,
      "Cle": 4936,
      "Cats": 4937,
      "More": 4938,
      "Paul": 4939,
      "Wake": 4940,
      "cine": 4941,
      "duck": 4942,
      "double": 4943,
      "fake": 4944,
      "gri": 4945,
      "row": 4946,
      "##arrow": 4947,
      "##reen": 4948,
      "lion": 4949,
      "notebook": 4950,
      "alb": 4951,
      "conven": 4952,
      "enc": 4953,
      "wherever": 4954,
      "final": 4955,
      "##quit": 4956,
      "##ressive": 4957,
      "hunting": 4958,
      "Before": 4959,
      "south": 4960,
      "factory": 4961,
      "subway": 4962,
      "powerful": 4963,
      "options": 4964,
      "claimed": 4965,
      "crowded": 4966,
      "pupp": 4967,
      "puzz": 4968,
      "electricity": 4969,
      "North": 4970,
      "Grand": 4971,
      "interpre": 4972,
      "independent": 4973,
      "environment": 4974,
      "freedom": 4975,
      "pin": 4976,
      "sac": 4977,
      "##iving": 4978,
      "##ique": 4979,
      "##uce": 4980,
      "##ware": 4981,
      "##urance": 4982,
      "##ndry": 4983,
      "champ": 4984,
      "##osoph": 4985,
      "cover": 4986,
      "##aghet": 4987,
      "envel": 4988,
      "##berries": 4989,
      "twins": 4990,
      "##ansl": 4991,
      "misses": 4992,
      "shoe": 4993,
      "tallest": 4994,
      "dreaming": 4995,
      "wheel": 4996,
      "hidden": 4997,
      "doubts": 4998,
      "announ": 4999,
      "collection": 5000,
      "cousins": 5001,
      "celebrate": 5002,
      "officer": 5003,
      "peanuts": 5004,
      "entrance": 5005,
      "interview": 5006,
      "##aghetti": 5007,
      "envelope": 5008,
      "Happy": 5009,
      "Pick": 5010,
      "bas": 5011,
      "bal": 5012,
      "cere": 5013,
      "cave": 5014,
      "dy": 5015,
      "dumb": 5016,
      "eld": 5017,
      "fate": 5018,
      "faces": 5019,
      "frog": 5020,
      "hy": 5021,
      "ty": 5022,
      "wis": 5023,
      "##gle": 5024,
      "##cus": 5025,
      "##cles": 5026,
      "##anta": 5027,
      "##utch": 5028,
      "sail": 5029,
      "However": 5030,
      "##ilosoph": 5031,
      "sew": 5032,
      "bucket": 5033,
      "rights": 5034,
      "bran": 5035,
      "owner": 5036,
      "Shall": 5037,
      "##ublic": 5038,
      "laws": 5039,
      "colors": 5040,
      "cups": 5041,
      "##ivil": 5042,
      "unlocked": 5043,
      "loudly": 5044,
      "pressure": 5045,
      "fortune": 5046,
      "leaned": 5047,
      "cigarette": 5048,
      "split": 5049,
      "homesick": 5050,
      "nodded": 5051,
      "experienced": 5052,
      "cinema": 5053,
      "album": 5054,
      "Fl": 5055,
      "Haw": 5056,
      "bound": 5057,
      "mass": 5058,
      "psy": 5059,
      "rate": 5060,
      "##ox": 5061,
      "##mit": 5062,
      "##lling": 5063,
      "##stances": 5064,
      "##urs": 5065,
      "soap": 5066,
      "seats": 5067,
      "unexp": 5068,
      "sword": 5069,
      "hopeless": 5070,
      "##ption": 5071,
      "youngest": 5072,
      "shock": 5073,
      "warning": 5074,
      "contains": 5075,
      "snakes": 5076,
      "crash": 5077,
      "crashed": 5078,
      "laundry": 5079,
      "served": 5080,
      "retire": 5081,
      "insisted": 5082,
      "excited": 5083,
      "calcul": 5084,
      "photos": 5085,
      "exception": 5086,
      "magn": 5087,
      "magic": 5088,
      "effort": 5089,
      "political": 5090,
      "leader": 5091,
      "Greece": 5092,
      "err": 5093,
      "cancel": 5094,
      "pillow": 5095,
      "hammer": 5096,
      "repeat": 5097,
      "investig": 5098,
      "wolf": 5099,
      "Actually": 5100,
      "pilot": 5101,
      "decisions": 5102,
      "Kor": 5103,
      "Lind": 5104,
      "Mars": 5105,
      "Pass": 5106,
      "Spring": 5107,
      "Won": 5108,
      "dawn": 5109,
      "laid": 5110,
      "tig": 5111,
      "##gs": 5112,
      "##mate": 5113,
      "##hib": 5114,
      "##val": 5115,
      "##ona": 5116,
      "former": 5117,
      "##ales": 5118,
      "##ookie": 5119,
      "spaghetti": 5120,
      "##olic": 5121,
      "comb": 5122,
      "##assy": 5123,
      "teen": 5124,
      "trusts": 5125,
      "active": 5126,
      "kissing": 5127,
      "##cience": 5128,
      "reality": 5129,
      "##ibi": 5130,
      "gifts": 5131,
      "damage": 5132,
      "entirely": 5133,
      "circum": 5134,
      "##ribly": 5135,
      "stepped": 5136,
      "Turk": 5137,
      "severe": 5138,
      "journal": 5139,
      "unexpected": 5140,
      "Linda": 5141,
      "Fe": 5142,
      "Mine": 5143,
      "Santa": 5144,
      "Talk": 5145,
      "fant": 5146,
      "ho": 5147,
      "##dy": 5148,
      "##iod": 5149,
      "##ially": 5150,
      "##ges": 5151,
      "##mber": 5152,
      "##bow": 5153,
      "##viet": 5154,
      "myster": 5155,
      "asp": 5156,
      "spare": 5157,
      "##essor": 5158,
      "mob": 5159,
      "coach": 5160,
      "prohib": 5161,
      "waiter": 5162,
      "blamed": 5163,
      "pref": 5164,
      "appears": 5165,
      "rainy": 5166,
      "design": 5167,
      "period": 5168,
      "haircut": 5169,
      "bitter": 5170,
      "Christian": 5171,
      "Soviet": 5172,
      "foreigner": 5173,
      "informed": 5174,
      "deserved": 5175,
      "preparing": 5176,
      "yelled": 5177,
      "error": 5178,
      "victory": 5179,
      "prevented": 5180,
      "ladder": 5181,
      "beside": 5182,
      "forbid": 5183,
      "aggressive": 5184,
      "13": 5185,
      "Br": 5186,
      "Ju": 5187,
      "Mt": 5188,
      "Se": 5189,
      "Sou": 5190,
      "rare": 5191,
      "##kn": 5192,
      "##king": 5193,
      "tore": 5194,
      "##idays": 5195,
      "##lex": 5196,
      "spite": 5197,
      "cock": 5198,
      "process": 5199,
      "rooms": 5200,
      "disl": 5201,
      "listens": 5202,
      "##onscious": 5203,
      "headed": 5204,
      "Ans": 5205,
      "secretary": 5206,
      "accidentally": 5207,
      "sales": 5208,
      "insurance": 5209,
      "terribly": 5210,
      "##bitious": 5211,
      "oppos": 5212,
      "##olution": 5213,
      "responsibility": 5214,
      "garbage": 5215,
      "scarf": 5216,
      "engineer": 5217,
      "drugs": 5218,
      "bottom": 5219,
      "occurred": 5220,
      "Mexico": 5221,
      "Columb": 5222,
      "frequently": 5223,
      "valuable": 5224,
      "Dutch": 5225,
      "Ed": 5226,
      "civil": 5227,
      "drew": 5228,
      "oven": 5229,
      "packed": 5230,
      "sinc": 5231,
      "##nes": 5232,
      "##cow": 5233,
      "##born": 5234,
      "##ky": 5235,
      "##stit": 5236,
      "lif": 5237,
      "liber": 5238,
      "##icient": 5239,
      "While": 5240,
      "##eah": 5241,
      "shave": 5242,
      "trait": 5243,
      "##illed": 5244,
      "spin": 5245,
      "spider": 5246,
      "##ieve": 5247,
      "queen": 5248,
      "scene": 5249,
      "Str": 5250,
      "shows": 5251,
      "maybe": 5252,
      "##spe": 5253,
      "desper": 5254,
      "advent": 5255,
      "trains": 5256,
      "serve": 5257,
      "agreement": 5258,
      "ignoring": 5259,
      "punish": 5260,
      "robbed": 5261,
      "bleeding": 5262,
      "weapons": 5263,
      "bottles": 5264,
      "Such": 5265,
      "explosion": 5266,
      "safety": 5267,
      "Moscow": 5268,
      "Hawai": 5269,
      "psych": 5270,
      "mobile": 5271,
      "Answer": 5272,
      "Cal": 5273,
      "Either": 5274,
      "Fu": 5275,
      "June": 5276,
      "Soon": 5277,
      "Wow": 5278,
      "cy": 5279,
      "dear": 5280,
      "host": 5281,
      "ox": 5282,
      "pounds": 5283,
      "vers": 5284,
      "##nam": 5285,
      "##ero": 5286,
      "youth": 5287,
      "##anon": 5288,
      "##onse": 5289,
      "##adays": 5290,
      "##eable": 5291,
      "spoon": 5292,
      "##ilities": 5293,
      "pra": 5294,
      "below": 5295,
      "twin": 5296,
      "prec": 5297,
      "swallow": 5298,
      "poll": 5299,
      "phr": 5300,
      "philosoph": 5301,
      "interf": 5302,
      "remembered": 5303,
      "techn": 5304,
      "keeping": 5305,
      "response": 5306,
      "##olded": 5307,
      "yelling": 5308,
      "punct": 5309,
      "murderer": 5310,
      "candles": 5311,
      "annoy": 5312,
      "Finn": 5313,
      "limit": 5314,
      "squirrels": 5315,
      "acquainted": 5316,
      "source": 5317,
      "currently": 5318,
      "quality": 5319,
      "Berlin": 5320,
      "anxious": 5321,
      "carrots": 5322,
      "prefers": 5323,
      "##specially": 5324,
      "Cookie": 5325,
      "Few": 5326,
      "Gl": 5327,
      "Lu": 5328,
      "Pric": 5329,
      "bone": 5330,
      "papers": 5331,
      "sides": 5332,
      "tend": 5333,
      "##gency": 5334,
      "##owed": 5335,
      "##icate": 5336,
      "plate": 5337,
      "princ": 5338,
      "lottery": 5339,
      "##issors": 5340,
      "impat": 5341,
      "Start": 5342,
      "stops": 5343,
      "classical": 5344,
      "regard": 5345,
      "absence": 5346,
      "##wards": 5347,
      "prisoner": 5348,
      "correctly": 5349,
      "published": 5350,
      "general": 5351,
      "violence": 5352,
      "breathing": 5353,
      "screaming": 5354,
      "poems": 5355,
      "earns": 5356,
      "operation": 5357,
      "tourists": 5358,
      "Prices": 5359,
      "princip": 5360,
      "Bible": 5361,
      "Oly": 5362,
      "Rob": 5363,
      "Sl": 5364,
      "Save": 5365,
      "Word": 5366,
      "lawn": 5367,
      "narrow": 5368,
      "pier": 5369,
      "##oot": 5370,
      "##lim": 5371,
      "##fly": 5372,
      "##ka": 5373,
      "##kin": 5374,
      "##jud": 5375,
      "##ators": 5376,
      "bears": 5377,
      "##aly": 5378,
      "##amas": 5379,
      "shake": 5380,
      "##esty": 5381,
      "phoned": 5382,
      "resem": 5383,
      "Yours": 5384,
      "content": 5385,
      "##ocr": 5386,
      "kindness": 5387,
      "grandch": 5388,
      "solar": 5389,
      "complex": 5390,
      "Although": 5391,
      "confessed": 5392,
      "terror": 5393,
      "distract": 5394,
      "detective": 5395,
      "defense": 5396,
      "discussion": 5397,
      "silver": 5398,
      "request": 5399,
      "Transl": 5400,
      "customers": 5401,
      "irre": 5402,
      "unconscious": 5403,
      "origin": 5404,
      "Emily": 5405,
      "bullet": 5406,
      "depressed": 5407,
      "influence": 5408,
      "mosquit": 5409,
      "School": 5410,
      "Hawaii": 5411,
      "Fuji": 5412,
      "Ah": 5413,
      "Kate": 5414,
      "Use": 5415,
      "dim": 5416,
      "eur": 5417,
      "especially": 5418,
      "lat": 5419,
      "nails": 5420,
      "pages": 5421,
      "rushed": 5422,
      "tip": 5423,
      "wound": 5424,
      "##ples": 5425,
      "##uous": 5426,
      "##vant": 5427,
      "wiped": 5428,
      "stub": 5429,
      "##alf": 5430,
      "spy": 5431,
      "##uments": 5432,
      "##embers": 5433,
      "##aches": 5434,
      "##ogram": 5435,
      "remains": 5436,
      "cheer": 5437,
      "swims": 5438,
      "actions": 5439,
      "consists": 5440,
      "conserv": 5441,
      "admired": 5442,
      "court": 5443,
      "199": 5444,
      "delay": 5445,
      "suitcases": 5446,
      "neighborhood": 5447,
      "pleasant": 5448,
      "furious": 5449,
      "constantly": 5450,
      "stealing": 5451,
      "economy": 5452,
      "sensitive": 5453,
      "misunderstood": 5454,
      "gentleman": 5455,
      "About": 5456,
      "angel": 5457,
      "impatient": 5458,
      "Jan": 5459,
      "punch": 5460,
      "rap": 5461,
      "##ients": 5462,
      "##overy": 5463,
      "##aired": 5464,
      "##ration": 5465,
      "##zing": 5466,
      "##iders": 5467,
      "##thy": 5468,
      "##store": 5469,
      "repr": 5470,
      "fork": 5471,
      "knowing": 5472,
      "notes": 5473,
      "aside": 5474,
      "altern": 5475,
      "alibi": 5476,
      "##ander": 5477,
      "talkative": 5478,
      "mud": 5479,
      "ambitious": 5480,
      "unp": 5481,
      "##izing": 5482,
      "compos": 5483,
      "scissors": 5484,
      "decor": 5485,
      "poker": 5486,
      "mayor": 5487,
      "warmer": 5488,
      "classmates": 5489,
      "reflect": 5490,
      "mush": 5491,
      "higher": 5492,
      "taxes": 5493,
      "cows": 5494,
      "ceiling": 5495,
      "steps": 5496,
      "carrying": 5497,
      "battery": 5498,
      "replied": 5499,
      "dancer": 5500,
      "improved": 5501,
      "banana": 5502,
      "property": 5503,
      "various": 5504,
      "contrad": 5505,
      "female": 5506,
      "Columbus": 5507,
      "Olymp": 5508,
      "500": 5509,
      "Luck": 5510,
      "Sud": 5511,
      "Yeah": 5512,
      "ner": 5513,
      "port": 5514,
      "##gl": 5515,
      "##gr": 5516,
      "##cing": 5517,
      "##annel": 5518,
      "wasted": 5519,
      "##anted": 5520,
      "##iting": 5521,
      "##ites": 5522,
      "whist": 5523,
      "##ural": 5524,
      "##urity": 5525,
      "##each": 5526,
      "##ops": 5527,
      "trunk": 5528,
      "deer": 5529,
      "##osh": 5530,
      "arrog": 5531,
      "bluff": 5532,
      "##abet": 5533,
      "watches": 5534,
      "breaking": 5535,
      "strugg": 5536,
      "parts": 5537,
      "Inst": 5538,
      "attended": 5539,
      "horror": 5540,
      "humili": 5541,
      "shirts": 5542,
      "sixty": 5543,
      "complaints": 5544,
      "symb": 5545,
      "suffers": 5546,
      "##ophone": 5547,
      "##box": 5548,
      "model": 5549,
      "kilogram": 5550,
      "butterfly": 5551,
      "intelligence": 5552,
      "embassy": 5553,
      "searched": 5554,
      "package": 5555,
      "documents": 5556,
      "Play": 5557,
      "Polish": 5558,
      "prevent": 5559,
      "adults": 5560,
      "department": 5561,
      "insects": 5562,
      "elephant": 5563,
      "circumstances": 5564,
      "Turkish": 5565,
      "Des": 5566,
      "Fort": 5567,
      "Ganon": 5568,
      "Nancy": 5569,
      "data": 5570,
      "lecture": 5571,
      "mut": 5572,
      "mult": 5573,
      "rush": 5574,
      "rug": 5575,
      "ut": 5576,
      "##oe": 5577,
      "##case": 5578,
      "##jamas": 5579,
      "##ouder": 5580,
      "##edy": 5581,
      "##ening": 5582,
      "##isc": 5583,
      "online": 5584,
      "stab": 5585,
      "##adow": 5586,
      "shook": 5587,
      "sake": 5588,
      "##roc": 5589,
      "spying": 5590,
      "##ummer": 5591,
      "boots": 5592,
      "intended": 5593,
      "forgave": 5594,
      "understanding": 5595,
      "flir": 5596,
      "firm": 5597,
      "research": 5598,
      "according": 5599,
      "attic": 5600,
      "metal": 5601,
      "activ": 5602,
      "stoats": 5603,
      "difficulties": 5604,
      "##phabet": 5605,
      "translator": 5606,
      "worrying": 5607,
      "horiz": 5608,
      "highest": 5609,
      "sweat": 5610,
      "##ivid": 5611,
      "eighteen": 5612,
      "politician": 5613,
      "hanging": 5614,
      "Anyone": 5615,
      "drawing": 5616,
      "Black": 5617,
      "Scot": 5618,
      "intentionally": 5619,
      "owes": 5620,
      "carpet": 5621,
      "postponed": 5622,
      "archit": 5623,
      "gathered": 5624,
      "emergency": 5625,
      "puppy": 5626,
      "prohibited": 5627,
      "mushroom": 5628,
      "16": 5629,
      "50": 5630,
      "Hope": 5631,
      "Ten": 5632,
      "Work": 5633,
      "diss": 5634,
      "mix": 5635,
      "pink": 5636,
      "rail": 5637,
      "tag": 5638,
      "##lace": 5639,
      "##bery": 5640,
      "##erable": 5641,
      "##inter": 5642,
      "##arily": 5643,
      "##asm": 5644,
      "reject": 5645,
      "##etic": 5646,
      "##alt": 5647,
      "White": 5648,
      "alphabet": 5649,
      "web": 5650,
      "##geon": 5651,
      "##aste": 5652,
      "worker": 5653,
      "remove": 5654,
      "remembers": 5655,
      "repaired": 5656,
      "owns": 5657,
      "breaks": 5658,
      "wishes": 5659,
      "Being": 5660,
      "numbers": 5661,
      "pajamas": 5662,
      "parking": 5663,
      "##umped": 5664,
      "instr": 5665,
      "safely": 5666,
      "regrets": 5667,
      "crossing": 5668,
      "slee": 5669,
      "modest": 5670,
      "poisoned": 5671,
      "captured": 5672,
      "positive": 5673,
      "rescued": 5674,
      "weighs": 5675,
      "panic": 5676,
      "inher": 5677,
      "determined": 5678,
      "daily": 5679,
      "issue": 5680,
      "convenient": 5681,
      "Finnish": 5682,
      "Sudden": 5683,
      "40": 5684,
      "During": 5685,
      "Ev": 5686,
      "Hallow": 5687,
      "Ice": 5688,
      "fought": 5689,
      "gain": 5690,
      "##go": 5691,
      "##give": 5692,
      "##mony": 5693,
      "##bon": 5694,
      "##inate": 5695,
      "toler": 5696,
      "##oti": 5697,
      "style": 5698,
      "##entive": 5699,
      "ali": 5700,
      "track": 5701,
      "##lph": 5702,
      "chall": 5703,
      "##istry": 5704,
      "blush": 5705,
      "broad": 5706,
      "swore": 5707,
      "scary": 5708,
      "breast": 5709,
      "killing": 5710,
      "##print": 5711,
      "chew": 5712,
      "surprising": 5713,
      "painter": 5714,
      "suppl": 5715,
      "comments": 5716,
      "fastest": 5717,
      "falls": 5718,
      "Forgive": 5719,
      "prisoners": 5720,
      "respected": 5721,
      "oppon": 5722,
      "fifth": 5723,
      "screamed": 5724,
      "talent": 5725,
      "customer": 5726,
      "##ength": 5727,
      "products": 5728,
      "current": 5729,
      "literature": 5730,
      "Roman": 5731,
      "exchange": 5732,
      "spirit": 5733,
      "ceremony": 5734,
      "July": 5735,
      "stubborn": 5736,
      "conservative": 5737,
      "January": 5738,
      "symbol": 5739,
      "Suddenly": 5740,
      "Cath": 5741,
      "Gal": 5742,
      "Im": 5743,
      "Like": 5744,
      "Red": 5745,
      "chat": 5746,
      "coo": 5747,
      "dug": 5748,
      "danced": 5749,
      "ment": 5750,
      "sin": 5751,
      "tun": 5752,
      "##gen": 5753,
      "##pack": 5754,
      "##pered": 5755,
      "stays": 5756,
      "##venge": 5757,
      "clue": 5758,
      "offend": 5759,
      "block": 5760,
      "previous": 5761,
      "winner": 5762,
      "truly": 5763,
      "access": 5764,
      "attach": 5765,
      "recall": 5766,
      "hurried": 5767,
      "cris": 5768,
      "##enses": 5769,
      "arrives": 5770,
      "action": 5771,
      "command": 5772,
      "##osphere": 5773,
      "humans": 5774,
      "Frankly": 5775,
      "fooled": 5776,
      "heavier": 5777,
      "topic": 5778,
      "candle": 5779,
      "total": 5780,
      "##ruction": 5781,
      "pretending": 5782,
      "waved": 5783,
      "Turkey": 5784,
      "connected": 5785,
      "achieve": 5786,
      "achieved": 5787,
      "frozen": 5788,
      "strangers": 5789,
      "mysterious": 5790,
      "South": 5791,
      "interfere": 5792,
      "Halloween": 5793,
      "24": 5794,
      "based": 5795,
      "cage": 5796,
      "cure": 5797,
      "fasc": 5798,
      "lapt": 5799,
      "mask": 5800,
      "nation": 5801,
      "pays": 5802,
      "pipe": 5803,
      "tit": 5804,
      "##eed": 5805,
      "##ns": 5806,
      "##lish": 5807,
      "##mosphere": 5808,
      "toes": 5809,
      "##arant": 5810,
      "##esc": 5811,
      "beating": 5812,
      "knees": 5813,
      "##itter": 5814,
      "##itzer": 5815,
      "##sequ": 5816,
      "##ooth": 5817,
      "##urg": 5818,
      "##ria": 5819,
      "atmosphere": 5820,
      "##usting": 5821,
      "alike": 5822,
      "loan": 5823,
      "pressed": 5824,
      "backpack": 5825,
      "becomes": 5826,
      "tomatoes": 5827,
      "##ological": 5828,
      "monkey": 5829,
      "importance": 5830,
      "translating": 5831,
      "streets": 5832,
      "menu": 5833,
      "##ervation": 5834,
      "picky": 5835,
      "postc": 5836,
      "196": 5837,
      "permitted": 5838,
      "joined": 5839,
      "north": 5840,
      "pencils": 5841,
      "matches": 5842,
      "directly": 5843,
      "fluent": 5844,
      "searching": 5845,
      "statement": 5846,
      "official": 5847,
      "##load": 5848,
      "journey": 5849,
      "misunderstanding": 5850,
      "slightly": 5851,
      "possibility": 5852,
      "fucking": 5853,
      "underestimated": 5854,
      "divided": 5855,
      "##ropri": 5856,
      "concentrate": 5857,
      "miracle": 5858,
      "opposite": 5859,
      "sincere": 5860,
      "bluffing": 5861,
      "laptop": 5862,
      "11": 5863,
      "Gen": 5864,
      "Pers": 5865,
      "Run": 5866,
      "Year": 5867,
      "cot": 5868,
      "crew": 5869,
      "fond": 5870,
      "gym": 5871,
      "louder": 5872,
      "rise": 5873,
      "wid": 5874,
      "yard": 5875,
      "##ij": 5876,
      "##iant": 5877,
      "##oom": 5878,
      "##ucle": 5879,
      "##ompl": 5880,
      "##ana": 5881,
      "##anna": 5882,
      "##sters": 5883,
      "##imately": 5884,
      "##chief": 5885,
      "##itting": 5886,
      "hers": 5887,
      "##urd": 5888,
      "##amm": 5889,
      "##eag": 5890,
      "trap": 5891,
      "exec": 5892,
      "##employ": 5893,
      "blushed": 5894,
      "buys": 5895,
      "compared": 5896,
      "flies": 5897,
      "otherwise": 5898,
      "Stand": 5899,
      "guest": 5900,
      "surf": 5901,
      "finan": 5902,
      "accompl": 5903,
      "recipe": 5904,
      "desert": 5905,
      "security": 5906,
      "skating": 5907,
      "##phones": 5908,
      "consum": 5909,
      "conscious": 5910,
      "##bruary": 5911,
      "tries": 5912,
      "Russians": 5913,
      "medical": 5914,
      "points": 5915,
      "197": 5916,
      "memor": 5917,
      "Exp": 5918,
      "risks": 5919,
      "generally": 5920,
      "annoying": 5921,
      "Switzer": 5922,
      "robbery": 5923,
      "pepper": 5924,
      "Britain": 5925,
      "ordinary": 5926,
      "counting": 5927,
      "whispered": 5928,
      "conclusion": 5929,
      "deleted": 5930,
      "tools": 5931,
      "helmet": 5932,
      "errors": 5933,
      "February": 5934,
      "forbidden": 5935,
      "rapid": 5936,
      "arrogant": 5937,
      "flirting": 5938,
      "Switzerland": 5939,
      "\"?": 5940,
      "Fad": 5941,
      "Link": 5942,
      "Lock": 5943,
      "Mu": 5944,
      "Ser": 5945,
      "code": 5946,
      "leak": 5947,
      "nut": 5948,
      "pal": 5949,
      "pup": 5950,
      "##ders": 5951,
      "##me": 5952,
      "##mail": 5953,
      "##omy": 5954,
      "##inos": 5955,
      "meals": 5956,
      "helic": 5957,
      "##itten": 5958,
      "##itable": 5959,
      "stret": 5960,
      "##alty": 5961,
      "##opter": 5962,
      "trou": 5963,
      "trous": 5964,
      "##anda": 5965,
      "plastic": 5966,
      "exists": 5967,
      "##rows": 5968,
      "unw": 5969,
      "intent": 5970,
      "dipl": 5971,
      "parr": 5972,
      "guarant": 5973,
      "contrib": 5974,
      "crush": 5975,
      "reluct": 5976,
      "presence": 5977,
      "visitors": 5978,
      "washes": 5979,
      "Ann": 5980,
      "incident": 5981,
      "enjoys": 5982,
      "regretted": 5983,
      "heavily": 5984,
      "innocence": 5985,
      "foreigners": 5986,
      "Finish": 5987,
      "expression": 5988,
      "witch": 5989,
      "assistance": 5990,
      "knocking": 5991,
      "Republic": 5992,
      "material": 5993,
      "athe": 5994,
      "Clean": 5995,
      "sacrif": 5996,
      "wisdom": 5997,
      "rejected": 5998,
      "crisis": 5999,
      "Fadil": 6000,
      "helicopter": 6001,
      "trousers": 6002,
      "Brown": 6003,
      "Cont": 6004,
      "El": 6005,
      "Goo": 6006,
      "Le": 6007,
      "Que": 6008,
      "Quit": 6009,
      "Wed": 6010,
      "bent": 6011,
      "dia": 6012,
      "hoc": 6013,
      "led": 6014,
      "lung": 6015,
      "ske": 6016,
      "tap": 6017,
      "vo": 6018,
      "##oly": 6019,
      "##aus": 6020,
      "##aire": 6021,
      "##town": 6022,
      "##oting": 6023,
      "reb": 6024,
      "onions": 6025,
      "##icians": 6026,
      "##aming": 6027,
      "pride": 6028,
      "unkn": 6029,
      "unemploy": 6030,
      "resour": 6031,
      "##okk": 6032,
      "Doesn": 6033,
      "teasing": 6034,
      "accur": 6035,
      "passion": 6036,
      "slower": 6037,
      "apology": 6038,
      "reliable": 6039,
      "consult": 6040,
      "follows": 6041,
      "differently": 6042,
      "confident": 6043,
      "buildings": 6044,
      "install": 6045,
      "colleag": 6046,
      "drivers": 6047,
      "affairs": 6048,
      "engage": 6049,
      "suffered": 6050,
      "figured": 6051,
      "poisonous": 6052,
      "sandwiches": 6053,
      "films": 6054,
      "holidays": 6055,
      "##aido": 6056,
      "habits": 6057,
      "relaxed": 6058,
      "necklace": 6059,
      "increase": 6060,
      "negoti": 6061,
      "envy": 6062,
      "shouted": 6063,
      "internet": 6064,
      "international": 6065,
      "cigarettes": 6066,
      "strike": 6067,
      "incredible": 6068,
      "incredibly": 6069,
      "culture": 6070,
      "defeat": 6071,
      "journalist": 6072,
      "punctual": 6073,
      "unknown": 6074,
      "25": 6075,
      "Bea": 6076,
      "Bird": 6077,
      "Fill": 6078,
      "Hokk": 6079,
      "Min": 6080,
      "Old": 6081,
      "Peter": 6082,
      "Viet": 6083,
      "bald": 6084,
      "ge": 6085,
      "mice": 6086,
      "pess": 6087,
      "##ixt": 6088,
      "##corn": 6089,
      "##lt": 6090,
      "##lam": 6091,
      "##ms": 6092,
      "##yard": 6093,
      "##ares": 6094,
      "##reak": 6095,
      "##hew": 6096,
      "ink": 6097,
      "bees": 6098,
      "##stick": 6099,
      "##eters": 6100,
      "liqu": 6101,
      "stage": 6102,
      "##icated": 6103,
      "Thurs": 6104,
      "atom": 6105,
      "Dogs": 6106,
      "worn": 6107,
      "##ardon": 6108,
      "consequ": 6109,
      "dragon": 6110,
      "orph": 6111,
      "role": 6112,
      "rolled": 6113,
      "adj": 6114,
      "opera": 6115,
      "downtown": 6116,
      "handker": 6117,
      "grapes": 6118,
      "appet": 6119,
      "apply": 6120,
      "Change": 6121,
      "sentenced": 6122,
      "skip": 6123,
      "minded": 6124,
      "cooks": 6125,
      "oblig": 6126,
      "register": 6127,
      "regular": 6128,
      "confir": 6129,
      "absor": 6130,
      "opinions": 6131,
      "popcorn": 6132,
      "198": 6133,
      "##ificial": 6134,
      "replaced": 6135,
      "damaged": 6136,
      "grades": 6137,
      "mentioned": 6138,
      "tourist": 6139,
      "underestimate": 6140,
      "folded": 6141,
      "Humans": 6142,
      "tradition": 6143,
      "Muslim": 6144,
      "interpreter": 6145,
      "grandchildren": 6146,
      "##uclear": 6147,
      "Google": 6148,
      "voices": 6149,
      "Hokkaido": 6150,
      "Vietnam": 6151,
      "pessim": 6152,
      "Thursday": 6153,
      "handkerchief": 6154,
      "'.": 6155,
      "Alex": 6156,
      "Ir": 6157,
      "Sy": 6158,
      "Sing": 6159,
      "Squ": 6160,
      "Sever": 6161,
      "Te": 6162,
      "cu": 6163,
      "fund": 6164,
      "fainted": 6165,
      "lugg": 6166,
      "length": 6167,
      "male": 6168,
      "maid": 6169,
      "nail": 6170,
      "pear": 6171,
      "site": 6172,
      "##fire": 6173,
      "##arently": 6174,
      "##orary": 6175,
      "##thus": 6176,
      "##imate": 6177,
      "##rian": 6178,
      "shade": 6179,
      "Doing": 6180,
      "worries": 6181,
      "spiders": 6182,
      "plain": 6183,
      "shel": 6184,
      "##iev": 6185,
      "prince": 6186,
      "##ums": 6187,
      "##umber": 6188,
      "##agn": 6189,
      "##raft": 6190,
      "makeup": 6191,
      "swam": 6192,
      "brings": 6193,
      "granted": 6194,
      "##oko": 6195,
      "killer": 6196,
      "mission": 6197,
      "border": 6198,
      "eyesight": 6199,
      "visiting": 6200,
      "addition": 6201,
      "regards": 6202,
      "legal": 6203,
      "pianist": 6204,
      "picking": 6205,
      "impressive": 6206,
      "195": 6207,
      "Marie": 6208,
      "priest": 6209,
      "professor": 6210,
      "create": 6211,
      "##iko": 6212,
      "approve": 6213,
      "irrit": 6214,
      "devil": 6215,
      "religious": 6216,
      "provide": 6217,
      "gods": 6218,
      "embarrassed": 6219,
      "George": 6220,
      "Learning": 6221,
      "announced": 6222,
      "typh": 6223,
      "teenager": 6224,
      "##nesday": 6225,
      "traitor": 6226,
      "pierced": 6227,
      "nerves": 6228,
      "parrot": 6229,
      "Wednesday": 6230,
      "hockey": 6231,
      "luggage": 6232,
      "##thusi": 6233,
      "Dri": 6234,
      "Light": 6235,
      "Ra": 6236,
      "Teach": 6237,
      "bak": 6238,
      "mere": 6239,
      "pi": 6240,
      "sore": 6241,
      "tent": 6242,
      "tied": 6243,
      "virt": 6244,
      "voll": 6245,
      "wink": 6246,
      "##do": 6247,
      "##oked": 6248,
      "##ses": 6249,
      "##che": 6250,
      "##fight": 6251,
      "##ban": 6252,
      "##bled": 6253,
      "##ygen": 6254,
      "##kind": 6255,
      "thunder": 6256,
      "##asion": 6257,
      "##idents": 6258,
      "knives": 6259,
      "##iche": 6260,
      "Thom": 6261,
      "shaking": 6262,
      "channel": 6263,
      "##ieth": 6264,
      "deb": 6265,
      "justice": 6266,
      "goods": 6267,
      "armed": 6268,
      "underw": 6269,
      "bless": 6270,
      "remote": 6271,
      "earned": 6272,
      "ideal": 6273,
      "applic": 6274,
      "##eyball": 6275,
      "visa": 6276,
      "slave": 6277,
      "slipp": 6278,
      "stove": 6279,
      "stock": 6280,
      "grandson": 6281,
      "translations": 6282,
      "discount": 6283,
      "signific": 6284,
      "##place": 6285,
      "suits": 6286,
      "ignor": 6287,
      "conditions": 6288,
      "gunsh": 6289,
      "suggesting": 6290,
      "wooden": 6291,
      "landed": 6292,
      "histor": 6293,
      "##rogen": 6294,
      "celebrating": 6295,
      "scientific": 6296,
      "increased": 6297,
      "drowning": 6298,
      "authority": 6299,
      "despise": 6300,
      "Believe": 6301,
      "reaction": 6302,
      "spoiled": 6303,
      "essential": 6304,
      "statue": 6305,
      "Swedish": 6306,
      "rotten": 6307,
      "branch": 6308,
      "Korea": 6309,
      "fantastic": 6310,
      "Words": 6311,
      "##prints": 6312,
      "Explain": 6313,
      "volleyball": 6314,
      "17": 6315,
      "Co": 6316,
      "Fish": 6317,
      "Mat": 6318,
      "Maj": 6319,
      "Okay": 6320,
      "Ven": 6321,
      "aid": 6322,
      "dw": 6323,
      "etern": 6324,
      "fac": 6325,
      "gra": 6326,
      "jog": 6327,
      "pure": 6328,
      "sip": 6329,
      "##ivor": 6330,
      "##gage": 6331,
      "##rim": 6332,
      "##bag": 6333,
      "##vard": 6334,
      "##erved": 6335,
      "##atic": 6336,
      "##isa": 6337,
      "bee": 6338,
      "knight": 6339,
      "goals": 6340,
      "shining": 6341,
      "Doctor": 6342,
      "##cel": 6343,
      "trash": 6344,
      "##usions": 6345,
      "placed": 6346,
      "sheet": 6347,
      "##iece": 6348,
      "loving": 6349,
      "##osis": 6350,
      "moves": 6351,
      "leather": 6352,
      "lemon": 6353,
      "speakers": 6354,
      "enthusi": 6355,
      "twent": 6356,
      "advert": 6357,
      "glanced": 6358,
      "scolded": 6359,
      "decent": 6360,
      "guide": 6361,
      "disp": 6362,
      "hurting": 6363,
      "crack": 6364,
      "beings": 6365,
      "painful": 6366,
      "fellow": 6367,
      "musical": 6368,
      "income": 6369,
      "absurd": 6370,
      "Christoph": 6371,
      "sounded": 6372,
      "forehead": 6373,
      "tasted": 6374,
      "imagined": 6375,
      "fairly": 6376,
      "##ophob": 6377,
      "creative": 6378,
      "loser": 6379,
      "motion": 6380,
      "Argent": 6381,
      "require": 6382,
      "objects": 6383,
      "Trust": 6384,
      "shooting": 6385,
      "software": 6386,
      "postpone": 6387,
      "Harvard": 6388,
      "graduated": 6389,
      "racist": 6390,
      "blonde": 6391,
      "Ukraine": 6392,
      "elder": 6393,
      "tiger": 6394,
      "aspir": 6395,
      "opponent": 6396,
      "Birds": 6397,
      "Christopher": 6398,
      "Four": 6399,
      "Jew": 6400,
      "Pay": 6401,
      "Pona": 6402,
      "Tar": 6403,
      "Walk": 6404,
      "ded": 6405,
      "dies": 6406,
      "pitch": 6407,
      "tar": 6408,
      "west": 6409,
      "yog": 6410,
      "##gain": 6411,
      "##cuff": 6412,
      "##boy": 6413,
      "##onia": 6414,
      "##asy": 6415,
      "##asure": 6416,
      "##itor": 6417,
      "##itary": 6418,
      "##utation": 6419,
      "##olve": 6420,
      "manners": 6421,
      "mole": 6422,
      "##obe": 6423,
      "orbit": 6424,
      "smiles": 6425,
      "##izes": 6426,
      "handcuff": 6427,
      "brushed": 6428,
      "puts": 6429,
      "disaster": 6430,
      "parties": 6431,
      "attitude": 6432,
      "recent": 6433,
      "contest": 6434,
      "snoring": 6435,
      "minds": 6436,
      "Asia": 6437,
      "##ivers": 6438,
      "pawn": 6439,
      "snowed": 6440,
      "richer": 6441,
      "examples": 6442,
      "wheat": 6443,
      "incorrect": 6444,
      "sunny": 6445,
      "assum": 6446,
      "assure": 6447,
      "distingu": 6448,
      "seconds": 6449,
      "tempt": 6450,
      "Toki": 6451,
      "sym": 6452,
      "eighty": 6453,
      "guessed": 6454,
      "fairy": 6455,
      "closest": 6456,
      "volume": 6457,
      "paintings": 6458,
      "cloudy": 6459,
      "toothp": 6460,
      "pills": 6461,
      "negative": 6462,
      "effective": 6463,
      "characters": 6464,
      "properly": 6465,
      "blowing": 6466,
      "Really": 6467,
      "hesitate": 6468,
      "species": 6469,
      "scratched": 6470,
      "quarrel": 6471,
      "accompany": 6472,
      "desperate": 6473,
      "precise": 6474,
      "Robert": 6475,
      "Catholic": 6476,
      "title": 6477,
      "##ropriate": 6478,
      "surface": 6479,
      "rapidly": 6480,
      "##inosaur": 6481,
      "accurate": 6482,
      "engagement": 6483,
      "appetite": 6484,
      "Several": 6485,
      "Air": 6486,
      "Bud": 6487,
      "Fire": 6488,
      "Having": 6489,
      "Kore": 6490,
      "Zeal": 6491,
      "dried": 6492,
      "east": 6493,
      "jew": 6494,
      "pir": 6495,
      "pens": 6496,
      "wool": 6497,
      "wings": 6498,
      "##ae": 6499,
      "##tee": 6500,
      "##len": 6501,
      "##phew": 6502,
      "##zard": 6503,
      "##atory": 6504,
      "##ann": 6505,
      "##rep": 6506,
      "forces": 6507,
      "stones": 6508,
      "##verty": 6509,
      "nephew": 6510,
      "shared": 6511,
      "cherry": 6512,
      "spr": 6513,
      "spilled": 6514,
      "happier": 6515,
      "cared": 6516,
      "##olves": 6517,
      "coma": 6518,
      "butt": 6519,
      "##ague": 6520,
      "smokes": 6521,
      "flash": 6522,
      "precious": 6523,
      "overs": 6524,
      "poverty": 6525,
      "grey": 6526,
      "policy": 6527,
      "attentive": 6528,
      "recover": 6529,
      "snee": 6530,
      "reputation": 6531,
      "kidn": 6532,
      "laughs": 6533,
      "refer": 6534,
      "visits": 6535,
      "discovery": 6536,
      "Univer": 6537,
      "confuse": 6538,
      "blackboard": 6539,
      "events": 6540,
      "businessman": 6541,
      "complains": 6542,
      "grows": 6543,
      "belonged": 6544,
      "jumping": 6545,
      "barn": 6546,
      "leading": 6547,
      "demon": 6548,
      "edge": 6549,
      "collecting": 6550,
      "attracted": 6551,
      "Finally": 6552,
      "gradually": 6553,
      "beaten": 6554,
      "magazines": 6555,
      "coughing": 6556,
      "alcoholic": 6557,
      "Death": 6558,
      "physics": 6559,
      "cheeks": 6560,
      "separate": 6561,
      "competition": 6562,
      "digging": 6563,
      "disgusting": 6564,
      "majority": 6565,
      "switched": 6566,
      "oxygen": 6567,
      "euros": 6568,
      "latest": 6569,
      "##ground": 6570,
      "kilograms": 6571,
      "utter": 6572,
      "Scotland": 6573,
      "Iceland": 6574,
      "postcard": 6575,
      "financial": 6576,
      "intentions": 6577,
      "Zealand": 6578,
      "Bar": 6579,
      "Jup": 6580,
      "Langu": 6581,
      "Mo": 6582,
      "Po": 6583,
      "Sec": 6584,
      "Under": 6585,
      "bones": 6586,
      "dom": 6587,
      "ease": 6588,
      "jack": 6589,
      "ren": 6590,
      "sank": 6591,
      "tire": 6592,
      "##oard": 6593,
      "##ship": 6594,
      "##can": 6595,
      "##lor": 6596,
      "##pear": 6597,
      "##foot": 6598,
      "##uise": 6599,
      "##bl": 6600,
      "##bish": 6601,
      "##wood": 6602,
      "##inct": 6603,
      "##arin": 6604,
      "##arus": 6605,
      "##lliant": 6606,
      "##owers": 6607,
      "haun": 6608,
      "##ammed": 6609,
      "shaved": 6610,
      "shadow": 6611,
      "##ooked": 6612,
      "##istan": 6613,
      "loaded": 6614,
      "##arted": 6615,
      "homeless": 6616,
      "nowadays": 6617,
      "proved": 6618,
      "longest": 6619,
      "smooth": 6620,
      "smoked": 6621,
      "blocked": 6622,
      "bloom": 6623,
      "mustn": 6624,
      "compare": 6625,
      "##ability": 6626,
      "planets": 6627,
      "brand": 6628,
      "Stud": 6629,
      "pharm": 6630,
      "##akespear": 6631,
      "stress": 6632,
      "counted": 6633,
      "minor": 6634,
      "swimmer": 6635,
      "##awa": 6636,
      "cleared": 6637,
      "owned": 6638,
      "expectations": 6639,
      "Shakespear": 6640,
      "relative": 6641,
      "confess": 6642,
      "medal": 6643,
      "faults": 6644,
      "exciting": 6645,
      "honor": 6646,
      "permit": 6647,
      "humanity": 6648,
      "bills": 6649,
      "existence": 6650,
      "directions": 6651,
      "kilos": 6652,
      "fits": 6653,
      "Drop": 6654,
      "cancelled": 6655,
      "scientists": 6656,
      "acquaint": 6657,
      "economic": 6658,
      "demanded": 6659,
      "climbing": 6660,
      "connection": 6661,
      "Mexican": 6662,
      "logical": 6663,
      "strawberries": 6664,
      "mercy": 6665,
      "ninety": 6666,
      "congratulate": 6667,
      "hyd": 6668,
      "Translate": 6669,
      "repres": 6670,
      "Luckily": 6671,
      "horizon": 6672,
      "cooper": 6673,
      "attached": 6674,
      "diplomat": 6675,
      "Irish": 6676,
      "Thomas": 6677,
      "twentieth": 6678,
      "distinguish": 6679,
      "Korean": 6680,
      "Jupiter": 6681,
      "Shakespeare": 6682,
      "CD": 6683,
      "Kaz": 6684,
      "Sil": 6685,
      "Yum": 6686,
      "Ze": 6687,
      "bunch": 6688,
      "caut": 6689,
      "nick": 6690,
      "pairs": 6691,
      "rented": 6692,
      "tid": 6693,
      "tune": 6694,
      "##ios": 6695,
      "##ipt": 6696,
      "##rup": 6697,
      "##fish": 6698,
      "##ucked": 6699,
      "##ering": 6700,
      "##isp": 6701,
      "##lete": 6702,
      "##stan": 6703,
      "reve": 6704,
      "reward": 6705,
      "revenge": 6706,
      "goss": 6707,
      "formed": 6708,
      "##icip": 6709,
      "##ading": 6710,
      "shore": 6711,
      "shark": 6712,
      "sue": 6713,
      "##thern": 6714,
      "##ctic": 6715,
      "plat": 6716,
      "##ula": 6717,
      "upside": 6718,
      "lover": 6719,
      "conce": 6720,
      "wrapped": 6721,
      "prime": 6722,
      "##auc": 6723,
      "boiled": 6724,
      "backyard": 6725,
      "unmar": 6726,
      "surely": 6727,
      "awfully": 6728,
      "schools": 6729,
      "Char": 6730,
      "accusing": 6731,
      "contro": 6732,
      "snore": 6733,
      "farmer": 6734,
      "conscience": 6735,
      "##avirus": 6736,
      "treasure": 6737,
      "confidence": 6738,
      "signature": 6739,
      "instantly": 6740,
      "restaurants": 6741,
      "indust": 6742,
      "charming": 6743,
      "corrected": 6744,
      "travels": 6745,
      "causes": 6746,
      "Claus": 6747,
      "##ika": 6748,
      "annivers": 6749,
      "millionaire": 6750,
      "avoiding": 6751,
      "described": 6752,
      "politely": 6753,
      "conditioner": 6754,
      "fields": 6755,
      "seventy": 6756,
      "Speaking": 6757,
      "Dece": 6758,
      "committee": 6759,
      "conclusions": 6760,
      "greeted": 6761,
      "labor": 6762,
      "alternative": 6763,
      "guarantee": 6764,
      "atheist": 6765,
      "Majesty": 6766,
      "Five": 6767,
      "II": 6768,
      "Mill": 6769,
      "Pray": 6770,
      "Six": 6771,
      "Summer": 6772,
      "cases": 6773,
      "dict": 6774,
      "dizz": 6775,
      "ep": 6776,
      "hi": 6777,
      "kitten": 6778,
      "lacks": 6779,
      "laughter": 6780,
      "por": 6781,
      "##tub": 6782,
      "##pa": 6783,
      "##ya": 6784,
      "##ximately": 6785,
      "tower": 6786,
      "##arc": 6787,
      "inev": 6788,
      "dozen": 6789,
      "##oos": 6790,
      "##enter": 6791,
      "Thousand": 6792,
      "shamp": 6793,
      "timid": 6794,
      "spicy": 6795,
      "exit": 6796,
      "##olar": 6797,
      "seeds": 6798,
      "##athon": 6799,
      "conqu": 6800,
      "bud": 6801,
      "orch": 6802,
      "unique": 6803,
      "expelled": 6804,
      "roll": 6805,
      "imit": 6806,
      "mustache": 6807,
      "##eliev": 6808,
      "career": 6809,
      "founded": 6810,
      "##ressed": 6811,
      "sits": 6812,
      "invention": 6813,
      "cloth": 6814,
      "clothing": 6815,
      "windy": 6816,
      "forgetting": 6817,
      "skate": 6818,
      "greatly": 6819,
      "arrival": 6820,
      "acts": 6821,
      "obst": 6822,
      "##ava": 6823,
      "addict": 6824,
      "coron": 6825,
      "Unt": 6826,
      "hotels": 6827,
      "baggage": 6828,
      "setting": 6829,
      "bathtub": 6830,
      "holds": 6831,
      "billion": 6832,
      "candid": 6833,
      "delight": 6834,
      "recommended": 6835,
      "cellphone": 6836,
      "marks": 6837,
      "requires": 6838,
      "occup": 6839,
      "damn": 6840,
      "brilliant": 6841,
      "packing": 6842,
      "towels": 6843,
      "observe": 6844,
      "rumors": 6845,
      "ladies": 6846,
      "bowl": 6847,
      "##coat": 6848,
      "briefcase": 6849,
      "faithful": 6850,
      "Sweden": 6851,
      "temporary": 6852,
      "chemistry": 6853,
      "participate": 6854,
      "balance": 6855,
      "spinach": 6856,
      "version": 6857,
      "Hopefully": 6858,
      "typhoon": 6859,
      "aspirin": 6860,
      "Taro": 6861,
      "anniversary": 6862,
      "Thousands": 6863,
      "shampoo": 6864,
      "Dam": 6865,
      "Fed": 6866,
      "Fuck": 6867,
      "Sk": 6868,
      "Too": 6869,
      "UF": 6870,
      "Whe": 6871,
      "Winter": 6872,
      "faint": 6873,
      "gal": 6874,
      "lux": 6875,
      "mall": 6876,
      "nuclear": 6877,
      "rings": 6878,
      "tear": 6879,
      "tel": 6880,
      "woken": 6881,
      "zero": 6882,
      "##ta": 6883,
      "##rise": 6884,
      "##how": 6885,
      "##11": 6886,
      "##org": 6887,
      "beef": 6888,
      "lip": 6889,
      "onto": 6890,
      "Young": 6891,
      "##icing": 6892,
      "##urt": 6893,
      "##oded": 6894,
      "anytime": 6895,
      "chap": 6896,
      "##ulse": 6897,
      "##unate": 6898,
      "##iforn": 6899,
      "mum": 6900,
      "##ortal": 6901,
      "##agers": 6902,
      "bookstore": 6903,
      "expenses": 6904,
      "##berry": 6905,
      "blog": 6906,
      "image": 6907,
      "Whenever": 6908,
      "marathon": 6909,
      "##ouraged": 6910,
      "nights": 6911,
      "greedy": 6912,
      "shovel": 6913,
      "hunter": 6914,
      "colder": 6915,
      "wondering": 6916,
      "kidna": 6917,
      "transport": 6918,
      "behaving": 6919,
      "solid": 6920,
      "sunset": 6921,
      "enjoying": 6922,
      "##iety": 6923,
      "##scri": 6924,
      "fourth": 6925,
      "purch": 6926,
      "roads": 6927,
      "forecast": 6928,
      "194": 6929,
      "medication": 6930,
      "affair": 6931,
      "Mrs": 6932,
      "March": 6933,
      "##incing": 6934,
      "conduct": 6935,
      "##apsed": 6936,
      "option": 6937,
      "reminded": 6938,
      "cops": 6939,
      "required": 6940,
      "threaten": 6941,
      "##ography": 6942,
      "limited": 6943,
      "obsessed": 6944,
      "repeated": 6945,
      "rabbits": 6946,
      "poetry": 6947,
      "##flies": 6948,
      "measure": 6949,
      "deceive": 6950,
      "declared": 6951,
      "hypoc": 6952,
      "delete": 6953,
      "Learn": 6954,
      "Betty": 6955,
      "cockro": 6956,
      "punishment": 6957,
      "Californ": 6958,
      "##ocracy": 6959,
      "mosquitoes": 6960,
      "aliens": 6961,
      "challen": 6962,
      "pupils": 6963,
      "skept": 6964,
      "slippery": 6965,
      "target": 6966,
      "UFO": 6967,
      "Whether": 6968,
      "kidnapped": 6969,
      "California": 6970,
      "Aug": 6971,
      "Correct": 6972,
      "Dinner": 6973,
      "Hon": 6974,
      "Had": 6975,
      "Nap": 6976,
      "Sea": 6977,
      "Wind": 6978,
      "ax": 6979,
      "boo": 6980,
      "dated": 6981,
      "gaz": 6982,
      "ket": 6983,
      "sed": 6984,
      "vamp": 6985,
      "virus": 6986,
      "##li": 6987,
      "##moon": 6988,
      "##for": 6989,
      "##wor": 6990,
      "##inating": 6991,
      "##edia": 6992,
      "##iding": 6993,
      "##ste": 6994,
      "sting": 6995,
      "stro": 6996,
      "##enteen": 6997,
      "shr": 6998,
      "helpful": 6999,
      "chain": 7000,
      "##ilies": 7001,
      "##uls": 7002,
      "seek": 7003,
      "##oln": 7004,
      "mankind": 7005,
      "sem": 7006,
      "##athy": 7007,
      "##athers": 7008,
      "quarter": 7009,
      "Islam": 7010,
      "bug": 7011,
      "##aging": 7012,
      "blaming": 7013,
      "bride": 7014,
      "##iously": 7015,
      "guards": 7016,
      "Austria": 7017,
      "strate": 7018,
      "partner": 7019,
      "families": 7020,
      "promotion": 7021,
      "##aws": 7022,
      "##onsider": 7023,
      "Ange": 7024,
      "dresses": 7025,
      "corresp": 7026,
      "closely": 7027,
      "Always": 7028,
      "artificial": 7029,
      "simpl": 7030,
      "##ddy": 7031,
      "purple": 7032,
      "insist": 7033,
      "terrif": 7034,
      "propose": 7035,
      "individ": 7036,
      "burgl": 7037,
      "centre": 7038,
      "types": 7039,
      "...\"": 7040,
      "files": 7041,
      "skipped": 7042,
      "loses": 7043,
      "sharpen": 7044,
      "golden": 7045,
      "automat": 7046,
      "skinny": 7047,
      "devoted": 7048,
      "waist": 7049,
      "amazed": 7050,
      "honeymoon": 7051,
      "unbeliev": 7052,
      "deceived": 7053,
      "exchanged": 7054,
      "defeated": 7055,
      "grammar": 7056,
      "accompan": 7057,
      "liberty": 7058,
      "phrase": 7059,
      "annoyed": 7060,
      "distracted": 7061,
      "stabbed": 7062,
      "architect": 7063,
      "inherited": 7064,
      "unemployed": 7065,
      "gossip": 7066,
      "unmarried": 7067,
      "December": 7068,
      "inevitable": 7069,
      "August": 7070,
      "correspond": 7071,
      "Cze": 7072,
      "Linc": 7073,
      "Mum": 7074,
      "Nice": 7075,
      "Pat": 7076,
      "Pea": 7077,
      "Push": 7078,
      "Sept": 7079,
      "Tim": 7080,
      "Tears": 7081,
      "bish": 7082,
      "kick": 7083,
      "loose": 7084,
      "mamm": 7085,
      "net": 7086,
      "rat": 7087,
      "rust": 7088,
      "racket": 7089,
      "wished": 7090,
      "##ials": 7091,
      "##tles": 7092,
      "##lings": 7093,
      "##bing": 7094,
      "##bies": 7095,
      "##brew": 7096,
      "##0s": 7097,
      "thou": 7098,
      "##erk": 7099,
      "##anes": 7100,
      "theat": 7101,
      "hamb": 7102,
      "ank": 7103,
      "analy": 7104,
      "meter": 7105,
      "##etime": 7106,
      "Hebrew": 7107,
      "##teries": 7108,
      "aboard": 7109,
      "sober": 7110,
      "##ending": 7111,
      "##ulf": 7112,
      "upd": 7113,
      "loy": 7114,
      "quote": 7115,
      "boiling": 7116,
      "##agne": 7117,
      "intrig": 7118,
      "roommate": 7119,
      "##ogy": 7120,
      "download": 7121,
      "handbag": 7122,
      "dire": 7123,
      "reservation": 7124,
      "struct": 7125,
      "watering": 7126,
      "counts": 7127,
      "##ocrat": 7128,
      "prett": 7129,
      "arriving": 7130,
      "##apping": 7131,
      "heading": 7132,
      "behaved": 7133,
      "snows": 7134,
      "Another": 7135,
      "discover": 7136,
      "emotion": 7137,
      "cutting": 7138,
      "dolls": 7139,
      "##brush": 7140,
      "hats": 7141,
      "illusion": 7142,
      "##umpet": 7143,
      "protection": 7144,
      "charged": 7145,
      "bothers": 7146,
      "squee": 7147,
      "entering": 7148,
      "respects": 7149,
      "##...": 7150,
      "centim": 7151,
      "typical": 7152,
      "Shouldn": 7153,
      "closes": 7154,
      "robot": 7155,
      "garlic": 7156,
      "articles": 7157,
      "Finland": 7158,
      "Poland": 7159,
      "Police": 7160,
      "increasing": 7161,
      "verb": 7162,
      "disturbed": 7163,
      "approaching": 7164,
      "insulted": 7165,
      "USA": 7166,
      "performance": 7167,
      "barefoot": 7168,
      "dye": 7169,
      "dislike": 7170,
      "swallowed": 7171,
      "Olympic": 7172,
      "reluctantly": 7173,
      "atomic": 7174,
      "orphan": 7175,
      "bakery": 7176,
      "##ichever": 7177,
      "University": 7178,
      "nickn": 7179,
      "dizzy": 7180,
      "coronavirus": 7181,
      "Until": 7182,
      "skeptical": 7183,
      "Czech": 7184,
      "Lincoln": 7185,
      "September": 7186,
      "Ign": 7187,
      "James": 7188,
      "Kill": 7189,
      "Kiss": 7190,
      "Right": 7191,
      "bars": 7192,
      "craw": 7193,
      "dinosaur": 7194,
      "junk": 7195,
      "la": 7196,
      "ol": 7197,
      "pump": 7198,
      "rout": 7199,
      "ties": 7200,
      "tape": 7201,
      "vod": 7202,
      "##iour": 7203,
      "##oided": 7204,
      "##uced": 7205,
      "##vest": 7206,
      "therm": 7207,
      "toast": 7208,
      "##asil": 7209,
      "##imp": 7210,
      "##verted": 7211,
      "##ication": 7212,
      "##ades": 7213,
      "cane": 7214,
      "Its": 7215,
      "tricked": 7216,
      "needle": 7217,
      "carries": 7218,
      "agent": 7219,
      "##ewrit": 7220,
      "client": 7221,
      "coal": 7222,
      "bloss": 7223,
      "opens": 7224,
      "fined": 7225,
      "##ipul": 7226,
      "showing": 7227,
      "mistook": 7228,
      "invent": 7229,
      "passing": 7230,
      "frust": 7231,
      "slapped": 7232,
      "Beh": 7233,
      "heads": 7234,
      "headphones": 7235,
      "Gold": 7236,
      "region": 7237,
      "costume": 7238,
      "richest": 7239,
      "exams": 7240,
      "military": 7241,
      "##axy": 7242,
      "##ibilities": 7243,
      "suitable": 7244,
      "sweets": 7245,
      "riding": 7246,
      "arguments": 7247,
      "avoided": 7248,
      "tasty": 7249,
      "typewrit": 7250,
      "patiently": 7251,
      "##cript": 7252,
      "survivor": 7253,
      "approximately": 7254,
      "destiny": 7255,
      "collected": 7256,
      "cellar": 7257,
      "objective": 7258,
      "weakness": 7259,
      "holes": 7260,
      "benef": 7261,
      "description": 7262,
      "inviting": 7263,
      "surrender": 7264,
      "critical": 7265,
      "seventeen": 7266,
      "approached": 7267,
      "physical": 7268,
      "Belarus": 7269,
      "citizens": 7270,
      "unbear": 7271,
      "debts": 7272,
      "tort": 7273,
      "textbooks": 7274,
      "##uko": 7275,
      "employees": 7276,
      "skills": 7277,
      "exaggerating": 7278,
      "neighbours": 7279,
      "sewing": 7280,
      "philosophy": 7281,
      "tolerate": 7282,
      "supplies": 7283,
      "toothpaste": 7284,
      "haunted": 7285,
      "telesc": 7286,
      "vodka": 7287,
      "911": 7288,
      "Bad": 7289,
      "Catch": 7290,
      "Green": 7291,
      "Hir": 7292,
      "Happ": 7293,
      "Iran": 7294,
      "Sus": 7295,
      "Sure": 7296,
      "Val": 7297,
      "cries": 7298,
      "jar": 7299,
      "om": 7300,
      "ped": 7301,
      "panc": 7302,
      "pulse": 7303,
      "rode": 7304,
      "ted": 7305,
      "##dri": 7306,
      "##iar": 7307,
      "##iation": 7308,
      "##sed": 7309,
      "##sion": 7310,
      "##ffe": 7311,
      "##kward": 7312,
      "##omfort": 7313,
      "##aser": 7314,
      "init": 7315,
      "inexp": 7316,
      "whichever": 7317,
      "##eapp": 7318,
      "chances": 7319,
      "plus": 7320,
      "shell": 7321,
      "manipul": 7322,
      "eater": 7323,
      "root": 7324,
      "enorm": 7325,
      "smok": 7326,
      "compl": 7327,
      "flour": 7328,
      "##ogen": 7329,
      "awkward": 7330,
      "overl": 7331,
      "scen": 7332,
      "elbow": 7333,
      "accidents": 7334,
      "monster": 7335,
      "perhaps": 7336,
      "refuses": 7337,
      "Beij": 7338,
      "Germans": 7339,
      "emot": 7340,
      "secretly": 7341,
      "satell": 7342,
      "pengu": 7343,
      "darkness": 7344,
      "arrange": 7345,
      "##lands": 7346,
      "collapsed": 7347,
      "distant": 7348,
      "discussing": 7349,
      "proposed": 7350,
      "indeed": 7351,
      "argued": 7352,
      "prior": 7353,
      "Anything": 7354,
      "Anybody": 7355,
      "Armen": 7356,
      "autom": 7357,
      "celebrated": 7358,
      "Brazilian": 7359,
      "limits": 7360,
      "circle": 7361,
      "production": 7362,
      "turkey": 7363,
      "behaviour": 7364,
      "waving": 7365,
      "Prot": 7366,
      "demands": 7367,
      "degree": 7368,
      "biology": 7369,
      "carpenter": 7370,
      "micro": 7371,
      "ninet": 7372,
      "volunteers": 7373,
      "elephants": 7374,
      "Human": 7375,
      "extraord": 7376,
      "estab": 7377,
      "##guard": 7378,
      "including": 7379,
      "lifetime": 7380,
      "Lucy": 7381,
      "delayed": 7382,
      "contradict": 7383,
      "consciousness": 7384,
      "resources": 7385,
      "pessimistic": 7386,
      "temptation": 7387,
      "pharmacy": 7388,
      "strategy": 7389,
      "accompanied": 7390,
      "Peace": 7391,
      "ankle": 7392,
      "director": 7393,
      "nickname": 7394,
      "Beijing": 7395,
      "Av": 7396,
      "Boy": 7397,
      "Break": 7398,
      "Gir": 7399,
      "Jul": 7400,
      "Laur": 7401,
      "Mad": 7402,
      "Mark": 7403,
      "Moon": 7404,
      "Rel": 7405,
      "Rio": 7406,
      "Sat": 7407,
      "Slo": 7408,
      "Very": 7409,
      "bom": 7410,
      "bod": 7411,
      "bra": 7412,
      "hook": 7413,
      "mile": 7414,
      "pony": 7415,
      "rats": 7416,
      "sets": 7417,
      "tiny": 7418,
      "wanna": 7419,
      "##cest": 7420,
      "##craft": 7421,
      "##ping": 7422,
      "##uine": 7423,
      "##erent": 7424,
      "##erous": 7425,
      "##omers": 7426,
      "toss": 7427,
      "tone": 7428,
      "##atisf": 7429,
      "##asp": 7430,
      "ancest": 7431,
      "rew": 7432,
      "heels": 7433,
      "##char": 7434,
      "##keys": 7435,
      "goat": 7436,
      "##ittle": 7437,
      "Helen": 7438,
      "##iro": 7439,
      "##alley": 7440,
      "Though": 7441,
      "##acting": 7442,
      "suck": 7443,
      "chop": 7444,
      "##iel": 7445,
      "manner": 7446,
      "##ifted": 7447,
      "##aker": 7448,
      "click": 7449,
      "prim": 7450,
      "drag": 7451,
      "##igr": 7452,
      "##angle": 7453,
      "unne": 7454,
      "letting": 7455,
      "composed": 7456,
      "##abul": 7457,
      "##estern": 7458,
      "planes": 7459,
      "score": 7460,
      "afterwards": 7461,
      "phen": 7462,
      "greater": 7463,
      "hunger": 7464,
      "expects": 7465,
      "slip": 7466,
      "rested": 7467,
      "##arsh": 7468,
      "##weight": 7469,
      "grandma": 7470,
      "Looks": 7471,
      "addicted": 7472,
      "element": 7473,
      "##working": 7474,
      "corp": 7475,
      "confl": 7476,
      "signal": 7477,
      "teleg": 7478,
      "salty": 7479,
      "sunrise": 7480,
      "genuine": 7481,
      "calend": 7482,
      "syn": 7483,
      "memories": 7484,
      "balls": 7485,
      "explode": 7486,
      "ships": 7487,
      "miserable": 7488,
      "fruits": 7489,
      "honesty": 7490,
      "generation": 7491,
      "practically": 7492,
      "leads": 7493,
      "potential": 7494,
      "equals": 7495,
      "##iking": 7496,
      "violent": 7497,
      "Swiss": 7498,
      "thousands": 7499,
      "locker": 7500,
      "occasion": 7501,
      "volcan": 7502,
      "frighten": 7503,
      "ironed": 7504,
      "adopt": 7505,
      "sexual": 7506,
      "prayed": 7507,
      "provided": 7508,
      "pronounced": 7509,
      "anticip": 7510,
      "advantages": 7511,
      "counter": 7512,
      "rubbish": 7513,
      "separated": 7514,
      "Berber": 7515,
      "wolves": 7516,
      "specific": 7517,
      "aimed": 7518,
      "astronaut": 7519,
      "included": 7520,
      "produced": 7521,
      "investigation": 7522,
      "Sooner": 7523,
      "decorated": 7524,
      "Instead": 7525,
      "Desp": 7526,
      "mutual": 7527,
      "instrument": 7528,
      "sleeve": 7529,
      "application": 7530,
      "ignorance": 7531,
      "grav": 7532,
      "Feder": 7533,
      "intrigued": 7534,
      "typewriter": 7535,
      "enormous": 7536,
      "emotions": 7537,
      "unnecess": 7538,
      "14": 7539,
      "Ath": 7540,
      "Abs": 7541,
      "Ben": 7542,
      "Bas": 7543,
      "Count": 7544,
      "Comm": 7545,
      "Den": 7546,
      "Dis": 7547,
      "Hot": 7548,
      "Half": 7549,
      "Ira": 7550,
      "Kobe": 7551,
      "Part": 7552,
      "Peel": 7553,
      "Pardon": 7554,
      "ack": 7555,
      "dull": 7556,
      "fest": 7557,
      "gum": 7558,
      "harsh": 7559,
      "sigh": 7560,
      "voc": 7561,
      "##dh": 7562,
      "##iate": 7563,
      "##tled": 7564,
      "##mare": 7565,
      "##mark": 7566,
      "##belt": 7567,
      "##bling": 7568,
      "##joy": 7569,
      "thor": 7570,
      "beans": 7571,
      "ang": 7572,
      "##lept": 7573,
      "##step": 7574,
      "wicked": 7575,
      "##ita": 7576,
      "stake": 7577,
      "notified": 7578,
      "##elly": 7579,
      "##urger": 7580,
      "alright": 7581,
      "trumpet": 7582,
      "helpless": 7583,
      "##ively": 7584,
      "ups": 7585,
      "select": 7586,
      "##akh": 7587,
      "moons": 7588,
      "Isra": 7589,
      "unpr": 7590,
      "remar": 7591,
      "overhe": 7592,
      "scand": 7593,
      "brakes": 7594,
      "disor": 7595,
      "nightmare": 7596,
      "watered": 7597,
      "Int": 7598,
      "persons": 7599,
      "slice": 7600,
      "series": 7601,
      "acid": 7602,
      "firefight": 7603,
      "##ception": 7604,
      "snowman": 7605,
      "freezing": 7606,
      "Ant": 7607,
      "flows": 7608,
      "humid": 7609,
      "humour": 7610,
      "blackmail": 7611,
      "admir": 7612,
      "shortly": 7613,
      "subscri": 7614,
      "ruled": 7615,
      "193": 7616,
      "addressed": 7617,
      "silk": 7618,
      "sending": 7619,
      "Marika": 7620,
      "reported": 7621,
      "cowboy": 7622,
      "seatbelt": 7623,
      "barber": 7624,
      "idiots": 7625,
      "throwing": 7626,
      "considering": 7627,
      "Art": 7628,
      "scares": 7629,
      "scarce": 7630,
      "mailbox": 7631,
      "programmer": 7632,
      "uncomfort": 7633,
      "disagreed": 7634,
      "astrol": 7635,
      "brushing": 7636,
      "interrupted": 7637,
      "skirts": 7638,
      "superior": 7639,
      "inclined": 7640,
      "abandon": 7641,
      "fashioned": 7642,
      "departure": 7643,
      "Washing": 7644,
      "declined": 7645,
      "Georg": 7646,
      "resigned": 7647,
      "Obvious": 7648,
      "chemical": 7649,
      "delivered": 7650,
      "particularly": 7651,
      "Milk": 7652,
      "Better": 7653,
      "puzzled": 7654,
      "Strange": 7655,
      "praised": 7656,
      "principal": 7657,
      "reflection": 7658,
      "multip": 7659,
      "##rocod": 7660,
      "Galile": 7661,
      "cotton": 7662,
      "Queen": 7663,
      "colleagues": 7664,
      "consequences": 7665,
      "Drive": 7666,
      "Coffee": 7667,
      "Mathemat": 7668,
      "yoga": 7669,
      "handcuffed": 7670,
      "precisely": 7671,
      "Buddh": 7672,
      "Language": 7673,
      "Moz": 7674,
      "individual": 7675,
      "burglar": 7676,
      "unbearable": 7677,
      "extraordinary": 7678,
      "calendar": 7679,
      "Iraq": 7680,
      "acknow": 7681,
      "Israel": 7682,
      "uncomfortable": 7683,
      "70": 7684,
      "Aut": 7685,
      "City": 7686,
      "Free": 7687,
      "Hang": 7688,
      "Kids": 7689,
      "Mod": 7690,
      "Miss": 7691,
      "Meg": 7692,
      "Over": 7693,
      "Other": 7694,
      "Res": 7695,
      "Someday": 7696,
      "baking": 7697,
      "brows": 7698,
      "hom": 7699,
      "lingu": 7700,
      "nest": 7701,
      "rif": 7702,
      "ripe": 7703,
      "sixt": 7704,
      "sarc": 7705,
      "tables": 7706,
      "ven": 7707,
      "##tains": 7708,
      "##rid": 7709,
      "##ham": 7710,
      "##house": 7711,
      "##bes": 7712,
      "##back": 7713,
      "##eras": 7714,
      "##ena": 7715,
      "##eness": 7716,
      "##owing": 7717,
      "##vember": 7718,
      "##otes": 7719,
      "##imming": 7720,
      "##chi": 7721,
      "stir": 7722,
      "##utes": 7723,
      "##oops": 7724,
      "shine": 7725,
      "shiver": 7726,
      "shaving": 7727,
      "saint": 7728,
      "chalk": 7729,
      "##illa": 7730,
      "carbon": 7731,
      "##asts": 7732,
      "outdo": 7733,
      "seated": 7734,
      "section": 7735,
      "##artial": 7736,
      "##aud": 7737,
      "##obal": 7738,
      "##ement": 7739,
      "##issa": 7740,
      "broom": 7741,
      "November": 7742,
      "hardworking": 7743,
      "surgeon": 7744,
      "driven": 7745,
      "rainbow": 7746,
      "promoted": 7747,
      "##igned": 7748,
      "ending": 7749,
      "cookie": 7750,
      "relie": 7751,
      "ache": 7752,
      "##asha": 7753,
      "snowfl": 7754,
      "deadline": 7755,
      "solving": 7756,
      "tremb": 7757,
      "colon": 7758,
      "convincing": 7759,
      "Ali": 7760,
      "catching": 7761,
      "gardener": 7762,
      "fools": 7763,
      "temple": 7764,
      "perman": 7765,
      "opposed": 7766,
      "bargain": 7767,
      "burns": 7768,
      "vegetable": 7769,
      "politicians": 7770,
      "practical": 7771,
      "democracy": 7772,
      "potato": 7773,
      "Twitter": 7774,
      "##oleon": 7775,
      "normally": 7776,
      "Reading": 7777,
      "irresp": 7778,
      "waves": 7779,
      "courageous": 7780,
      "treatment": 7781,
      "educated": 7782,
      "hobbies": 7783,
      "effects": 7784,
      "communicate": 7785,
      "communication": 7786,
      "camping": 7787,
      "besides": 7788,
      "developed": 7789,
      "attempted": 7790,
      "photographer": 7791,
      "victims": 7792,
      "Enough": 7793,
      "microw": 7794,
      "affected": 7795,
      "remarks": 7796,
      "remarkable": 7797,
      "froze": 7798,
      "vanished": 7799,
      "Ukrainian": 7800,
      "basic": 7801,
      "sailor": 7802,
      "salesman": 7803,
      "adventure": 7804,
      "resembles": 7805,
      "composition": 7806,
      "whistle": 7807,
      "Fortunately": 7808,
      "mushrooms": 7809,
      "tunnel": 7810,
      "liquid": 7811,
      "demonst": 7812,
      "represent": 7813,
      "Kazakh": 7814,
      "Yumi": 7815,
      "##iosity": 7816,
      "platform": 7817,
      "Napoleon": 7818,
      "unbelievable": 7819,
      "centimeters": 7820,
      "telescope": 7821,
      "Happiness": 7822,
      "##atisfied": 7823,
      "##abulary": 7824,
      "phenomen": 7825,
      "Despite": 7826,
      "unnecessary": 7827,
      "remarried": 7828,
      "scandal": 7829,
      "sixteen": 7830,
      "\"...": 7831,
      "Bab": 7832,
      "Cr": 7833,
      "Cor": 7834,
      "Cong": 7835,
      "Dem": 7836,
      "Dima": 7837,
      "Est": 7838,
      "Easter": 7839,
      "Fear": 7840,
      "Hit": 7841,
      "Je": 7842,
      "Kar": 7843,
      "Nag": 7844,
      "Pull": 7845,
      "Ret": 7846,
      "Ur": 7847,
      "Wood": 7848,
      "bake": 7849,
      "bumped": 7850,
      "cree": 7851,
      "dil": 7852,
      "fried": 7853,
      "fountain": 7854,
      "gifted": 7855,
      "iP": 7856,
      "icy": 7857,
      "mild": 7858,
      "sen": 7859,
      "tends": 7860,
      "ult": 7861,
      "wand": 7862,
      "##iam": 7863,
      "##oal": 7864,
      "##sk": 7865,
      "##ault": 7866,
      "##rings": 7867,
      "##pire": 7868,
      "##fact": 7869,
      "##uke": 7870,
      "##uum": 7871,
      "##ufact": 7872,
      "##hand": 7873,
      "##bell": 7874,
      "##BI": 7875,
      "##NA": 7876,
      "thri": 7877,
      "##arians": 7878,
      "##ida": 7879,
      "dolph": 7880,
      "anth": 7881,
      "##ette": 7882,
      "wig": 7883,
      "##keep": 7884,
      "states": 7885,
      "withd": 7886,
      "##acter": 7887,
      "##aceable": 7888,
      "##ctions": 7889,
      "##andom": 7890,
      "chief": 7891,
      "spect": 7892,
      "happiest": 7893,
      "##olite": 7894,
      "bye": 7895,
      "##ously": 7896,
      "amate": 7897,
      "prover": 7898,
      "waterm": 7899,
      "compan": 7900,
      "tomato": 7901,
      "flute": 7902,
      "prejud": 7903,
      "diagn": 7904,
      "brick": 7905,
      "impolite": 7906,
      "earrings": 7907,
      "resort": 7908,
      "string": 7909,
      "learnt": 7910,
      "borders": 7911,
      "minister": 7912,
      "forgetful": 7913,
      "slaves": 7914,
      "function": 7915,
      "Anna": 7916,
      "treats": 7917,
      "summit": 7918,
      "infinite": 7919,
      "strongly": 7920,
      "babies": 7921,
      "Att": 7922,
      "hospitalized": 7923,
      "protecting": 7924,
      "rising": 7925,
      "deserted": 7926,
      "vacuum": 7927,
      "lawyers": 7928,
      "necessarily": 7929,
      "resulted": 7930,
      "barked": 7931,
      "cameras": 7932,
      "##onym": 7933,
      "##oids": 7934,
      "closing": 7935,
      "burnt": 7936,
      "risky": 7937,
      "existed": 7938,
      "approved": 7939,
      "cells": 7940,
      "valid": 7941,
      "scaring": 7942,
      "objected": 7943,
      "museums": 7944,
      "bribe": 7945,
      "obeyed": 7946,
      "fingerprints": 7947,
      "toothbrush": 7948,
      "personality": 7949,
      "sharpened": 7950,
      "crimes": 7951,
      "flex": 7952,
      "senses": 7953,
      "repairing": 7954,
      "organized": 7955,
      "hesitated": 7956,
      "torn": 7957,
      "volunteered": 7958,
      "essay": 7959,
      "Harry": 7960,
      "Comput": 7961,
      "inspired": 7962,
      "applied": 7963,
      "Judging": 7964,
      "##affe": 7965,
      "pineapp": 7966,
      "Flor": 7967,
      "##judged": 7968,
      "humiliated": 7969,
      "Imag": 7970,
      "Much": 7971,
      "troubles": 7972,
      "eternal": 7973,
      "enthusiasm": 7974,
      "overslept": 7975,
      "occupied": 7976,
      "##stein": 7977,
      "bishop": 7978,
      "Valent": 7979,
      "teddy": 7980,
      "automob": 7981,
      "conflict": 7982,
      "vocabulary": 7983,
      "thorough": 7984,
      "microwave": 7985,
      "watermel": 7986,
      "22": 7987,
      "Back": 7988,
      "Draw": 7989,
      "DNA": 7990,
      "Ever": 7991,
      "Feel": 7992,
      "FBI": 7993,
      "Hy": 7994,
      "Hist": 7995,
      "Holy": 7996,
      "Lie": 7997,
      "Living": 7998,
      "Little": 7999,
      "Mel": 8000,
      "Rec": 8001,
      "Set": 8002,
      "Sleep": 8003,
      "Soc": 8004,
      "Tru": 8005,
      "Way": 8006,
      "Weren": 8007,
      "apt": 8008,
      "bore": 8009,
      "crocod": 8010,
      "gro": 8011,
      "gamb": 8012,
      "gorge": 8013,
      "hint": 8014,
      "homet": 8015,
      "ly": 8016,
      "peas": 8017,
      "rage": 8018,
      "sib": 8019,
      "tender": 8020,
      "vit": 8021,
      "veter": 8022,
      "—\"": 8023,
      "##eth": 8024,
      "##othes": 8025,
      "##fall": 8026,
      "##wash": 8027,
      "thy": 8028,
      "##erals": 8029,
      "##ino": 8030,
      "##edge": 8031,
      "theft": 8032,
      "##asant": 8033,
      "inex": 8034,
      "##ayed": 8035,
      "##ota": 8036,
      "##levant": 8037,
      "heal": 8038,
      "YouT": 8039,
      "stink": 8040,
      "Whom": 8041,
      "whale": 8042,
      "##tering": 8043,
      "shed": 8044,
      "shift": 8045,
      "##opin": 8046,
      "trapped": 8047,
      "troops": 8048,
      "sung": 8049,
      "exting": 8050,
      "##istent": 8051,
      "cart": 8052,
      "##olt": 8053,
      "therefore": 8054,
      "##erson": 8055,
      "manufact": 8056,
      "seized": 8057,
      "boil": 8058,
      "however": 8059,
      "rocks": 8060,
      "compromise": 8061,
      "awoke": 8062,
      "dialed": 8063,
      "overweight": 8064,
      "scale": 8065,
      "grade": 8066,
      "interse": 8067,
      "Chopin": 8068,
      "Englishman": 8069,
      "hunt": 8070,
      "##uckled": 8071,
      "passes": 8072,
      "interests": 8073,
      "advanced": 8074,
      "frag": 8075,
      "policemen": 8076,
      "keyboard": 8077,
      "transfer": 8078,
      "refuge": 8079,
      "firewood": 8080,
      "behalf": 8081,
      "##ometer": 8082,
      "completed": 8083,
      "confusion": 8084,
      "evident": 8085,
      "ticklish": 8086,
      "settle": 8087,
      "settled": 8088,
      "##ype": 8089,
      "curtain": 8090,
      "curtains": 8091,
      "ruins": 8092,
      "hundreds": 8093,
      "seventh": 8094,
      "misjudged": 8095,
      "efficient": 8096,
      "fingern": 8097,
      "dealing": 8098,
      "##orns": 8099,
      "appreciated": 8100,
      "lowered": 8101,
      "stuffed": 8102,
      "Indian": 8103,
      "construction": 8104,
      "ironing": 8105,
      "steady": 8106,
      "experts": 8107,
      "optimist": 8108,
      "##edictable": 8109,
      "International": 8110,
      "despised": 8111,
      "anti": 8112,
      "literally": 8113,
      "bowling": 8114,
      "melted": 8115,
      "predicted": 8116,
      "predictable": 8117,
      "measures": 8118,
      "development": 8119,
      "sinking": 8120,
      "foxes": 8121,
      "choices": 8122,
      "Compare": 8123,
      "grammat": 8124,
      "screwdri": 8125,
      "astronomy": 8126,
      "calculator": 8127,
      "Seven": 8128,
      "Educ": 8129,
      "irrelevant": 8130,
      "railroad": 8131,
      "accomplished": 8132,
      "sacrifice": 8133,
      "Muslims": 8134,
      "winked": 8135,
      "significant": 8136,
      "jogging": 8137,
      "Doctors": 8138,
      "Poor": 8139,
      "Second": 8140,
      "hydrogen": 8141,
      "##rupting": 8142,
      "cockroaches": 8143,
      "challenge": 8144,
      "##worthy": 8145,
      "automatically": 8146,
      "launch": 8147,
      "pancakes": 8148,
      "inexpensive": 8149,
      "Saturn": 8150,
      "unpredictable": 8151,
      "Mathematics": 8152,
      "rifle": 8153,
      "irrespons": 8154,
      "hometown": 8155,
      "siblings": 8156,
      "extingu": 8157,
      "screwdriver": 8158,
      "Bat": 8159,
      "Bapt": 8160,
      "Cat": 8161,
      "Cop": 8162,
      "Danish": 8163,
      "East": 8164,
      "Friend": 8165,
      "Fred": 8166,
      "Hil": 8167,
      "Kab": 8168,
      "Lisa": 8169,
      "Nature": 8170,
      "Sup": 8171,
      "Up": 8172,
      "bache": 8173,
      "dining": 8174,
      "fiction": 8175,
      "gig": 8176,
      "gang": 8177,
      "hiring": 8178,
      "jung": 8179,
      "naught": 8180,
      "pit": 8181,
      "rook": 8182,
      "rib": 8183,
      "random": 8184,
      "sorrow": 8185,
      "tank": 8186,
      "valley": 8187,
      "wakes": 8188,
      "yawn": 8189,
      "##iat": 8190,
      "##sm": 8191,
      "##rous": 8192,
      "##rophone": 8193,
      "##ua": 8194,
      "##hop": 8195,
      "##bted": 8196,
      "##whe": 8197,
      "##ourage": 8198,
      "##inoc": 8199,
      "tons": 8200,
      "##armed": 8201,
      "##esome": 8202,
      "##iddle": 8203,
      "##lda": 8204,
      "ants": 8205,
      "##imed": 8206,
      "##itis": 8207,
      "stream": 8208,
      "##alog": 8209,
      "Health": 8210,
      "aloud": 8211,
      "##estyle": 8212,
      "##therlands": 8213,
      "needn": 8214,
      "##ills": 8215,
      "plates": 8216,
      "##istration": 8217,
      "##arten": 8218,
      "whoever": 8219,
      "cliff": 8220,
      "wrap": 8221,
      "que": 8222,
      "leaf": 8223,
      "##agging": 8224,
      "unrel": 8225,
      "Whoever": 8226,
      "belief": 8227,
      "##oger": 8228,
      "questioning": 8229,
      "overre": 8230,
      "screen": 8231,
      "phones": 8232,
      "disob": 8233,
      "appeal": 8234,
      "Australian": 8235,
      "drift": 8236,
      "partly": 8237,
      "accus": 8238,
      "shoel": 8239,
      "##gger": 8240,
      "metro": 8241,
      "passage": 8242,
      "kinderg": 8243,
      "gladly": 8244,
      "slammed": 8245,
      "Asian": 8246,
      "stoat": 8247,
      "fewer": 8248,
      "kidney": 8249,
      "Beat": 8250,
      "meetings": 8251,
      "reduce": 8252,
      "##works": 8253,
      "penalty": 8254,
      "fixing": 8255,
      "infected": 8256,
      "throughout": 8257,
      "heartless": 8258,
      "Unl": 8259,
      "convicted": 8260,
      "clocks": 8261,
      "Franc": 8262,
      "Wasn": 8263,
      "cured": 8264,
      "##ivity": 8265,
      "footstep": 8266,
      "dictionaries": 8267,
      "extent": 8268,
      "indiff": 8269,
      "acceptable": 8270,
      "electron": 8271,
      "symp": 8272,
      "magician": 8273,
      "Netherlands": 8274,
      "worthy": 8275,
      "landing": 8276,
      "offering": 8277,
      "profile": 8278,
      "thrown": 8279,
      "equally": 8280,
      "batteries": 8281,
      "contacted": 8282,
      "collects": 8283,
      "peaceful": 8284,
      "copies": 8285,
      "planting": 8286,
      "customs": 8287,
      "naturally": 8288,
      "lifted": 8289,
      "groups": 8290,
      "constant": 8291,
      "cabin": 8292,
      "Norway": 8293,
      "Prime": 8294,
      "operate": 8295,
      "shouting": 8296,
      "superstit": 8297,
      "slightest": 8298,
      "measured": 8299,
      "pigs": 8300,
      "criticism": 8301,
      "interpret": 8302,
      "harvest": 8303,
      "inhab": 8304,
      "suggestions": 8305,
      "volunteer": 8306,
      "Obama": 8307,
      "Music": 8308,
      "congratulated": 8309,
      "Apparently": 8310,
      "encouraged": 8311,
      "champion": 8312,
      "champagne": 8313,
      "branches": 8314,
      "designed": 8315,
      "Brush": 8316,
      "lifestyle": 8317,
      "struggle": 8318,
      "activity": 8319,
      "negotiations": 8320,
      "registered": 8321,
      "confirm": 8322,
      "shelter": 8323,
      "Raise": 8324,
      "virtue": 8325,
      "##ophobia": 8326,
      "elderly": 8327,
      "dedicated": 8328,
      "vampire": 8329,
      "survivors": 8330,
      "compliment": 8331,
      "Federer": 8332,
      "festival": 8333,
      "Washington": 8334,
      "Obviously": 8335,
      "Mozart": 8336,
      "browser": 8337,
      "outdoors": 8338,
      "crocodile": 8339,
      "gorgeous": 8340,
      "vitam": 8341,
      "YouTube": 8342,
      "irresponsible": 8343,
      "bachelor": 8344,
      "jungle": 8345,
      "kindergarten": 8346,
      "footsteps": 8347,
      "superstitious": 8348,
      "23": 8349,
      "80": 8350,
      "AI": 8351,
      "Bew": 8352,
      "Big": 8353,
      "Cover": 8354,
      "Congratul": 8355,
      "Dav": 8356,
      "Eve": 8357,
      "Ele": 8358,
      "Food": 8359,
      "Grab": 8360,
      "Hard": 8361,
      "Ire": 8362,
      "Long": 8363,
      "Mor": 8364,
      "Mind": 8365,
      "Nara": 8366,
      "Pope": 8367,
      "Real": 8368,
      "Reg": 8369,
      "Sign": 8370,
      "Vasil": 8371,
      "bul": 8372,
      "cate": 8373,
      "der": 8374,
      "dough": 8375,
      "eag": 8376,
      "fuel": 8377,
      "pist": 8378,
      "panda": 8379,
      "sir": 8380,
      "surn": 8381,
      "##oven": 8382,
      "##cer": 8383,
      "##pe": 8384,
      "##pting": 8385,
      "##burg": 8386,
      "##what": 8387,
      "##zes": 8388,
      "##erior": 8389,
      "toe": 8390,
      "##isible": 8391,
      "##reh": 8392,
      "##theless": 8393,
      "dove": 8394,
      "##ley": 8395,
      "##stand": 8396,
      "wizard": 8397,
      "##chair": 8398,
      "stun": 8399,
      "stew": 8400,
      "##verse": 8401,
      "wanting": 8402,
      "##ada": 8403,
      "##adise": 8404,
      "shown": 8405,
      "abol": 8406,
      "##acity": 8407,
      "tracks": 8408,
      "somewhat": 8409,
      "##ulting": 8410,
      "##unci": 8411,
      "##oline": 8412,
      "muddy": 8413,
      "##itement": 8414,
      "arrow": 8415,
      "moist": 8416,
      "##ounding": 8417,
      "unac": 8418,
      "uneas": 8419,
      "##udent": 8420,
      "Wherever": 8421,
      "waitress": 8422,
      "##berg": 8423,
      "believing": 8424,
      "paran": 8425,
      "parcel": 8426,
      "brains": 8427,
      "Step": 8428,
      "appropriate": 8429,
      "interrupting": 8430,
      "reserved": 8431,
      "polish": 8432,
      "tease": 8433,
      "Mayuko": 8434,
      "foc": 8435,
      "focus": 8436,
      "bedtime": 8437,
      "surprises": 8438,
      "serves": 8439,
      "visitor": 8440,
      "dreamt": 8441,
      "corrupt": 8442,
      "Alcohol": 8443,
      "thankful": 8444,
      "bicycles": 8445,
      "travelling": 8446,
      "instant": 8447,
      "girlfriends": 8448,
      "protest": 8449,
      "excuses": 8450,
      "growth": 8451,
      "indisp": 8452,
      "guitarist": 8453,
      "banks": 8454,
      "squares": 8455,
      "smelled": 8456,
      "receipt": 8457,
      "exploded": 8458,
      "bodyguard": 8459,
      "checkers": 8460,
      "peaches": 8461,
      "##ificent": 8462,
      "shops": 8463,
      "edible": 8464,
      "absolute": 8465,
      "Swimming": 8466,
      "islands": 8467,
      "objection": 8468,
      "toothache": 8469,
      "pronunci": 8470,
      "Empty": 8471,
      "neglig": 8472,
      "verge": 8473,
      "petition": 8474,
      "fortunate": 8475,
      "printer": 8476,
      "campfire": 8477,
      "Portugal": 8478,
      "organization": 8479,
      "logic": 8480,
      "revolution": 8481,
      "spoil": 8482,
      "detailed": 8483,
      "Enjoy": 8484,
      "defending": 8485,
      "contrary": 8486,
      "mosque": 8487,
      "spirits": 8488,
      "graduate": 8489,
      "peeled": 8490,
      "dyed": 8491,
      "magnificent": 8492,
      "severely": 8493,
      "hostages": 8494,
      "technology": 8495,
      "Glad": 8496,
      "punched": 8497,
      "struggled": 8498,
      "dissatisfied": 8499,
      "instruments": 8500,
      "mentally": 8501,
      "stretched": 8502,
      "diab": 8503,
      "dialect": 8504,
      "obliged": 8505,
      "underwear": 8506,
      "historical": 8507,
      "Venice": 8508,
      "sympt": 8509,
      "jewel": 8510,
      "flashlight": 8511,
      "acquaintance": 8512,
      "Zelda": 8513,
      "candidate": 8514,
      "Damn": 8515,
      "luxury": 8516,
      "##ocratic": 8517,
      "microsc": 8518,
      "established": 8519,
      "Girls": 8520,
      "bodies": 8521,
      "Absolut": 8522,
      "relieved": 8523,
      "Return": 8524,
      "Computers": 8525,
      "fingernails": 8526,
      "Education": 8527,
      "naughty": 8528,
      "shoelaces": 8529,
      "Beware": 8530,
      "Congratulations": 8531,
      "Ireland": 8532,
      "Vasilissa": 8533,
      "categ": 8534,
      "pronunciation": 8535,
      "45": 8536,
      "Beeth": 8537,
      "Cross": 8538,
      "Dar": 8539,
      "Hm": 8540,
      "Kim": 8541,
      "Know": 8542,
      "Li": 8543,
      "Lin": 8544,
      "Law": 8545,
      "Lord": 8546,
      "Must": 8547,
      "Pret": 8548,
      "Rich": 8549,
      "Sur": 8550,
      "Snow": 8551,
      "Us": 8552,
      "Uy": 8553,
      "apr": 8554,
      "bon": 8555,
      "bart": 8556,
      "creat": 8557,
      "dates": 8558,
      "dashed": 8559,
      "era": 8560,
      "fab": 8561,
      "gall": 8562,
      "lid": 8563,
      "nerve": 8564,
      "ost": 8565,
      "oak": 8566,
      "rh": 8567,
      "roo": 8568,
      "ripped": 8569,
      "sid": 8570,
      "tact": 8571,
      "tourn": 8572,
      "vul": 8573,
      "voy": 8574,
      "voting": 8575,
      "vague": 8576,
      "##iot": 8577,
      "##gin": 8578,
      "##cony": 8579,
      "##lad": 8580,
      "##food": 8581,
      "##hale": 8582,
      "##xophone": 8583,
      "##zy": 8584,
      "##erd": 8585,
      "##erally": 8586,
      "##erap": 8587,
      "##ini": 8588,
      "##atable": 8589,
      "##isine": 8590,
      "##vey": 8591,
      "begg": 8592,
      "knitting": 8593,
      "stable": 8594,
      "steel": 8595,
      "##adle": 8596,
      "##irrels": 8597,
      "##uries": 8598,
      "##riot": 8599,
      "##acious": 8600,
      "sauce": 8601,
      "saxophone": 8602,
      "users": 8603,
      "##geons": 8604,
      "chin": 8605,
      "plumber": 8606,
      "##ila": 8607,
      "##istics": 8608,
      "happily": 8609,
      "sheets": 8610,
      "##oli": 8611,
      "lovers": 8612,
      "##arded": 8613,
      "##ects": 8614,
      "coast": 8615,
      "##ortion": 8616,
      "##agram": 8617,
      "expense": 8618,
      "rocket": 8619,
      "##emic": 8620,
      "buses": 8621,
      "adapt": 8622,
      "blames": 8623,
      "compar": 8624,
      "scat": 8625,
      "Star": 8626,
      "State": 8627,
      "guilt": 8628,
      "dism": 8629,
      "hardest": 8630,
      "doorbell": 8631,
      "Chess": 8632,
      "resume": 8633,
      "reserve": 8634,
      "remembering": 8635,
      "partners": 8636,
      "learns": 8637,
      "warri": 8638,
      "trustworthy": 8639,
      "crops": 8640,
      "frank": 8641,
      "trained": 8642,
      "serving": 8643,
      "hairsty": 8644,
      "relief": 8645,
      "reform": 8646,
      "acce": 8647,
      "biting": 8648,
      "lighter": 8649,
      "realistic": 8650,
      "##avy": 8651,
      "adding": 8652,
      "penny": 8653,
      "stupidity": 8654,
      "confession": 8655,
      "giant": 8656,
      "teleph": 8657,
      "Nowadays": 8658,
      "salmon": 8659,
      "sunlight": 8660,
      "patients": 8661,
      "umbrellas": 8662,
      "finishing": 8663,
      "halfway": 8664,
      "bringing": 8665,
      "excl": 8666,
      "distr": 8667,
      "presented": 8668,
      "curiosity": 8669,
      "electr": 8670,
      "bankrupt": 8671,
      "vacc": 8672,
      "exceptions": 8673,
      "chairman": 8674,
      "seafood": 8675,
      "starving": 8676,
      "Parents": 8677,
      "filthy": 8678,
      "##ugging": 8679,
      "caf": 8680,
      "stepmother": 8681,
      "feeding": 8682,
      "satisfact": 8683,
      "Anyway": 8684,
      "forms": 8685,
      "flights": 8686,
      "banned": 8687,
      "circus": 8688,
      "##shi": 8689,
      "steam": 8690,
      "acquired": 8691,
      "opportunities": 8692,
      "recorded": 8693,
      "praying": 8694,
      "diseases": 8695,
      "hamster": 8696,
      "tightly": 8697,
      "Belg": 8698,
      "gentlemen": 8699,
      "rubber": 8700,
      "merch": 8701,
      "microphone": 8702,
      "savings": 8703,
      "heights": 8704,
      "disturbing": 8705,
      "Prof": 8706,
      "applau": 8707,
      "flooded": 8708,
      "balcony": 8709,
      "frogs": 8710,
      "massage": 8711,
      "##oxide": 8712,
      "tigers": 8713,
      "phrases": 8714,
      "Playing": 8715,
      "rugby": 8716,
      "Generally": 8717,
      "Serb": 8718,
      "stretch": 8719,
      "Minister": 8720,
      "adjust": 8721,
      "regularly": 8722,
      "traditional": 8723,
      "Squirrels": 8724,
      "cuisine": 8725,
      "merely": 8726,
      "gunshot": 8727,
      "facing": 8728,
      "motioned": 8729,
      "pirate": 8730,
      "industry": 8731,
      "porch": 8732,
      "loyalty": 8733,
      "structure": 8734,
      "Hirosh": 8735,
      "smoker": 8736,
      "telegram": 8737,
      "Hotel": 8738,
      "Modern": 8739,
      "Imagine": 8740,
      "Valentine": 8741,
      "watermelon": 8742,
      "Truth": 8743,
      "intersection": 8744,
      "Hilton": 8745,
      "Francis": 8746,
      "pistol": 8747,
      "Beethoven": 8748,
      "Uygh": 8749,
      "voyage": 8750,
      "Ak": 8751,
      "Bul": 8752,
      "Care": 8753,
      "Cub": 8754,
      "Cold": 8755,
      "Dick": 8756,
      "Games": 8757,
      "Iron": 8758,
      "Lend": 8759,
      "Los": 8760,
      "Mac": 8761,
      "Roll": 8762,
      "Tie": 8763,
      "Tower": 8764,
      "Wik": 8765,
      "cos": 8766,
      "cem": 8767,
      "cub": 8768,
      "cube": 8769,
      "dive": 8770,
      "ditch": 8771,
      "dump": 8772,
      "dances": 8773,
      "fears": 8774,
      "lun": 8775,
      "mal": 8776,
      "oy": 8777,
      "pets": 8778,
      "rank": 8779,
      "tu": 8780,
      "tube": 8781,
      "wounds": 8782,
      "zomb": 8783,
      "##ael": 8784,
      "##tage": 8785,
      "##ties": 8786,
      "##put": 8787,
      "##pock": 8788,
      "##ho": 8789,
      "##hr": 8790,
      "##ani": 8791,
      "##angh": 8792,
      "##anny": 8793,
      "##arf": 8794,
      "##arch": 8795,
      "ing": 8796,
      "anal": 8797,
      "heater": 8798,
      "heating": 8799,
      "lick": 8800,
      "godd": 8801,
      "stad": 8802,
      "##ador": 8803,
      "##advant": 8804,
      "notify": 8805,
      "##urous": 8806,
      "##ustr": 8807,
      "worm": 8808,
      "traged": 8809,
      "sushi": 8810,
      "soil": 8811,
      "spade": 8812,
      "spots": 8813,
      "##rying": 8814,
      "##olks": 8815,
      "workah": 8816,
      "##aph": 8817,
      "clients": 8818,
      "clarin": 8819,
      "##agious": 8820,
      "offensive": 8821,
      "lets": 8822,
      "compass": 8823,
      "marked": 8824,
      "fled": 8825,
      "handy": 8826,
      "paradise": 8827,
      "overcome": 8828,
      "brace": 8829,
      "##ictly": 8830,
      "gull": 8831,
      "disadvant": 8832,
      "theirs": 8833,
      "##ipes": 8834,
      "accomm": 8835,
      "moral": 8836,
      "##text": 8837,
      "contagious": 8838,
      "##ologize": 8839,
      "snob": 8840,
      "invisible": 8841,
      "secure": 8842,
      "thirst": 8843,
      "vision": 8844,
      "cradle": 8845,
      "training": 8846,
      "Allow": 8847,
      "endless": 8848,
      "bites": 8849,
      "numb": 8850,
      "smallest": 8851,
      "explains": 8852,
      "Anim": 8853,
      "examined": 8854,
      "##ugs": 8855,
      "hearts": 8856,
      "returns": 8857,
      "strongest": 8858,
      "incomp": 8859,
      "Atl": 8860,
      "legend": 8861,
      "babys": 8862,
      "suspects": 8863,
      "arranged": 8864,
      "purs": 8865,
      "curly": 8866,
      "pasta": 8867,
      "calmed": 8868,
      "indo": 8869,
      "charity": 8870,
      "rises": 8871,
      "bothered": 8872,
      "##atural": 8873,
      "entertain": 8874,
      "cowards": 8875,
      "continent": 8876,
      "concerts": 8877,
      "univers": 8878,
      "purposely": 8879,
      "cafe": 8880,
      "chocolates": 8881,
      "machines": 8882,
      "equip": 8883,
      "deliber": 8884,
      "hanged": 8885,
      "motiv": 8886,
      "licence": 8887,
      "butterflies": 8888,
      "talents": 8889,
      "ashes": 8890,
      "##laimed": 8891,
      "Jacksons": 8892,
      "improving": 8893,
      "drugstore": 8894,
      "Plut": 8895,
      "delicate": 8896,
      "records": 8897,
      "Apologize": 8898,
      "include": 8899,
      "despite": 8900,
      "bowed": 8901,
      "Kingdom": 8902,
      "whisper": 8903,
      "materials": 8904,
      "performed": 8905,
      "tricks": 8906,
      "exaggerate": 8907,
      "puzzles": 8908,
      "Strictly": 8909,
      "adventurous": 8910,
      "pollution": 8911,
      "philosopher": 8912,
      "Slow": 8913,
      "chewing": 8914,
      "widow": 8915,
      "accomplish": 8916,
      "memorize": 8917,
      "absorbed": 8918,
      "cucum": 8919,
      "maiden": 8920,
      "gunshots": 8921,
      "Argentina": 8922,
      "Students": 8923,
      "revealed": 8924,
      "##ulsive": 8925,
      "theatre": 8926,
      "Susan": 8927,
      "Armenia": 8928,
      "Laurie": 8929,
      "Basque": 8930,
      "Georgia": 8931,
      "Autumn": 8932,
      "permanent": 8933,
      "senior": 8934,
      "anthem": 8935,
      "amateur": 8936,
      "diagnosed": 8937,
      "automobile": 8938,
      "thoroughly": 8939,
      "David": 8940,
      "eagle": 8941,
      "negligent": 8942,
      "Absolutely": 8943,
      "bartender": 8944,
      "oysters": 8945,
      "stadium": 8946,
      "clarinet": 8947,
      "accommod": 8948,
      ").": 8949,
      "21": 8950,
      "65": 8951,
      "90": 8952,
      "Ac": 8953,
      "Bell": 8954,
      "Ein": 8955,
      "Hind": 8956,
      "Lad": 8957,
      "Mur": 8958,
      "Ocean": 8959,
      "Pre": 8960,
      "Pot": 8961,
      "Rima": 8962,
      "Roger": 8963,
      "San": 8964,
      "Science": 8965,
      "Ter": 8966,
      "Vict": 8967,
      "Yok": 8968,
      "bapt": 8969,
      "cert": 8970,
      "dirt": 8971,
      "fist": 8972,
      "frow": 8973,
      "fian": 8974,
      "fulf": 8975,
      "keen": 8976,
      "pac": 8977,
      "pud": 8978,
      "yach": 8979,
      "##ipper": 8980,
      "##nia": 8981,
      "##oons": 8982,
      "##ao": 8983,
      "##avery": 8984,
      "##mers": 8985,
      "##uan": 8986,
      "##uation": 8987,
      "##hog": 8988,
      "##bar": 8989,
      "thus": 8990,
      "thumb": 8991,
      "thread": 8992,
      "##inian": 8993,
      "##inted": 8994,
      "##atures": 8995,
      "##aned": 8996,
      "##onald": 8997,
      "##ari": 8998,
      "##orable": 8999,
      "heated": 9000,
      "##imon": 9001,
      "forcing": 9002,
      "item": 9003,
      "stain": 9004,
      "staff": 9005,
      "##ali": 9006,
      "##utiful": 9007,
      "##oop": 9008,
      "##entually": 9009,
      "cann": 9010,
      "##irteen": 9011,
      "##urable": 9012,
      "##rich": 9013,
      "##rial": 9014,
      "Thirteen": 9015,
      "although": 9016,
      "weed": 9017,
      "##estra": 9018,
      "sock": 9019,
      "chased": 9020,
      "chips": 9021,
      "##illing": 9022,
      "##uled": 9023,
      "##ulated": 9024,
      "##olm": 9025,
      "##avel": 9026,
      "##ardo": 9027,
      "everyday": 9028,
      "seasons": 9029,
      "mug": 9030,
      "##ewell": 9031,
      "##ewalk": 9032,
      "##ako": 9033,
      "goodnight": 9034,
      "wrist": 9035,
      "prote": 9036,
      "prudent": 9037,
      "##umph": 9038,
      "##umonia": 9039,
      "bold": 9040,
      "boils": 9041,
      "backwards": 9042,
      "prosper": 9043,
      "##ags": 9044,
      "unple": 9045,
      "##fel": 9046,
      "blouse": 9047,
      "reader": 9048,
      "awesome": 9049,
      "fax": 9050,
      "##ulture": 9051,
      "evenings": 9052,
      "questioned": 9053,
      "overwhe": 9054,
      "brid": 9055,
      "braces": 9056,
      "grain": 9057,
      "poly": 9058,
      "disk": 9059,
      "nightmar": 9060,
      "apparently": 9061,
      "##ipedia": 9062,
      "accord": 9063,
      "elsewhere": 9064,
      "raincoat": 9065,
      "easiest": 9066,
      "warming": 9067,
      "eyed": 9068,
      "##ohama": 9069,
      "visible": 9070,
      "frankly": 9071,
      "slavery": 9072,
      "##ionship": 9073,
      "runner": 9074,
      "Shangh": 9075,
      "##weg": 9076,
      "muscles": 9077,
      "Wouldn": 9078,
      "headaches": 9079,
      "fireworks": 9080,
      "##ceptable": 9081,
      "grandpa": 9082,
      "consent": 9083,
      "discrim": 9084,
      "dressing": 9085,
      "cuts": 9086,
      "milked": 9087,
      "infection": 9088,
      "triumph": 9089,
      "darker": 9090,
      "beginners": 9091,
      "catches": 9092,
      "strangely": 9093,
      "shortcut": 9094,
      "doubted": 9095,
      "perfection": 9096,
      "hitting": 9097,
      "protected": 9098,
      "risen": 9099,
      "risked": 9100,
      "burden": 9101,
      "Except": 9102,
      "##oduce": 9103,
      "entit": 9104,
      "warmly": 9105,
      "guns": 9106,
      "blinds": 9107,
      "figures": 9108,
      "##affes": 9109,
      "causing": 9110,
      "practicing": 9111,
      "crown": 9112,
      "##cribe": 9113,
      "Goodbye": 9114,
      "Small": 9115,
      "millions": 9116,
      "supported": 9117,
      "pulling": 9118,
      "location": 9119,
      "formal": 9120,
      "autograph": 9121,
      "kingdom": 9122,
      "requested": 9123,
      "Remove": 9124,
      "circ": 9125,
      "constit": 9126,
      "##neumonia": 9127,
      "device": 9128,
      "Plants": 9129,
      "observ": 9130,
      "freck": 9131,
      "relationships": 9132,
      "maintain": 9133,
      "Norweg": 9134,
      "weighed": 9135,
      "verify": 9136,
      "sources": 9137,
      "exhib": 9138,
      "draft": 9139,
      "suspicion": 9140,
      "splend": 9141,
      "biological": 9142,
      "organism": 9143,
      "investment": 9144,
      "photographs": 9145,
      "criticized": 9146,
      "Romans": 9147,
      "witnesses": 9148,
      "affects": 9149,
      "immigr": 9150,
      "diamonds": 9151,
      "methods": 9152,
      "identity": 9153,
      "##amental": 9154,
      "Grandma": 9155,
      "interpreted": 9156,
      "sacred": 9157,
      "announce": 9158,
      "basis": 9159,
      "Christianity": 9160,
      "regardless": 9161,
      "defenseless": 9162,
      "originally": 9163,
      "activities": 9164,
      "architecture": 9165,
      "Eventually": 9166,
      "breasts": 9167,
      "geography": 9168,
      "##sticks": 9169,
      "Lightning": 9170,
      "pigeon": 9171,
      "assumed": 9172,
      "##anni": 9173,
      "Icelandic": 9174,
      "budget": 9175,
      "delighted": 9176,
      "galaxy": 9177,
      "purchase": 9178,
      "hypocrite": 9179,
      "stroke": 9180,
      "squeezed": 9181,
      "Ignore": 9182,
      "thermometer": 9183,
      "frustrated": 9184,
      "##ogenic": 9185,
      "scenery": 9186,
      "tossed": 9187,
      "Athens": 9188,
      "admirer": 9189,
      "acknowled": 9190,
      "dilig": 9191,
      "##keeper": 9192,
      "##acteria": 9193,
      "flexible": 9194,
      "pineapple": 9195,
      "History": 9196,
      "launched": 9197,
      "surname": 9198,
      "uneasy": 9199,
      "microscope": 9200,
      "hairstyle": 9201,
      "telephoned": 9202,
      "Wikipedia": 9203,
      "Animals": 9204,
      "Yokohama": 9205,
      "fianc": 9206,
      "unpleasant": 9207,
      "overwhel": 9208,
      "60": 9209,
      "Ast": 9210,
      "Bus": 9211,
      "Cy": 9212,
      "Cur": 9213,
      "Cows": 9214,
      "Due": 9215,
      "Dream": 9216,
      "Elect": 9217,
      "Fore": 9218,
      "Freedom": 9219,
      "Han": 9220,
      "Hong": 9221,
      "Hide": 9222,
      "Holl": 9223,
      "Horses": 9224,
      "Kn": 9225,
      "Kong": 9226,
      "Kling": 9227,
      "Liber": 9228,
      "Mich": 9229,
      "Mount": 9230,
      "Na": 9231,
      "Ow": 9232,
      "Pal": 9233,
      "Pic": 9234,
      "Pac": 9235,
      "Pole": 9236,
      "Rain": 9237,
      "Son": 9238,
      "Sad": 9239,
      "Seen": 9240,
      "Solar": 9241,
      "Tan": 9242,
      "Tex": 9243,
      "Vis": 9244,
      "Western": 9245,
      "aster": 9246,
      "cakes": 9247,
      "cord": 9248,
      "ecl": 9249,
      "gains": 9250,
      "groc": 9251,
      "hut": 9252,
      "hiber": 9253,
      "hiking": 9254,
      "joint": 9255,
      "jelly": 9256,
      "max": 9257,
      "nit": 9258,
      "noun": 9259,
      "niece": 9260,
      "pow": 9261,
      "porn": 9262,
      "pneumonia": 9263,
      "tires": 9264,
      "wing": 9265,
      "##nate": 9266,
      "##gant": 9267,
      "##cake": 9268,
      "##cling": 9269,
      "##ciable": 9270,
[...]
