{
  "version": "1.0",
  "truncation": null,
  "padding": null,
  "added_tokens": [
    {
      "id": 0,
      "content": "<unk>",
      "single_word": false,
      "lstrip": false,
      "rstrip": false,
      "normalized": false,
      "special": true
    },
    {
      "id": 1,
      "content": "<bos>",
      "single_word": false,
      "lstrip": false,
      "rstrip": false,
      "normalized": false,
      "special": true
    },
    {
      "id": 2,
      "content": "<eos>",
      "single_word": false,
      "lstrip": false,
      "rstrip": false,
      "normalized": false,
      "special": true
    },
    {
      "id": 3,
      "content": "<pad>",
      "single_word": false,
      "lstrip": false,
      "rstrip": false,
      "normalized": false,
      "special": true
    }
  ],
  "normalizer": null,
  "pre_tokenizer": {
    "type": "Whitespace"
  },
  "post_processor": null,
  "decoder": {
    "type": "WordPiece",
    "prefix": "##",
    "cleanup": true
  },
  "model": {
    "type": "BPE",
    "dropout": null,
    "unk_token": "<unk>",
    "continuing_subword_prefix": "##",
    "end_of_word_suffix": null,
    "fuse_unk": false,
    "byte_fallback": false,
    "ignore_merges": false,
    "vocab": {
      "<unk>": 0,
      "<bos>": 1,
      "<eos>": 2,
      "<pad>": 3,
      "!": 4,
      "\"": 5,
      "#": 6,
      "$": 7,
      "%": 8,
      "&": 9,
      "'": 10,
      "(": 11,
      ")": 12,
      "*": 13,
      "+": 14,
      ",": 15,
      "-": 16,
      ".": 17,
      "/": 18,
      "0": 19,
      "1": 20,
      "2": 21,
      "3": 22,
      "4": 23,
      "5": 24,
      "6": 25,
      "7": 26,
      "8": 27,
      "9": 28,
      ":": 29,
      ";": 30,
      "=": 31,
      ">": 32,
      "?": 33,
      "@": 34,
      "A": 35,
      "B": 36,
      "C": 37,
      "D": 38,
      "E": 39,
      "F": 40,
      "G": 41,
      "H": 42,
      "I": 43,
      "J": 44,
      "K": 45,
      "L": 46,
      "M": 47,
      "N": 48,
      "O": 49,
      "P": 50,
      "Q": 51,
      "R": 52,
      "S": 53,
      "T": 54,
      "U": 55,
      "V": 56,
      "W": 57,
      "X": 58,
      "Y": 59,
      "Z": 60,
      "[": 61,
      "]": 62,
      "_": 63,
      "a": 64,
      "b": 65,
      "c": 66,
      "d": 67,
      "e": 68,
      "f": 69,
      "g": 70,
      "h": 71,
      "i": 72,
      "j": 73,
      "k": 74,
      "l": 75,
      "m": 76,
      "n": 77,
      "o": 78,
      "p": 79,
      "q": 80,
      "r": 81,
      "s": 82,
      "t": 83,
      "u": 84,
      "v": 85,
      "w": 86,
      "x": 87,
      "y": 88,
      "z": 89,
      "«": 90,
      "­": 91,
      "°": 92,
      "²": 93,
      "³": 94,
      "º": 95,
      "»": 96,
      "Í": 97,
      "×": 98,
      "Ú": 99,
      "á": 100,
      "ä": 101,
      "ó": 102,
      "ú": 103,
      "ü": 104,
      "ĉ": 105,
      "ē": 106,
      "ĝ": 107,
      "Ğ": 108,
      "ĥ": 109,
      "ĵ": 110,
      "ŝ": 111,
      "ŭ": 112,
      "́": 113,
      "Ω": 114,
      "π": 115,
      "Ё": 116,
      "А": 117,
      "Б": 118,
      "В": 119,
      "Г": 120,
      "Д": 121,
      "Е": 122,
      "Ж": 123,
      "З": 124,
      "И": 125,
      "Й": 126,
      "К": 127,
      "Л": 128,
      "М": 129,
      "Н": 130,
      "О": 131,
      "П": 132,
      "Р": 133,
      "С": 134,
      "Т": 135,
      "У": 136,
      "Ф": 137,
      "Х": 138,
      "Ц": 139,
      "Ч": 140,
      "Ш": 141,
      "Щ": 142,
      "Ы": 143,
      "Ь": 144,
      "Э": 145,
      "Ю": 146,
      "Я": 147,
      "а": 148,
      "б": 149,
      "в": 150,
      "г": 151,
      "д": 152,
      "е": 153,
      "ж": 154,
      "з": 155,
      "и": 156,
      "й": 157,
      "к": 158,
      "л": 159,
      "м": 160,
      "н": 161,
      "о": 162,
      "п": 163,
      "р": 164,
      "с": 165,
      "т": 166,
      "у": 167,
      "ф": 168,
      "х": 169,
      "ц": 170,
      "ч": 171,
      "ш": 172,
      "щ": 173,
      "ъ": 174,
      "ы": 175,
      "ь": 176,
      "э": 177,
      "ю": 178,
      "я": 179,
      "ё": 180,
      "і": 181,
      "ѣ": 182,
      "Қ": 183,
      "қ": 184,
      "Ẽ": 185,
      "​": 186,
      "–": 187,
      "—": 188,
      "―": 189,
      "’": 190,
      "“": 191,
      "”": 192,
      "„": 193,
      "…": 194,
      "‽": 195,
      "₂": 196,
      "₫": 197,
      "₵": 198,
      "№": 199,
      "→": 200,
      "−": 201,
      "☭": 202,
      "♗": 203,
      "♘": 204,
      "々": 205,
      "「": 206,
      "」": 207,
      "あ": 208,
      "会": 209,
      "社": 210,
      "##и": 211,
      "##б": 212,
      "##е": 213,
      "##р": 214,
      "##з": 215,
      "##о": 216,
      "##п": 217,
      "##а": 218,
      "##с": 219,
      "##н": 220,
      "##т": 221,
      "##ф": 222,
      "##ц": 223,
      "##в": 224,
      "##л": 225,
      "##ю": 226,
      "##д": 227,
      "##ш": 228,
      "##к": 229,
      "##у": 230,
      "##й": 231,
      "##ж": 232,
      "##г": 233,
      "##м": 234,
      "##х": 235,
      "##я": 236,
      "##ч": 237,
      "##ы": 238,
      "##ъ": 239,
      "##ё": 240,
      "##ь": 241,
      "##t": 242,
      "##r": 243,
      "##i": 244,
      "##f": 245,
      "##e": 246,
      "##щ": 247,
      "##l": 248,
      "##g": 249,
      "##n": 250,
      "##o": 251,
      "##э": 252,
      "##c": 253,
      "##v": 254,
      "##s": 255,
      "##m": 256,
      "##0": 257,
      "##1": 258,
      "##3": 259,
      "##a": 260,
      "##y": 261,
      "##7": 262,
      "##9": 263,
      "##8": 264,
      "##.": 265,
      "##»": 266,
      "##h": 267,
      "##O": 268,
      "##P": 269,
      "##A": 270,
      "##́": 271,
      "##u": 272,
      "##,": 273,
      "##6": 274,
      "##ѣ": 275,
      "##C": 276,
      "##5": 277,
      "##4": 278,
      "##S": 279,
      "##B": 280,
      "##d": 281,
      "##;": 282,
      "##\"": 283,
      "##2": 284,
      "##Б": 285,
      "##И": 286,
      "##Н": 287,
      "##Р": 288,
      "##M": 289,
      "##?": 290,
      "##О": 291,
      "##z": 292,
      "##+": 293,
      "##E": 294,
      "##G": 295,
      "##R": 296,
      "##D": 297,
      "##K": 298,
      "##b": 299,
      "##А": 300,
      "##w": 301,
      "##k": 302,
      "##Ж": 303,
      "##У": 304,
      "##Л": 305,
      "##Ь": 306,
      "##Ч": 307,
      "##С": 308,
      "##Ё": 309,
      "##П": 310,
      "##К": 311,
      "##Д": 312,
      "##Т": 313,
      "##Е": 314,
      "##Я": 315,
      "##М": 316,
      "##x": 317,
      "##ó": 318,
      "##Y": 319,
      "##Z": 320,
      "##@": 321,
      "##Ш": 322,
      "##I": 323,
      "##N": 324,
      "##₵": 325,
      "##♗": 326,
      "##)": 327,
      "##-": 328,
      "##Щ": 329,
      "##Ы": 330,
      "##p": 331,
      "##Э": 332,
      "##_": 333,
      "##Г": 334,
      "##T": 335,
      "##L": 336,
      "##Й": 337,
      "##:": 338,
      "##V": 339,
      "##—": 340,
      "##Q": 341,
      "##Ю": 342,
      "##U": 343,
      "##Х": 344,
      "##​": 345,
      "##!": 346,
      "##В": 347,
      "##ú": 348,
      "##Ц": 349,
      "##>": 350,
      "##Ф": 351,
      "##X": 352,
      "##社": 353,
      "##á": 354,
      "##ē": 355,
      "##(": 356,
      "##ä": 357,
      "##қ": 358,
      "##j": 359,
      "##­": 360,
      "##*": 361,
      "##З": 362,
      "##W": 363,
      "##&": 364,
      "##”": 365,
      "##H": 366,
      "##F": 367,
      "##і": 368,
      "##♘": 369,
      "##«": 370,
      "##Ú": 371,
      "###": 372,
      "##q": 373,
      "##ü": 374,
      "##то": 375,
      "##ом": 376,
      "не": 377,
      "##ть": 378,
      "Том": 379,
      "##ал": 380,
      "по": 381,
      "##ен": 382,
      "##ри": 383,
      "##ет": 384,
      "##ел": 385,
      "##но": 386,
      "##ро": 387,
      "##ст": 388,
      "что": 389,
      "на": 390,
      "##ра": 391,
      "##го": 392,
      "##на": 393,
      "##во": 394,
      "##ся": 395,
      "##ол": 396,
      "##ка": 397,
      "##ил": 398,
      "##ер": 399,
      "##ит": 400,
      "##ать": 401,
      "##не": 402,
      "##ни": 403,
      "##ем": 404,
      "это": 405,
      "бы": 406,
      "##ко": 407,
      "##да": 408,
      "за": 409,
      "##ас": 410,
      "##ли": 411,
      "##ож": 412,
      "хо": 413,
      "##ак": 414,
      "##ва": 415,
      "##ог": 416,
      "##еб": 417,
      "##сь": 418,
      "вы": 419,
      "##ны": 420,
      "##ам": 421,
      "##ед": 422,
      "##ти": 423,
      "##де": 424,
      "##дел": 425,
      "ни": 426,
      "##ла": 427,
      "ра": 428,
      "##шь": 429,
      "##каз": 430,
      "про": 431,
      "Ты": 432,
      "го": 433,
      "##уд": 434,
      "##ов": 435,
      "##ить": 436,
      "##оль": 437,
      "##ки": 438,
      "ты": 439,
      "Мэ": 440,
      "Мэри": 441,
      "##от": 442,
      "при": 443,
      "##ма": 444,
      "мне": 445,
      "##ло": 446,
      "от": 447,
      "зна": 448,
      "##еня": 449,
      "Вы": 450,
      "##ей": 451,
      "##об": 452,
      "вс": 453,
      "##од": 454,
      "сказ": 455,
      "Он": 456,
      "меня": 457,
      "теб": 458,
      "##ста": 459,
      "##ру": 460,
      "##ени": 461,
      "##ень": 462,
      "##его": 463,
      "##сто": 464,
      "##ре": 465,
      "Это": 466,
      "##те": 467,
      "##ну": 468,
      "об": 469,
      "Тома": 470,
      "##али": 471,
      "##оч": 472,
      "##ешь": 473,
      "##рав": 474,
      "##ой": 475,
      "##ше": 476,
      "##ку": 477,
      "##вори": 478,
      "##ня": 479,
      "##бы": 480,
      "##та": 481,
      "сдел": 482,
      "Мы": 483,
      "хоч": 484,
      "ко": 485,
      "##ши": 486,
      "##сть": 487,
      "сказал": 488,
      "##ля": 489,
      "##уч": 490,
      "ду": 491,
      "Не": 492,
      "##ите": 493,
      "сво": 494,
      "то": 495,
      "сл": 496,
      "##уж": 497,
      "##ви": 498,
      "##ди": 499,
      "из": 500,
      "Она": 501,
      "как": 502,
      "пом": 503,
      "во": 504,
      "##ете": 505,
      "дел": 506,
      "##ему": 507,
      "его": 508,
      "Тому": 509,
      "говори": 510,
      "##ез": 511,
      "раз": 512,
      "чтобы": 513,
      "мож": 514,
      "##тел": 515,
      "так": 516,
      "##му": 517,
      "##ми": 518,
      "##до": 519,
      "был": 520,
      "лю": 521,
      "сп": 522,
      "оч": 523,
      "буд": 524,
      "мог": 525,
      "##ду": 526,
      "##ес": 527,
      "ви": 528,
      "##олько": 529,
      "##ры": 530,
      "мо": 531,
      "##ёт": 532,
      "##ест": 533,
      "до": 534,
      "##гда": 535,
      "очень": 536,
      "##ком": 537,
      "##ала": 538,
      "##ного": 539,
      "он": 540,
      "тебя": 541,
      "##огда": 542,
      "Мне": 543,
      "##рос": 544,
      "##ится": 545,
      "тебе": 546,
      "##или": 547,
      "дол": 548,
      "##маю": 549,
      "##же": 550,
      "ка": 551,
      "боль": 552,
      "##бот": 553,
      "##ный": 554,
      "нуж": 555,
      "было": 556,
      "##уп": 557,
      "люб": 558,
      "##ает": 559,
      "##ме": 560,
      "знаю": 561,
      "пер": 562,
      "##чи": 563,
      "##ай": 564,
      "со": 565,
      "вам": 566,
      "ст": 567,
      "##ход": 568,
      "все": 569,
      "##лю": 570,
      "есть": 571,
      "##вер": 572,
      "##ски": 573,
      "##нц": 574,
      "дом": 575,
      "работ": 576,
      "её": 577,
      "хочу": 578,
      "ещ": 579,
      "под": 580,
      "##вать": 581,
      "хотел": 582,
      "##ной": 583,
      "##ят": 584,
      "##им": 585,
      "дру": 586,
      "зн": 587,
      "всё": 588,
      "пол": 589,
      "По": 590,
      "долж": 591,
      "##ис": 592,
      "ещё": 593,
      "##ред": 594,
      "##ител": 595,
      "Что": 596,
      "##ют": 597,
      "##рем": 598,
      "соб": 599,
      "##сл": 600,
      "##ств": 601,
      "##ут": 602,
      "##по": 603,
      "##кой": 604,
      "но": 605,
      "##жи": 606,
      "На": 607,
      "##ьно": 608,
      "##ется": 609,
      "##сти": 610,
      "Поч": 611,
      "##буд": 612,
      "##ение": 613,
      "##десь": 614,
      "##ёл": 615,
      "сделать": 616,
      "мы": 617,
      "##ый": 618,
      "см": 619,
      "Они": 620,
      "##колько": 621,
      "жи": 622,
      "##сли": 623,
      "Почему": 624,
      "ли": 625,
      "##ги": 626,
      "вас": 627,
      "нико": 628,
      "##еч": 629,
      "ма": 630,
      "Как": 631,
      "##га": 632,
      "нас": 633,
      "##ке": 634,
      "ему": 635,
      "Бо": 636,
      "##ту": 637,
      "##йти": 638,
      "##ём": 639,
      "здесь": 640,
      "хоро": 641,
      "сто": 642,
      "##ан": 643,
      "рас": 644,
      "##щи": 645,
      "##вал": 646,
      "когда": 647,
      "##ря": 648,
      "этого": 649,
      "будет": 650,
      "могу": 651,
      "##уй": 652,
      "знал": 653,
      "##будь": 654,
      "##ую": 655,
      "никогда": 656,
      "нужно": 657,
      "##гра": 658,
      "##ила": 659,
      "Босто": 660,
      "поз": 661,
      "врем": 662,
      "##уз": 663,
      "больше": 664,
      "##став": 665,
      "##си": 666,
      "##ех": 667,
      "им": 668,
      "сам": 669,
      "##аль": 670,
      "##сп": 671,
      "поп": 672,
      "нет": 673,
      "нрав": 674,
      "прав": 675,
      "##ве": 676,
      "нам": 677,
      "надо": 678,
      "##вай": 679,
      "думаю": 680,
      "##ился": 681,
      "##юсь": 682,
      "уже": 683,
      "Томом": 684,
      "##ль": 685,
      "тво": 686,
      "##егод": 687,
      "##очь": 688,
      "##егодня": 689,
      "этом": 690,
      "ком": 691,
      "нибудь": 692,
      "##ебе": 693,
      "ре": 694,
      "##ци": 695,
      "##ения": 696,
      "од": 697,
      "##алуй": 698,
      "##ек": 699,
      "видел": 700,
      "##ча": 701,
      "##аш": 702,
      "та": 703,
      "день": 704,
      "##вет": 705,
      "пред": 706,
      "##вы": 707,
      "делать": 708,
      "быть": 709,
      "##алуйста": 710,
      "##нь": 711,
      "##ные": 712,
      "пла": 713,
      "##ался": 714,
      "##шёл": 715,
      "она": 716,
      "##ось": 717,
      "##чего": 718,
      "для": 719,
      "##ранц": 720,
      "куп": 721,
      "час": 722,
      "##ев": 723,
      "ста": 724,
      "##ар": 725,
      "поч": 726,
      "##тер": 727,
      "много": 728,
      "##час": 729,
      "##ная": 730,
      "##он": 731,
      "##ты": 732,
      "сделал": 733,
      "была": 734,
      "##аться": 735,
      "##тра": 736,
      "ей": 737,
      "хочет": 738,
      "может": 739,
      "##мал": 740,
      "##бо": 741,
      "##каж": 742,
      "Да": 743,
      "##ранцуз": 744,
      "##ась": 745,
      "##уш": 746,
      "##за": 747,
      "##ег": 748,
      "пож": 749,
      "##уда": 750,
      "вер": 751,
      "хорош": 752,
      "##чно": 753,
      "пого": 754,
      "да": 755,
      "три": 756,
      "##ера": 757,
      "##иться": 758,
      "француз": 759,
      "пи": 760,
      "##ца": 761,
      "##зы": 762,
      "##се": 763,
      "сегодня": 764,
      "##дин": 765,
      "##ена": 766,
      "нравится": 767,
      "##ться": 768,
      "кото": 769,
      "кто": 770,
      "ничего": 771,
      "чем": 772,
      "##ейчас": 773,
      "##тов": 774,
      "##аю": 775,
      "кни": 776,
      "их": 777,
      "##стр": 778,
      "только": 779,
      "знает": 780,
      "##нов": 781,
      "Ка": 782,
      "маши": 783,
      "##елов": 784,
      "говорит": 785,
      "##ное": 786,
      "расс": 787,
      "##дёт": 788,
      "луч": 789,
      "##нул": 790,
      "##ебя": 791,
      "##ным": 792,
      "##ор": 793,
      "##кры": 794,
      "ве": 795,
      "нап": 796,
      "сказать": 797,
      "Кто": 798,
      "должен": 799,
      "пре": 800,
      "##ая": 801,
      "##ыш": 802,
      "Ду": 803,
      "##кол": 804,
      "##гу": 805,
      "##ство": 806,
      "помочь": 807,
      "##ожд": 808,
      "##ский": 809,
      "##их": 810,
      "##из": 811,
      "##ром": 812,
      "##втра": 813,
      "##ожно": 814,
      "поговори": 815,
      "уб": 816,
      "оп": 817,
      "##жд": 818,
      "посл": 819,
      "##шло": 820,
      "сов": 821,
      "##шком": 822,
      "воз": 823,
      "него": 824,
      "же": 825,
      "##кто": 826,
      "##оже": 827,
      "##ять": 828,
      "случ": 829,
      "ру": 830,
      "просто": 831,
      "##ира": 832,
      "помог": 833,
      "время": 834,
      "Тебе": 835,
      "сейчас": 836,
      "Ни": 837,
      "##ние": 838,
      "эти": 839,
      "Вам": 840,
      "##ели": 841,
      "след": 842,
      "Когда": 843,
      "себя": 844,
      "##ров": 845,
      "думал": 846,
      "##бл": 847,
      "##ён": 848,
      "##кая": 849,
      "пос": 850,
      "были": 851,
      "всегда": 852,
      "##лас": 853,
      "За": 854,
      "без": 855,
      "##иль": 856,
      "##еп": 857,
      "если": 858,
      "##енно": 859,
      "кра": 860,
      "##ос": 861,
      "зап": 862,
      "ум": 863,
      "вз": 864,
      "##том": 865,
      "Если": 866,
      "##еж": 867,
      "##нима": 868,
      "##прос": 869,
      "##дал": 870,
      "Где": 871,
      "Давай": 872,
      "##лишком": 873,
      "##мот": 874,
      "Сколько": 875,
      "##стро": 876,
      "##ья": 877,
      "жив": 878,
      "##ник": 879,
      "стра": 880,
      "##олод": 881,
      "##чит": 882,
      "хорошо": 883,
      "позво": 884,
      "Про": 885,
      "слишком": 886,
      "##ном": 887,
      "пожалуйста": 888,
      "##ял": 889,
      "реш": 890,
      "дума": 891,
      "ми": 892,
      "оста": 893,
      "##еле": 894,
      "завтра": 895,
      "лучше": 896,
      "##чера": 897,
      "##кое": 898,
      "увер": 899,
      "челов": 900,
      "они": 901,
      "##мен": 902,
      "##илось": 903,
      "уч": 904,
      "друг": 905,
      "где": 906,
      "хот": 907,
      "поговорить": 908,
      "дома": 909,
      "##пу": 910,
      "Нам": 911,
      "сказала": 912,
      "##мо": 913,
      "##раз": 914,
      "ней": 915,
      "##гля": 916,
      "##росил": 917,
      "там": 918,
      "##вает": 919,
      "чу": 920,
      "Бостоне": 921,
      "род": 922,
      "##нтер": 923,
      "хочешь": 924,
      "##вор": 925,
      "этот": 926,
      "##кажи": 927,
      "ним": 928,
      "##ерь": 929,
      "лет": 930,
      "##нить": 931,
      "Бостон": 932,
      "бо": 933,
      "##бу": 934,
      "##ительно": 935,
      "заня": 936,
      "нем": 937,
      "ку": 938,
      "эту": 939,
      "ид": 940,
      "Мо": 941,
      "ме": 942,
      "язы": 943,
      "##ных": 944,
      "комна": 945,
      "буду": 946,
      "##ды": 947,
      "игра": 948,
      "или": 949,
      "##деть": 950,
      "веч": 951,
      "ваш": 952,
      "рассказ": 953,
      "теле": 954,
      "уви": 955,
      "##обой": 956,
      "один": 957,
      "##жу": 958,
      "тр": 959,
      "тобой": 960,
      "вопрос": 961,
      "Думаю": 962,
      "жен": 963,
      "мной": 964,
      "##па": 965,
      "##нг": 966,
      "##кого": 967,
      "##дит": 968,
      "##ню": 969,
      "наш": 970,
      "##ствен": 971,
      "ва": 972,
      "говорить": 973,
      "должны": 974,
      "слыш": 975,
      "нес": 976,
      "дет": 977,
      "пойти": 978,
      "ост": 979,
      "говорил": 980,
      "нач": 981,
      "свою": 982,
      "##ния": 983,
      "##кон": 984,
      "жиз": 985,
      "мой": 986,
      "От": 987,
      "Во": 988,
      "##нтерес": 989,
      "пу": 990,
      "##ере": 991,
      "пой": 992,
      "##рат": 993,
      "школ": 994,
      "##лож": 995,
      "##ело": 996,
      "произ": 997,
      "##над": 998,
      "собира": 999,
      "пы": 1000,
      "##дать": 1001,
      "##вари": 1002,
      "бол": 1003,
      "домой": 1004,
      "##ует": 1005,
      "##ле": 1006,
      "уверен": 1007,
      "##ков": 1008,
      "Все": 1009,
      "вчера": 1010,
      "бес": 1011,
      "почему": 1012,
      "можешь": 1013,
      "##ба": 1014,
      "##ало": 1015,
      "пере": 1016,
      "##ери": 1017,
      "##зна": 1018,
      "##итель": 1019,
      "##нее": 1020,
      "времени": 1021,
      "знаешь": 1022,
      "вод": 1023,
      "любит": 1024,
      "работу": 1025,
      "##вно": 1026,
      "##со": 1027,
      "дей": 1028,
      "##ниц": 1029,
      "Ав": 1030,
      "##аз": 1031,
      "##ще": 1032,
      "люблю": 1033,
      "##айте": 1034,
      "вст": 1035,
      "смот": 1036,
      "##кажите": 1037,
      "си": 1038,
      "Мож": 1039,
      "##ами": 1040,
      "##част": 1041,
      "пробл": 1042,
      "неё": 1043,
      "поб": 1044,
      "##зи": 1045,
      "получ": 1046,
      "смог": 1047,
      "Пож": 1048,
      "де": 1049,
      "гол": 1050,
      "##ним": 1051,
      "оши": 1052,
      "##прав": 1053,
      "поех": 1054,
      "разго": 1055,
      "су": 1056,
      "помо": 1057,
      "па": 1058,
      "немного": 1059,
      "##ший": 1060,
      "свой": 1061,
      "##рить": 1062,
      "которы": 1063,
      "исп": 1064,
      "##рал": 1065,
      "##ную": 1066,
      "##нил": 1067,
      "ответ": 1068,
      "идти": 1069,
      "поня": 1070,
      "##нии": 1071,
      "том": 1072,
      "##деюсь": 1073,
      "##нгли": 1074,
      "этой": 1075,
      "свои": 1076,
      "##люч": 1077,
      "ав": 1078,
      "Пожалуйста": 1079,
      "сло": 1080,
      "два": 1081,
      "чего": 1082,
      "пох": 1083,
      "французски": 1084,
      "действ": 1085,
      "забы": 1086,
      "хотите": 1087,
      "##ото": 1088,
      "##ньше": 1089,
      "##дно": 1090,
      "##страли": 1091,
      "##кра": 1092,
      "себе": 1093,
      "купил": 1094,
      "можете": 1095,
      "##ие": 1096,
      "##вой": 1097,
      "часто": 1098,
      "Австрали": 1099,
      "##реть": 1100,
      "остав": 1101,
      "недел": 1102,
      "тоже": 1103,
      "чув": 1104,
      "знать": 1105,
      "##енег": 1106,
      "##можно": 1107,
      "Мой": 1108,
      "уме": 1109,
      "##ились": 1110,
      "зам": 1111,
      "денег": 1112,
      "##ель": 1113,
      "друз": 1114,
      "вед": 1115,
      "своей": 1116,
      "туда": 1117,
      "##ается": 1118,
      "можем": 1119,
      "действительно": 1120,
      "##яс": 1121,
      "##стоя": 1122,
      "При": 1123,
      "##есте": 1124,
      "##юда": 1125,
      "##чем": 1126,
      "машину": 1127,
      "чит": 1128,
      "##ерж": 1129,
      "##лох": 1130,
      "перед": 1131,
      "знаете": 1132,
      "послед": 1133,
      "##ах": 1134,
      "##кий": 1135,
      "откры": 1136,
      "ис": 1137,
      "бу": 1138,
      "##ещ": 1139,
      "этим": 1140,
      "##ат": 1141,
      "проблем": 1142,
      "\".": 1143,
      "сог": 1144,
      "##вест": 1145,
      "дела": 1146,
      "##ёшь": 1147,
      "##частли": 1148,
      "ос": 1149,
      "предлож": 1150,
      "##тель": 1151,
      "име": 1152,
      "##илась": 1153,
      "выгля": 1154,
      "нов": 1155,
      "ок": 1156,
      "человек": 1157,
      "##есть": 1158,
      "сы": 1159,
      "вами": 1160,
      "разговари": 1161,
      "Этот": 1162,
      "##ёр": 1163,
      "##лы": 1164,
      "##род": 1165,
      "##ишь": 1166,
      "Эта": 1167,
      "##ались": 1168,
      "##конч": 1169,
      "##ступ": 1170,
      "Никто": 1171,
      "##фи": 1172,
      "доро": 1173,
      "дал": 1174,
      "##ец": 1175,
      "##нглий": 1176,
      "Скажи": 1177,
      "чём": 1178,
      "раньше": 1179,
      "##йте": 1180,
      "больш": 1181,
      "##роб": 1182,
      "##ент": 1183,
      "##верь": 1184,
      "иг": 1185,
      "##пас": 1186,
      "##ран": 1187,
      "пар": 1188,
      "книгу": 1189,
      "такой": 1190,
      "гла": 1191,
      "ско": 1192,
      "##рел": 1193,
      "##ад": 1194,
      "##тому": 1195,
      "того": 1196,
      "##чес": 1197,
      "доб": 1198,
      "дев": 1199,
      "##нова": 1200,
      "ход": 1201,
      "дов": 1202,
      "сем": 1203,
      "##шла": 1204,
      "счастли": 1205,
      "##цать": 1206,
      "##ером": 1207,
      "##нут": 1208,
      "готов": 1209,
      "Дж": 1210,
      "Его": 1211,
      "ут": 1212,
      "соглас": 1213,
      "тем": 1214,
      "них": 1215,
      "##ются": 1216,
      "англий": 1217,
      "##ходит": 1218,
      "говор": 1219,
      "##вол": 1220,
      "всего": 1221,
      "##олж": 1222,
      "##ое": 1223,
      "##еперь": 1224,
      "сколько": 1225,
      "##сем": 1226,
      "правда": 1227,
      "ошиб": 1228,
      "##ний": 1229,
      "потер": 1230,
      "прос": 1231,
      "##езд": 1232,
      "стоит": 1233,
      "Надеюсь": 1234,
      "придёт": 1235,
      "каж": 1236,
      "чер": 1237,
      "найти": 1238,
      "##росить": 1239,
      "мол": 1240,
      "несколько": 1241,
      "встре": 1242,
      "##ней": 1243,
      "деньги": 1244,
      "следую": 1245,
      "##вая": 1246,
      "выи": 1247,
      "##еди": 1248,
      "вол": 1249,
      "сказали": 1250,
      "краси": 1251,
      "Давайте": 1252,
      "кар": 1253,
      "##ёте": 1254,
      "года": 1255,
      "почти": 1256,
      "##ило": 1257,
      "вра": 1258,
      "ними": 1259,
      "пока": 1260,
      "кажд": 1261,
      "плох": 1262,
      "труд": 1263,
      "случилось": 1264,
      "##ены": 1265,
      "скаж": 1266,
      "##ью": 1267,
      "##рож": 1268,
      "напис": 1269,
      "пон": 1270,
      "Вас": 1271,
      "пись": 1272,
      "##раж": 1273,
      "даже": 1274,
      "беспо": 1275,
      "##нулся": 1276,
      "##рит": 1277,
      "##рил": 1278,
      "##дей": 1279,
      "посмот": 1280,
      "останов": 1281,
      "##дите": 1282,
      "##стрет": 1283,
      "##фе": 1284,
      "понрав": 1285,
      "##шли": 1286,
      "Скажите": 1287,
      "довер": 1288,
      "Ко": 1289,
      "купить": 1290,
      "авто": 1291,
      "##зов": 1292,
      "##куда": 1293,
      "пор": 1294,
      "##тив": 1295,
      "объ": 1296,
      "##ности": 1297,
      "##ела": 1298,
      "##ция": 1299,
      "пов": 1300,
      "дверь": 1301,
      "живёт": 1302,
      "##пи": 1303,
      "поехать": 1304,
      "##це": 1305,
      "моя": 1306,
      "умер": 1307,
      "##ваю": 1308,
      "##вали": 1309,
      "муж": 1310,
      "кон": 1311,
      "ведь": 1312,
      "встрет": 1313,
      "##ните": 1314,
      "##нимаю": 1315,
      "интерес": 1316,
      "слышал": 1317,
      "сест": 1318,
      "нами": 1319,
      "Моя": 1320,
      "##ибо": 1321,
      "##ари": 1322,
      "##кому": 1323,
      "##вый": 1324,
      "французский": 1325,
      "зво": 1326,
      "##поз": 1327,
      "##пол": 1328,
      "пыт": 1329,
      "слова": 1330,
      "##ключ": 1331,
      "##рой": 1332,
      "уст": 1333,
      "##ильно": 1334,
      "телеф": 1335,
      "законч": 1336,
      "##еты": 1337,
      "##чина": 1338,
      "бра": 1339,
      "пл": 1340,
      "##ятся": 1341,
      "ску": 1342,
      "помощ": 1343,
      "##нал": 1344,
      "##вод": 1345,
      "##нок": 1346,
      "пода": 1347,
      "никто": 1348,
      "##вя": 1349,
      "##са": 1350,
      "##ряд": 1351,
      "##тельно": 1352,
      "##ерш": 1353,
      "всех": 1354,
      "сме": 1355,
      "##нави": 1356,
      "моей": 1357,
      "произо": 1358,
      "дожд": 1359,
      "жизнь": 1360,
      "работает": 1361,
      "##динствен": 1362,
      "сюда": 1363,
      "показ": 1364,
      "##ходить": 1365,
      "иде": 1366,
      "##рок": 1367,
      "Сегодня": 1368,
      "##нуть": 1369,
      "могли": 1370,
      "ту": 1371,
      "Вс": 1372,
      "слуш": 1373,
      "попросил": 1374,
      "вечером": 1375,
      "##бол": 1376,
      "нужна": 1377,
      "комнате": 1378,
      "##ехал": 1379,
      "счит": 1380,
      "##ращ": 1381,
      "отец": 1382,
      "друзья": 1383,
      "твой": 1384,
      "##рь": 1385,
      "ненави": 1386,
      "пришёл": 1387,
      "##рова": 1388,
      "кого": 1389,
      "делает": 1390,
      "реб": 1391,
      "Пол": 1392,
      "ночь": 1393,
      "можно": 1394,
      "родител": 1395,
      "».": 1396,
      "кофе": 1397,
      "##вл": 1398,
      "собак": 1399,
      "соверш": 1400,
      "##стато": 1401,
      "обы": 1402,
      "опоз": 1403,
      "##ека": 1404,
      "съ": 1405,
      "науч": 1406,
      "работа": 1407,
      "сделали": 1408,
      "##еть": 1409,
      "Можно": 1410,
      "##месте": 1411,
      "##лу": 1412,
      "ры": 1413,
      "##рес": 1414,
      "Под": 1415,
      "фото": 1416,
      "Австралии": 1417,
      "вместе": 1418,
      "уж": 1419,
      "мои": 1420,
      "каждый": 1421,
      "знали": 1422,
      "женщи": 1423,
      "##би": 1424,
      "##нет": 1425,
      "году": 1426,
      "##ешься": 1427,
      "##щий": 1428,
      "стар": 1429,
      "автобу": 1430,
      "своего": 1431,
      "думаешь": 1432,
      "##зад": 1433,
      "Меня": 1434,
      "##ность": 1435,
      "единствен": 1436,
      "##ум": 1437,
      "##ваться": 1438,
      "Зачем": 1439,
      "холод": 1440,
      "##ват": 1441,
      "куда": 1442,
      "##ые": 1443,
      "##ым": 1444,
      "Вот": 1445,
      "##мер": 1446,
      "##ёз": 1447,
      "тер": 1448,
      "назад": 1449,
      "цвет": 1450,
      "школу": 1451,
      "##статочно": 1452,
      "наход": 1453,
      "##стви": 1454,
      "быстро": 1455,
      "жена": 1456,
      "уди": 1457,
      "рад": 1458,
      "##ства": 1459,
      "##пор": 1460,
      "произошло": 1461,
      "##шу": 1462,
      "?\"": 1463,
      "работать": 1464,
      "ин": 1465,
      "##нец": 1466,
      "##кус": 1467,
      "телеви": 1468,
      "правду": 1469,
      "наде": 1470,
      "гор": 1471,
      "##нял": 1472,
      "##ции": 1473,
      "##ено": 1474,
      "##чу": 1475,
      "##ётся": 1476,
      "Воз": 1477,
      "##рую": 1478,
      "##бли": 1479,
      "объяс": 1480,
      "помощь": 1481,
      "##вое": 1482,
      "через": 1483,
      "##ова": 1484,
      "##дешь": 1485,
      "язык": 1486,
      "девуш": 1487,
      "пошёл": 1488,
      "##дель": 1489,
      "скоро": 1490,
      "##ому": 1491,
      "собой": 1492,
      "##альчи": 1493,
      "гру": 1494,
      "детей": 1495,
      "побед": 1496,
      "отв": 1497,
      "##зя": 1498,
      "##ака": 1499,
      "##воль": 1500,
      "после": 1501,
      "##ин": 1502,
      "##ита": 1503,
      "сер": 1504,
      "##ям": 1505,
      "##дцать": 1506,
      "знаком": 1507,
      "жизни": 1508,
      "Об": 1509,
      "конц": 1510,
      "важ": 1511,
      "тот": 1512,
      "понимаю": 1513,
      "сол": 1514,
      "спать": 1515,
      "спросил": 1516,
      "чувств": 1517,
      "людей": 1518,
      "плани": 1519,
      "##шим": 1520,
      "##ее": 1521,
      "##щест": 1522,
      "письмо": 1523,
      "Из": 1524,
      "ус": 1525,
      "##крас": 1526,
      "ез": 1527,
      "бог": 1528,
      "##ьте": 1529,
      "меся": 1530,
      "##алась": 1531,
      "муз": 1532,
      "кол": 1533,
      "##пуст": 1534,
      "телевиз": 1535,
      "люди": 1536,
      "ждать": 1537,
      "Дума": 1538,
      "над": 1539,
      "##ках": 1540,
      "##дишь": 1541,
      "занят": 1542,
      "##лаго": 1543,
      "пра": 1544,
      "кое": 1545,
      "изуч": 1546,
      "беспоко": 1547,
      "забыл": 1548,
      "одна": 1549,
      "остаться": 1550,
      "ба": 1551,
      "поду": 1552,
      "всем": 1553,
      "моему": 1554,
      "##ови": 1555,
      "полож": 1556,
      "следует": 1557,
      "играть": 1558,
      "вес": 1559,
      "Какой": 1560,
      "##лом": 1561,
      "нашёл": 1562,
      "##вается": 1563,
      "делал": 1564,
      "совсем": 1565,
      "подожд": 1566,
      "Всё": 1567,
      "##алось": 1568,
      "дум": 1569,
      "верну": 1570,
      "##шел": 1571,
      "##вайте": 1572,
      "##яд": 1573,
      "хотела": 1574,
      "понима": 1575,
      "##мотри": 1576,
      "смож": 1577,
      "поли": 1578,
      "приг": 1579,
      "Спас": 1580,
      "выход": 1581,
      "##ых": 1582,
      "##ении": 1583,
      "##нять": 1584,
      "своих": 1585,
      "поне": 1586,
      "проис": 1587,
      "увидеть": 1588,
      "##цу": 1589,
      "##гие": 1590,
      "исто": 1591,
      "решил": 1592,
      "##лет": 1593,
      "ули": 1594,
      "##ок": 1595,
      "прод": 1596,
      "запла": 1597,
      "##тим": 1598,
      "тут": 1599,
      "уз": 1600,
      "навер": 1601,
      "пове": 1602,
      "##руж": 1603,
      "измен": 1604,
      "моего": 1605,
      "##графи": 1606,
      "потому": 1607,
      "сдела": 1608,
      "снова": 1609,
      "неп": 1610,
      "##лад": 1611,
      "застав": 1612,
      "две": 1613,
      "##ском": 1614,
      "##мы": 1615,
      "кажется": 1616,
      "##дём": 1617,
      "закры": 1618,
      "##она": 1619,
      "##езж": 1620,
      "мал": 1621,
      "##ск": 1622,
      "##вым": 1623,
      "стран": 1624,
      "Буд": 1625,
      "следующ": 1626,
      "эта": 1627,
      "друго": 1628,
      "филь": 1629,
      "##оро": 1630,
      "умеет": 1631,
      "дождь": 1632,
      "##ша": 1633,
      "Теперь": 1634,
      "точ": 1635,
      "деся": 1636,
      "Спасибо": 1637,
      "##ву": 1638,
      "хороший": 1639,
      "усл": 1640,
      "ног": 1641,
      "ех": 1642,
      "##асс": 1643,
      "недо": 1644,
      "вп": 1645,
      "уп": 1646,
      "##цы": 1647,
      "##але": 1648,
      "най": 1649,
      "крас": 1650,
      "понедель": 1651,
      "##кан": 1652,
      "Раз": 1653,
      "##ными": 1654,
      "ед": 1655,
      "жить": 1656,
      "возможно": 1657,
      "##ыт": 1658,
      "зов": 1659,
      "поезд": 1660,
      "##тить": 1661,
      "семь": 1662,
      "пес": 1663,
      "видели": 1664,
      "##ками": 1665,
      "вооб": 1666,
      "выигра": 1667,
      "Го": 1668,
      "##оз": 1669,
      "##емся": 1670,
      "прийти": 1671,
      "стал": 1672,
      "твоя": 1673,
      "обычно": 1674,
      "Откуда": 1675,
      "которые": 1676,
      "Её": 1677,
      "##вля": 1678,
      "рано": 1679,
      "довол": 1680,
      "имя": 1681,
      "Нет": 1682,
      "дер": 1683,
      "нужен": 1684,
      "друга": 1685,
      "сне": 1686,
      "внима": 1687,
      "усп": 1688,
      "##лись": 1689,
      "отправ": 1690,
      "##сип": 1691,
      "##елосип": 1692,
      "прост": 1693,
      "##роде": 1694,
      "То": 1695,
      "ищ": 1696,
      "прошло": 1697,
      "##ких": 1698,
      "Ваш": 1699,
      "Хот": 1700,
      "пытался": 1701,
      "##ятно": 1702,
      "Лю": 1703,
      "зада": 1704,
      "обещ": 1705,
      "велосип": 1706,
      "##дим": 1707,
      "мою": 1708,
      "сум": 1709,
      "ожи": 1710,
      "сооб": 1711,
      "##лько": 1712,
      "выб": 1713,
      "своё": 1714,
      "минут": 1715,
      "пришло": 1716,
      "пыта": 1717,
      "поку": 1718,
      "весь": 1719,
      "собираюсь": 1720,
      "##ением": 1721,
      "молод": 1722,
      "пря": 1723,
      "потерял": 1724,
      "##еш": 1725,
      "изви": 1726,
      "нос": 1727,
      "истори": 1728,
      "##той": 1729,
      "##че": 1730,
      "утром": 1731,
      "говорю": 1732,
      "знаем": 1733,
      "##егко": 1734,
      "##бод": 1735,
      "##ерт": 1736,
      "##ших": 1737,
      "будешь": 1738,
      "музы": 1739,
      "эк": 1740,
      "думает": 1741,
      "брат": 1742,
      "##бло": 1743,
      "##чёт": 1744,
      "##дает": 1745,
      "##вые": 1746,
      "место": 1747,
      "уйти": 1748,
      "Япо": 1749,
      "##тия": 1750,
      "видеть": 1751,
      "любим": 1752,
      "зах": 1753,
      "обе": 1754,
      "##цию": 1755,
      "зовут": 1756,
      "##ского": 1757,
      "помож": 1758,
      "будем": 1759,
      "фотографи": 1760,
      "пост": 1761,
      "Можешь": 1762,
      "##тя": 1763,
      "##нтересно": 1764,
      "прош": 1765,
      "голод": 1766,
      "##рее": 1767,
      "##рали": 1768,
      "позна": 1769,
      "дня": 1770,
      "вып": 1771,
      "##етесь": 1772,
      "ди": 1773,
      "поед": 1774,
      "##ению": 1775,
      "##мери": 1776,
      "##зу": 1777,
      "##кото": 1778,
      "какой": 1779,
      "ад": 1780,
      "кем": 1781,
      "пять": 1782,
      "высо": 1783,
      "такое": 1784,
      "узна": 1785,
      "##имо": 1786,
      "комп": 1787,
      "говорили": 1788,
      "говорите": 1789,
      "замуж": 1790,
      "##овать": 1791,
      "Дай": 1792,
      "ужи": 1793,
      "##ести": 1794,
      "ужас": 1795,
      "гра": 1796,
      "спас": 1797,
      "который": 1798,
      "Боль": 1799,
      "Мари": 1800,
      "Интересно": 1801,
      "##рые": 1802,
      "думаете": 1803,
      "##сторож": 1804,
      "##рет": 1805,
      "##вед": 1806,
      "##вают": 1807,
      "достаточно": 1808,
      "##гази": 1809,
      "предложение": 1810,
      "##едл": 1811,
      "ехать": 1812,
      "Хоч": 1813,
      "Просто": 1814,
      "познаком": 1815,
      "долго": 1816,
      "верн": 1817,
      "последний": 1818,
      "книги": 1819,
      "трудно": 1820,
      "ника": 1821,
      "пис": 1822,
      "глаза": 1823,
      "Ему": 1824,
      "необ": 1825,
      "свя": 1826,
      "отказ": 1827,
      "должно": 1828,
      "рассказал": 1829,
      "##чест": 1830,
      "рассказы": 1831,
      "похож": 1832,
      "ск": 1833,
      "телевизор": 1834,
      "##ама": 1835,
      "сообщ": 1836,
      "ушёл": 1837,
      "планиру": 1838,
      "##лагода": 1839,
      "пора": 1840,
      "поль": 1841,
      "книга": 1842,
      "велосипед": 1843,
      "##ьют": 1844,
      "##ровать": 1845,
      "город": 1846,
      "##ода": 1847,
      "никому": 1848,
      "вообще": 1849,
      "пришлось": 1850,
      "этому": 1851,
      "##итесь": 1852,
      "##ир": 1853,
      "кош": 1854,
      "неправ": 1855,
      "оба": 1856,
      "Поз": 1857,
      "дерев": 1858,
      "Так": 1859,
      "мальчи": 1860,
      "мно": 1861,
      "##нес": 1862,
      "##ницу": 1863,
      "уго": 1864,
      "против": 1865,
      "говорят": 1866,
      "долла": 1867,
      "сделала": 1868,
      "##ально": 1869,
      "сос": 1870,
      "отно": 1871,
      "такая": 1872,
      "Какая": 1873,
      "своим": 1874,
      "##ге": 1875,
      "часов": 1876,
      "находится": 1877,
      "вой": 1878,
      "силь": 1879,
      "нель": 1880,
      "неделе": 1881,
      "нельзя": 1882,
      "поряд": 1883,
      "гото": 1884,
      "магази": 1885,
      "##ерьёз": 1886,
      "Та": 1887,
      "рожд": 1888,
      "##ина": 1889,
      "##кать": 1890,
      "заним": 1891,
      "проблема": 1892,
      "ном": 1893,
      "##шие": 1894,
      "Куда": 1895,
      "отли": 1896,
      "свет": 1897,
      "тех": 1898,
      "отс": 1899,
      "опас": 1900,
      "сделает": 1901,
      "ки": 1902,
      "сделаю": 1903,
      "оде": 1904,
      "##нит": 1905,
      "воды": 1906,
      "происходит": 1907,
      "бли": 1908,
      "комнату": 1909,
      "##луп": 1910,
      "##рое": 1911,
      "хотим": 1912,
      "##ав": 1913,
      "##вала": 1914,
      "##ений": 1915,
      "школе": 1916,
      "продолж": 1917,
      "деле": 1918,
      "Бы": 1919,
      "Эти": 1920,
      "Может": 1921,
      "##лек": 1922,
      "спо": 1923,
      "никого": 1924,
      "помощи": 1925,
      "##ают": 1926,
      "##готов": 1927,
      "Здесь": 1928,
      "лишь": 1929,
      "Джон": 1930,
      "порядке": 1931,
      "##ома": 1932,
      "##ница": 1933,
      "сторо": 1934,
      "устал": 1935,
      "улы": 1936,
      "извест": 1937,
      "попрос": 1938,
      "машина": 1939,
      "телефон": 1940,
      "идея": 1941,
      "ново": 1942,
      "руки": 1943,
      "поц": 1944,
      "##ерин": 1945,
      "скуч": 1946,
      "смер": 1947,
      "новый": 1948,
      "мать": 1949,
      "оди": 1950,
      "##ёнок": 1951,
      "знают": 1952,
      "Тво": 1953,
      "ино": 1954,
      "##ника": 1955,
      "##ожу": 1956,
      "скажу": 1957,
      "назы": 1958,
      "##рый": 1959,
      "##нце": 1960,
      "самом": 1961,
      "Хочешь": 1962,
      "держ": 1963,
      "замет": 1964,
      "выглядит": 1965,
      "?»": 1966,
      "всю": 1967,
      "моё": 1968,
      "##руг": 1969,
      "живо": 1970,
      "исполь": 1971,
      "имеет": 1972,
      "увидел": 1973,
      "более": 1974,
      "сих": 1975,
      "могут": 1976,
      "##вар": 1977,
      "знала": 1978,
      "рождения": 1979,
      "##ствовал": 1980,
      "езд": 1981,
      "малень": 1982,
      "мя": 1983,
      "взял": 1984,
      "покуп": 1985,
      "вернулся": 1986,
      "придётся": 1987,
      "##сы": 1988,
      "свобод": 1989,
      "наверное": 1990,
      "Австралию": 1991,
      "понедельник": 1992,
      "здо": 1993,
      "ук": 1994,
      "уро": 1995,
      "начина": 1996,
      "привы": 1997,
      "стать": 1998,
      "позвонить": 1999,
      "разре": 2000,
      "те": 2001,
      "уда": 2002,
      "работы": 2003,
      "тридцать": 2004,
      "пойду": 2005,
      "голов": 2006,
      "читать": 2007,
      "фильм": 2008,
      "полови": 2009,
      "Расс": 2010,
      "влю": 2011,
      "хотели": 2012,
      "До": 2013,
      "##дца": 2014,
      "собака": 2015,
      "##енни": 2016,
      "сви": 2017,
      "##воз": 2018,
      "прощ": 2019,
      "пить": 2020,
      "сек": 2021,
      "##овал": 2022,
      "##жды": 2023,
      "##ялся": 2024,
      "написал": 2025,
      "Пой": 2026,
      "##хи": 2027,
      "разб": 2028,
      "убед": 2029,
      "##раши": 2030,
      "плохо": 2031,
      "услыш": 2032,
      "клас": 2033,
      "паль": 2034,
      "##щее": 2035,
      "похоже": 2036,
      "друзей": 2037,
      "теперь": 2038,
      "##держ": 2039,
      "играет": 2040,
      "довольно": 2041,
      "Есть": 2042,
      "ябло": 2043,
      "##беж": 2044,
      "вечерин": 2045,
      "начал": 2046,
      "##шая": 2047,
      "##рая": 2048,
      "представ": 2049,
      "понял": 2050,
      "бел": 2051,
      "##ети": 2052,
      "глуп": 2053,
      "рис": 2054,
      "Чем": 2055,
      "##уль": 2056,
      "нравятся": 2057,
      "десять": 2058,
      "##зам": 2059,
      "##вращ": 2060,
      "##кую": 2061,
      "##лючи": 2062,
      "английски": 2063,
      "сестра": 2064,
      "##поч": 2065,
      "##кие": 2066,
      "волос": 2067,
      "Ва": 2068,
      "Нас": 2069,
      "подо": 2070,
      "обо": 2071,
      "встреч": 2072,
      "Сейчас": 2073,
      "##аешь": 2074,
      "нужны": 2075,
      "выиг": 2076,
      "доверять": 2077,
      "осторож": 2078,
      "спос": 2079,
      "стол": 2080,
      "улыб": 2081,
      "способ": 2082,
      "##рать": 2083,
      "помню": 2084,
      "##ремя": 2085,
      "терп": 2086,
      "прис": 2087,
      "коро": 2088,
      "понять": 2089,
      "идёт": 2090,
      "прекрас": 2091,
      "##пла": 2092,
      "поэ": 2093,
      "смогу": 2094,
      "единственный": 2095,
      "##раться": 2096,
      "вид": 2097,
      "##роме": 2098,
      "коман": 2099,
      "ночью": 2100,
      "##рю": 2101,
      "плавать": 2102,
      "##руд": 2103,
      "месте": 2104,
      "почи": 2105,
      "вижу": 2106,
      "##вести": 2107,
      "##рен": 2108,
      "##тро": 2109,
      "##раб": 2110,
      "##руш": 2111,
      "##теше": 2112,
      "план": 2113,
      "##дали": 2114,
      "##ёс": 2115,
      "настоя": 2116,
      "##ежду": 2117,
      "долларов": 2118,
      "должна": 2119,
      "приглас": 2120,
      "прямо": 2121,
      "##ув": 2122,
      "##рода": 2123,
      "Возможно": 2124,
      "##важ": 2125,
      "говоришь": 2126,
      "автобус": 2127,
      "Пере": 2128,
      "##бе": 2129,
      "##асти": 2130,
      "##кал": 2131,
      "##оги": 2132,
      "таким": 2133,
      "собаку": 2134,
      "##воч": 2135,
      "##вался": 2136,
      "живот": 2137,
      "##роп": 2138,
      "##ерма": 2139,
      "предуп": 2140,
      "совет": 2141,
      "выбо": 2142,
      "равно": 2143,
      "рассказать": 2144,
      "ак": 2145,
      "разговаривать": 2146,
      "легко": 2147,
      "##нем": 2148,
      "##цо": 2149,
      "##тери": 2150,
      "япо": 2151,
      "##нию": 2152,
      "прода": 2153,
      "само": 2154,
      "большой": 2155,
      "##ема": 2156,
      "любишь": 2157,
      "помогать": 2158,
      "доверя": 2159,
      "будете": 2160,
      "голос": 2161,
      "неделю": 2162,
      "##ист": 2163,
      "##ление": 2164,
      "Ей": 2165,
      "газ": 2166,
      "хорошая": 2167,
      "хотят": 2168,
      "точно": 2169,
      "##ники": 2170,
      "##лин": 2171,
      "видела": 2172,
      "##ному": 2173,
      "кри": 2174,
      "##пом": 2175,
      "##нение": 2176,
      "Посл": 2177,
      "ходить": 2178,
      "Думаешь": 2179,
      "студ": 2180,
      "преж": 2181,
      "получил": 2182,
      "тя": 2183,
      "ест": 2184,
      "##ток": 2185,
      "##нич": 2186,
      "год": 2187,
      "##тор": 2188,
      "какие": 2189,
      "##ретьего": 2190,
      "подождать": 2191,
      "ключ": 2192,
      "##яза": 2193,
      "спраши": 2194,
      "Мог": 2195,
      "тенни": 2196,
      "##еко": 2197,
      "взять": 2198,
      "##нице": 2199,
      "##фор": 2200,
      "##ур": 2201,
      "##нач": 2202,
      "##ечат": 2203,
      "часа": 2204,
      "##надоб": 2205,
      "пе": 2206,
      "пример": 2207,
      "старше": 2208,
      "серьёз": 2209,
      "понадоб": 2210,
      "отца": 2211,
      "путеше": 2212,
      "оставил": 2213,
      "кроме": 2214,
      "одного": 2215,
      "поцелов": 2216,
      "твои": 2217,
      "номер": 2218,
      "зон": 2219,
      "##опас": 2220,
      "доме": 2221,
      "одолж": 2222,
      "##тил": 2223,
      "узнал": 2224,
      "Дайте": 2225,
      "##ями": 2226,
      "##роятно": 2227,
      "наб": 2228,
      "чуть": 2229,
      "попросить": 2230,
      "одно": 2231,
      "##которые": 2232,
      "попроб": 2233,
      "вещи": 2234,
      "совершенно": 2235,
      "##едленно": 2236,
      "дать": 2237,
      "явля": 2238,
      "##йся": 2239,
      "которую": 2240,
      "счастлив": 2241,
      "спросить": 2242,
      "##нци": 2243,
      "Вчера": 2244,
      "##оп": 2245,
      "##три": 2246,
      "обрат": 2247,
      "Пос": 2248,
      "##арко": 2249,
      "##ыл": 2250,
      "твоей": 2251,
      "нож": 2252,
      "Бостона": 2253,
      "компьют": 2254,
      "са": 2255,
      "приход": 2256,
      "прошлой": 2257,
      "разреш": 2258,
      "вели": 2259,
      "либо": 2260,
      "проблемы": 2261,
      "четы": 2262,
      "шля": 2263,
      "##лон": 2264,
      "вина": 2265,
      "##пода": 2266,
      "##дание": 2267,
      "моло": 2268,
      "зу": 2269,
      "сильно": 2270,
      "##рят": 2271,
      "будут": 2272,
      "случится": 2273,
      "самый": 2274,
      "давно": 2275,
      "согласен": 2276,
      "чёр": 2277,
      "##ёх": 2278,
      "##когда": 2279,
      "часы": 2280,
      "руку": 2281,
      "дере": 2282,
      "поздно": 2283,
      "Можете": 2284,
      "ле": 2285,
      "проч": 2286,
      "Пер": 2287,
      "шут": 2288,
      "##ха": 2289,
      "##работ": 2290,
      "пров": 2291,
      "потеря": 2292,
      "##дут": 2293,
      "##ушка": 2294,
      "жил": 2295,
      "##раздо": 2296,
      "Со": 2297,
      "би": 2298,
      "фут": 2299,
      "спис": 2300,
      "ребён": 2301,
      "##ейс": 2302,
      "короб": 2303,
      "##коло": 2304,
      "посмотреть": 2305,
      "занима": 2306,
      "гораздо": 2307,
      "окно": 2308,
      "жал": 2309,
      "ла": 2310,
      "шан": 2311,
      "пот": 2312,
      "поступ": 2313,
      "##кор": 2314,
      "##ствовать": 2315,
      "удивл": 2316,
      "теннис": 2317,
      "##рез": 2318,
      "дети": 2319,
      "бут": 2320,
      "самое": 2321,
      "машине": 2322,
      "##томоб": 2323,
      "тогда": 2324,
      "##ив": 2325,
      "##ские": 2326,
      "столько": 2327,
      "гости": 2328,
      "такие": 2329,
      "ради": 2330,
      "##шее": 2331,
      "предпоч": 2332,
      "человека": 2333,
      "##ватит": 2334,
      "зем": 2335,
      "между": 2336,
      "##иту": 2337,
      "##гих": 2338,
      "##ёг": 2339,
      "работе": 2340,
      "вопросы": 2341,
      "##реб": 2342,
      "##нно": 2343,
      "живу": 2344,
      "##дер": 2345,
      "чувствую": 2346,
      "##ществ": 2347,
      "решение": 2348,
      "ваша": 2349,
      "подарок": 2350,
      "##ядом": 2351,
      "##сят": 2352,
      "другом": 2353,
      "понравится": 2354,
      "заниматься": 2355,
      "бер": 2356,
      "##пис": 2357,
      "дело": 2358,
      "учитель": 2359,
      "родился": 2360,
      "бан": 2361,
      "##ани": 2362,
      "##лить": 2363,
      "безопас": 2364,
      "улице": 2365,
      "Соб": 2366,
      "меч": 2367,
      "пооб": 2368,
      "##рите": 2369,
      "##ляет": 2370,
      "слов": 2371,
      "сред": 2372,
      "##лен": 2373,
      "тыся": 2374,
      "обращ": 2375,
      "слом": 2376,
      "препода": 2377,
      "возра": 2378,
      "Для": 2379,
      "вов": 2380,
      "Каж": 2381,
      "просил": 2382,
      "отсюда": 2383,
      "ред": 2384,
      "уг": 2385,
      "##ской": 2386,
      "Томе": 2387,
      "потом": 2388,
      "моим": 2389,
      "такого": 2390,
      "учител": 2391,
      "Им": 2392,
      "именно": 2393,
      "руб": 2394,
      "##ара": 2395,
      "##сту": 2396,
      "##стань": 2397,
      "ресто": 2398,
      "оставить": 2399,
      "английский": 2400,
      "восп": 2401,
      "матери": 2402,
      "попыт": 2403,
      "экзам": 2404,
      "пья": 2405,
      "##стра": 2406,
      "##служ": 2407,
      "##гаю": 2408,
      "машины": 2409,
      "##надцать": 2410,
      "Разве": 2411,
      "волосы": 2412,
      "рез": 2413,
      "книг": 2414,
      "автомоб": 2415,
      "##ствие": 2416,
      "##ниться": 2417,
      "ребёнок": 2418,
      "еще": 2419,
      "бума": 2420,
      "остановить": 2421,
      "поможет": 2422,
      "уезж": 2423,
      "сидел": 2424,
      "цен": 2425,
      "одну": 2426,
      "вот": 2427,
      "удал": 2428,
      "##дь": 2429,
      "##дёшь": 2430,
      "поэтому": 2431,
      "тю": 2432,
      "##цен": 2433,
      "##коль": 2434,
      "##разу": 2435,
      "##нула": 2436,
      "уби": 2437,
      "родители": 2438,
      "удив": 2439,
      "около": 2440,
      "##дет": 2441,
      "выз": 2442,
      "смотрел": 2443,
      "врач": 2444,
      "##порт": 2445,
      "девушка": 2446,
      "Пом": 2447,
      "тол": 2448,
      "##ях": 2449,
      "##яти": 2450,
      "приготов": 2451,
      "любят": 2452,
      "Хотите": 2453,
      "дочь": 2454,
      "пти": 2455,
      "сын": 2456,
      "шесть": 2457,
      "обви": 2458,
      "поза": 2459,
      "одной": 2460,
      "случай": 2461,
      "снег": 2462,
      "ужин": 2463,
      "нём": 2464,
      "пь": 2465,
      "тру": 2466,
      "возвращ": 2467,
      "отнош": 2468,
      "аре": 2469,
      "##ити": 2470,
      "##тин": 2471,
      "мире": 2472,
      "слово": 2473,
      "бога": 2474,
      "Сл": 2475,
      "##рог": 2476,
      "приехал": 2477,
      "япон": 2478,
      "тяж": 2479,
      "Могу": 2480,
      "уверена": 2481,
      "думала": 2482,
      "Но": 2483,
      "Пре": 2484,
      "##ание": 2485,
      "##яться": 2486,
      "##конец": 2487,
      "обед": 2488,
      "Поли": 2489,
      "прошлом": 2490,
      "##нечно": 2491,
      "другой": 2492,
      "Посмотри": 2493,
      "##нили": 2494,
      "причи": 2495,
      "воск": 2496,
      "произой": 2497,
      "##тяб": 2498,
      "кот": 2499,
      "сож": 2500,
      "чай": 2501,
      "##нения": 2502,
      "собствен": 2503,
      "##иг": 2504,
      "боится": 2505,
      "делаешь": 2506,
      "особ": 2507,
      "бед": 2508,
      "##боль": 2509,
      "##ус": 2510,
      "##рого": 2511,
      "Мои": 2512,
      "октяб": 2513,
      "холодно": 2514,
      "рубаш": 2515,
      "вкус": 2516,
      "##стите": 2517,
      "обс": 2518,
      "ходил": 2519,
      "ло": 2520,
      "лож": 2521,
      "быст": 2522,
      "##шек": 2523,
      "##ишься": 2524,
      "серд": 2525,
      "ключи": 2526,
      "##чет": 2527,
      "слож": 2528,
      "расстро": 2529,
      "##ехать": 2530,
      "смотреть": 2531,
      "рядом": 2532,
      "##ежит": 2533,
      "дорого": 2534,
      "смерти": 2535,
      "бил": 2536,
      "глу": 2537,
      "заб": 2538,
      "призна": 2539,
      "значит": 2540,
      "##язательно": 2541,
      "позвонил": 2542,
      "##кро": 2543,
      "##уг": 2544,
      "##чный": 2545,
      "мало": 2546,
      "шо": 2547,
      "##сит": 2548,
      "ап": 2549,
      "забудь": 2550,
      "спрос": 2551,
      "моих": 2552,
      "##про": 2553,
      "##уля": 2554,
      "##тик": 2555,
      "##мец": 2556,
      "дней": 2557,
      "ро": 2558,
      "##нём": 2559,
      "##леб": 2560,
      "##ян": 2561,
      "##енье": 2562,
      "тор": 2563,
      "перест": 2564,
      "Японии": 2565,
      "ждал": 2566,
      "цел": 2567,
      "работал": 2568,
      "самол": 2569,
      "пиш": 2570,
      "ошибку": 2571,
      "вста": 2572,
      "доч": 2573,
      "##итай": 2574,
      "кур": 2575,
      "права": 2576,
      "вернётся": 2577,
      "Завтра": 2578,
      "нашли": 2579,
      "ваши": 2580,
      "Никогда": 2581,
      "вопросов": 2582,
      "поверить": 2583,
      "прощения": 2584,
      "футбол": 2585,
      "##шей": 2586,
      "наз": 2587,
      "раза": 2588,
      "заметил": 2589,
      "##стве": 2590,
      "важно": 2591,
      "одино": 2592,
      "привык": 2593,
      "редко": 2594,
      "вок": 2595,
      "опять": 2596,
      "Од": 2597,
      "##ровал": 2598,
      "кор": 2599,
      "спит": 2600,
      "перев": 2601,
      "новую": 2602,
      "плать": 2603,
      "женщина": 2604,
      "скры": 2605,
      "немец": 2606,
      "##ваешь": 2607,
      "Пох": 2608,
      "##альше": 2609,
      "близ": 2610,
      "##начала": 2611,
      "##дох": 2612,
      "##щие": 2613,
      "жел": 2614,
      "ог": 2615,
      "##нали": 2616,
      "домаш": 2617,
      "твоё": 2618,
      "поехал": 2619,
      "мень": 2620,
      "фор": 2621,
      "##ская": 2622,
      "вышел": 2623,
      "вернуться": 2624,
      "воскрес": 2625,
      "уехал": 2626,
      "##овало": 2627,
      "сосед": 2628,
      "тюрь": 2629,
      "хва": 2630,
      "длин": 2631,
      "мил": 2632,
      "суп": 2633,
      "третьего": 2634,
      "Простите": 2635,
      "отвеч": 2636,
      "##ывать": 2637,
      "##ницы": 2638,
      "кино": 2639,
      "взгля": 2640,
      "месяц": 2641,
      "является": 2642,
      "квар": 2643,
      "##щего": 2644,
      "городе": 2645,
      "виду": 2646,
      "ожидал": 2647,
      "##ван": 2648,
      "кух": 2649,
      "подумал": 2650,
      "тра": 2651,
      "##аете": 2652,
      "##того": 2653,
      "открыл": 2654,
      "суд": 2655,
      "собирается": 2656,
      "оказ": 2657,
      "##нёс": 2658,
      "зачем": 2659,
      "глаз": 2660,
      "Ну": 2661,
      "сил": 2662,
      "брата": 2663,
      "компьютер": 2664,
      "Ра": 2665,
      "надеюсь": 2666,
      "прив": 2667,
      "работаю": 2668,
      "посмотрел": 2669,
      "встретил": 2670,
      "необход": 2671,
      "!»": 2672,
      "Амери": 2673,
      "Чего": 2674,
      "кам": 2675,
      "поесть": 2676,
      "мат": 2677,
      "съел": 2678,
      "##блиот": 2679,
      "одеж": 2680,
      "зас": 2681,
      "##тает": 2682,
      "попро": 2683,
      "баб": 2684,
      "Люди": 2685,
      "подоз": 2686,
      "##ногие": 2687,
      "отпу": 2688,
      "могла": 2689,
      "##ечь": 2690,
      "сможет": 2691,
      "Пу": 2692,
      "св": 2693,
      "##кажу": 2694,
      "впечат": 2695,
      "##нд": 2696,
      "##ким": 2697,
      "курить": 2698,
      "трёх": 2699,
      "##зоваться": 2700,
      "##..": 2701,
      "##оча": 2702,
      "##шин": 2703,
      "любите": 2704,
      "языке": 2705,
      "нашей": 2706,
      "кому": 2707,
      "убить": 2708,
      "мужчи": 2709,
      "##екар": 2710,
      "планирует": 2711,
      "Похоже": 2712,
      "Ста": 2713,
      "зв": 2714,
      "##ожде": 2715,
      "##ове": 2716,
      "разоча": 2717,
      "какое": 2718,
      "##рован": 2719,
      "петь": 2720,
      "##ерк": 2721,
      "##ружи": 2722,
      "состоя": 2723,
      "##йтесь": 2724,
      "автобусе": 2725,
      "богат": 2726,
      "заме": 2727,
      "заслуж": 2728,
      "пойм": 2729,
      "##еку": 2730,
      "##ета": 2731,
      "##воря": 2732,
      "делаю": 2733,
      "любов": 2734,
      "вовремя": 2735,
      "Хоро": 2736,
      "##след": 2737,
      "намного": 2738,
      "цветы": 2739,
      "##фис": 2740,
      "##щей": 2741,
      "насто": 2742,
      "пришла": 2743,
      "очки": 2744,
      "следующий": 2745,
      "красивая": 2746,
      "дви": 2747,
      "мама": 2748,
      "##рала": 2749,
      "девоч": 2750,
      "аресто": 2751,
      "знач": 2752,
      "столе": 2753,
      "##бав": 2754,
      "здоров": 2755,
      "сразу": 2756,
      "уй": 2757,
      "заст": 2758,
      "хотелось": 2759,
      "купила": 2760,
      "утро": 2761,
      "встреча": 2762,
      "следующей": 2763,
      "поги": 2764,
      "зави": 2765,
      "раст": 2766,
      "##нулась": 2767,
      "запис": 2768,
      "каждо": 2769,
      "успех": 2770,
      "экзамен": 2771,
      "##аем": 2772,
      "женат": 2773,
      "спал": 2774,
      "##ностью": 2775,
      "Ма": 2776,
      "сом": 2777,
      "решить": 2778,
      "уверены": 2779,
      "платье": 2780,
      "##цей": 2781,
      "шанс": 2782,
      "кварти": 2783,
      "Сол": 2784,
      "Тебя": 2785,
      "##яв": 2786,
      "##вого": 2787,
      "парень": 2788,
      "Было": 2789,
      "дву": 2790,
      "оно": 2791,
      "##щит": 2792,
      "горд": 2793,
      "понимает": 2794,
      "гита": 2795,
      "пят": 2796,
      "сда": 2797,
      "хлеб": 2798,
      "##стей": 2799,
      "##ваюсь": 2800,
      "перевод": 2801,
      "понятия": 2802,
      "большая": 2803,
      "Сдел": 2804,
      "мир": 2805,
      "брать": 2806,
      "ар": 2807,
      "еду": 2808,
      "зол": 2809,
      "невоз": 2810,
      "спор": 2811,
      "##имся": 2812,
      "##итуа": 2813,
      "зай": 2814,
      "мину": 2815,
      "ответить": 2816,
      "библиот": 2817,
      "Кажется": 2818,
      "##лаш": 2819,
      "Некоторые": 2820,
      "связ": 2821,
      "ал": 2822,
      "руч": 2823,
      "##уется": 2824,
      "правильно": 2825,
      "далеко": 2826,
      "Смотри": 2827,
      "той": 2828,
      "##хот": 2829,
      "первый": 2830,
      "собираешься": 2831,
      "любимый": 2832,
      "20": 2833,
      "мом": 2834,
      "шах": 2835,
      "##има": 2836,
      "##чь": 2837,
      "образ": 2838,
      "офис": 2839,
      "##ульта": 2840,
      "кру": 2841,
      "пас": 2842,
      "выуч": 2843,
      "приз": 2844,
      "купили": 2845,
      "Прости": 2846,
      "выше": 2847,
      "##щих": 2848,
      "Какое": 2849,
      "следовало": 2850,
      "пальто": 2851,
      "##шно": 2852,
      "##еры": 2853,
      "##тичес": 2854,
      "хочется": 2855,
      "подру": 2856,
      "##ежал": 2857,
      "друзьями": 2858,
      "Думаете": 2859,
      "влюбл": 2860,
      "примерно": 2861,
      "устав": 2862,
      "##лый": 2863,
      "своими": 2864,
      "положил": 2865,
      "выиграть": 2866,
      "Бог": 2867,
      "сел": 2868,
      "##ришь": 2869,
      "вспом": 2870,
      "##люсь": 2871,
      "станов": 2872,
      "писать": 2873,
      "Дети": 2874,
      "Оно": 2875,
      "кры": 2876,
      "уваж": 2877,
      "##вока": 2878,
      "##нишь": 2879,
      "говорила": 2880,
      "спасти": 2881,
      "имею": 2882,
      "четыре": 2883,
      "Герма": 2884,
      "##ходи": 2885,
      "подоб": 2886,
      "сама": 2887,
      "##ереть": 2888,
      "хватает": 2889,
      "млад": 2890,
      "сла": 2891,
      "##сты": 2892,
      "этих": 2893,
      "опоздал": 2894,
      "впер": 2895,
      "Зем": 2896,
      "дво": 2897,
      "##игра": 2898,
      "##цом": 2899,
      "постоя": 2900,
      "##стью": 2901,
      "звонил": 2902,
      "дам": 2903,
      "ящи": 2904,
      "##нила": 2905,
      "настро": 2906,
      "##дай": 2907,
      "выходные": 2908,
      "##гал": 2909,
      "##ваем": 2910,
      "##рук": 2911,
      "такси": 2912,
      "смы": 2913,
      "бег": 2914,
      "лекар": 2915,
      "окна": 2916,
      "встретиться": 2917,
      "выиграет": 2918,
      "музыку": 2919,
      "##дёте": 2920,
      "кат": 2921,
      "рыб": 2922,
      "спасибо": 2923,
      "Позволь": 2924,
      "##эро": 2925,
      "нечего": 2926,
      "##азды": 2927,
      "объяснить": 2928,
      "ноч": 2929,
      "##ик": 2930,
      "наши": 2931,
      "твоего": 2932,
      "станци": 2933,
      "Изви": 2934,
      "##едь": 2935,
      "##стара": 2936,
      "оби": 2937,
      "дура": 2938,
      "компа": 2939,
      "живут": 2940,
      "вечеринку": 2941,
      "вел": 2942,
      "внут": 2943,
      "##даю": 2944,
      "убил": 2945,
      "воду": 2946,
      "ответил": 2947,
      "##ёрт": 2948,
      "ел": 2949,
      "постав": 2950,
      "##ожи": 2951,
      "ходит": 2952,
      "приду": 2953,
      "двух": 2954,
      "жду": 2955,
      "##ления": 2956,
      "##енный": 2957,
      "После": 2958,
      "пешком": 2959,
      "ча": 2960,
      "обна": 2961,
      "##ряз": 2962,
      "##ряс": 2963,
      "опазды": 2964,
      "Ничего": 2965,
      "вашей": 2966,
      "беспокой": 2967,
      "интересно": 2968,
      "обратно": 2969,
      "меньше": 2970,
      "бывает": 2971,
      "смотрит": 2972,
      "уд": 2973,
      "выглядел": 2974,
      "отказался": 2975,
      "предупред": 2976,
      "произойдёт": 2977,
      "Многие": 2978,
      "вто": 2979,
      "кро": 2980,
      "пля": 2981,
      "сти": 2982,
      "элек": 2983,
      "##при": 2984,
      "заказ": 2985,
      "принад": 2986,
      "сложно": 2987,
      "вино": 2988,
      "Мария": 2989,
      "секрет": 2990,
      "вроде": 2991,
      "дорогу": 2992,
      "принадл": 2993,
      "пошли": 2994,
      "пиани": 2995,
      "шахма": 2996,
      "вне": 2997,
      "##ап": 2998,
      "##тесь": 2999,
      "своём": 3000,
      "справ": 3001,
      "вероятно": 3002,
      "возь": 3003,
      "страна": 3004,
      "недели": 3005,
      "мет": 3006,
      "мед": 3007,
      "##шего": 3008,
      "##щу": 3009,
      "##ских": 3010,
      "Какие": 3011,
      "##димся": 3012,
      "голову": 3013,
      "печ": 3014,
      "какая": 3015,
      "устала": 3016,
      "внимания": 3017,
      "Полиция": 3018,
      "быстрее": 3019,
      "увол": 3020,
      "чест": 3021,
      "верю": 3022,
      "ван": 3023,
      "##ун": 3024,
      "##чку": 3025,
      "##говори": 3026,
      "##еру": 3027,
      "##вид": 3028,
      "помогу": 3029,
      "тому": 3030,
      "сына": 3031,
      "понравилось": 3032,
      "##дцати": 3033,
      "мам": 3034,
      "##езде": 3035,
      "переп": 3036,
      "часть": 3037,
      "котором": 3038,
      "адрес": 3039,
      "уроки": 3040,
      "понадобится": 3041,
      "аэро": 3042,
      "лес": 3043,
      "восем": 3044,
      "взя": 3045,
      "позволить": 3046,
      "проблему": 3047,
      "сообщение": 3048,
      "Пред": 3049,
      "##ону": 3050,
      "выйти": 3051,
      "обма": 3052,
      "будь": 3053,
      "показать": 3054,
      "амери": 3055,
      "худ": 3056,
      "##ска": 3057,
      "выключ": 3058,
      "города": 3059,
      "##кио": 3060,
      "##часть": 3061,
      "Даже": 3062,
      "болен": 3063,
      "...": 3064,
      "##уга": 3065,
      "##ща": 3066,
      "принял": 3067,
      "карма": 3068,
      "магазин": 3069,
      "бросил": 3070,
      "тай": 3071,
      "прочит": 3072,
      "винова": 3073,
      "безопасности": 3074,
      "скажи": 3075,
      "##ехали": 3076,
      "отлич": 3077,
      "Твоя": 3078,
      "19": 3079,
      "##нен": 3080,
      "заняты": 3081,
      "делают": 3082,
      "Джона": 3083,
      "адвока": 3084,
      "студен": 3085,
      "песню": 3086,
      "сте": 3087,
      "надел": 3088,
      "стоило": 3089,
      "показал": 3090,
      "слушать": 3091,
      "удалось": 3092,
      "Только": 3093,
      "чаш": 3094,
      "имел": 3095,
      "водить": 3096,
      "читал": 3097,
      "дерево": 3098,
      "Рожде": 3099,
      "самая": 3100,
      "##знач": 3101,
      "вернусь": 3102,
      "прежде": 3103,
      "Пов": 3104,
      "дед": 3105,
      "неви": 3106,
      "##ваете": 3107,
      "своему": 3108,
      "твою": 3109,
      "болит": 3110,
      "Будь": 3111,
      "вла": 3112,
      "##тец": 3113,
      "##ходите": 3114,
      "##ители": 3115,
      "##альный": 3116,
      "боюсь": 3117,
      "груст": 3118,
      "Обещ": 3119,
      "Отец": 3120,
      "нер": 3121,
      "моём": 3122,
      "собир": 3123,
      "французском": 3124,
      "Токио": 3125,
      "иногда": 3126,
      "иди": 3127,
      "утра": 3128,
      "выс": 3129,
      "правы": 3130,
      "треб": 3131,
      "Уч": 3132,
      "гал": 3133,
      "##рели": 3134,
      "##пит": 3135,
      "##лся": 3136,
      "##дала": 3137,
      "##рочно": 3138,
      "наконец": 3139,
      "вышла": 3140,
      "соз": 3141,
      "##стрел": 3142,
      "рус": 3143,
      "узнать": 3144,
      "##форма": 3145,
      "Их": 3146,
      "##стран": 3147,
      "##лять": 3148,
      "канад": 3149,
      "сту": 3150,
      "изучать": 3151,
      "Расскажи": 3152,
      "Иди": 3153,
      "благода": 3154,
      "поки": 3155,
      "посп": 3156,
      "##ливо": 3157,
      "друж": 3158,
      "занята": 3159,
      "половине": 3160,
      "момент": 3161,
      "мнение": 3162,
      "покое": 3163,
      "собра": 3164,
      "комнаты": 3165,
      "классе": 3166,
      "наблю": 3167,
      "ума": 3168,
      "##еком": 3169,
      "разве": 3170,
      "позвоню": 3171,
      "оставаться": 3172,
      "ваше": 3173,
      "ненавидит": 3174,
      "мальчик": 3175,
      "Остав": 3176,
      "Фома": 3177,
      "##щая": 3178,
      "##нос": 3179,
      "послуш": 3180,
      "места": 3181,
      "осталось": 3182,
      "телефона": 3183,
      "##ден": 3184,
      "проб": 3185,
      "##арк": 3186,
      "которой": 3187,
      "зара": 3188,
      "рада": 3189,
      "пришли": 3190,
      "делали": 3191,
      "разбуд": 3192,
      "состо": 3193,
      "посове": 3194,
      "пообещ": 3195,
      "лёг": 3196,
      "делаете": 3197,
      "Луч": 3198,
      "Хватит": 3199,
      "брос": 3200,
      "вет": 3201,
      "ситуа": 3202,
      "уча": 3203,
      "вос": 3204,
      "доказ": 3205,
      "##редел": 3206,
      "##цион": 3207,
      "рассчит": 3208,
      "школы": 3209,
      "темно": 3210,
      "историю": 3211,
      "Ви": 3212,
      "##олго": 3213,
      "принёс": 3214,
      "перез": 3215,
      "заслужи": 3216,
      "тро": 3217,
      "##аг": 3218,
      "##хожу": 3219,
      "позже": 3220,
      "извиниться": 3221,
      "зонтик": 3222,
      "результа": 3223,
      "октября": 3224,
      "кре": 3225,
      "##шед": 3226,
      "##яз": 3227,
      "защит": 3228,
      "прово": 3229,
      "готовы": 3230,
      "починить": 3231,
      "саду": 3232,
      "автомобиль": 3233,
      "постоянно": 3234,
      "Мальчи": 3235,
      "##рах": 3236,
      "бутыл": 3237,
      "невозможно": 3238,
      "обнаруж": 3239,
      "мест": 3240,
      "сбеж": 3241,
      "покрас": 3242,
      "приед": 3243,
      "принять": 3244,
      "спрят": 3245,
      "очер": 3246,
      "умею": 3247,
      "предложения": 3248,
      "спокой": 3249,
      "Ев": 3250,
      "иду": 3251,
      "уни": 3252,
      "шёл": 3253,
      "##ими": 3254,
      "##шка": 3255,
      "спи": 3256,
      "##нимать": 3257,
      "счастливы": 3258,
      "выиграл": 3259,
      "##держи": 3260,
      "настолько": 3261,
      "##ика": 3262,
      "##00": 3263,
      "##дец": 3264,
      "##стом": 3265,
      "спе": 3266,
      "Боюсь": 3267,
      "танц": 3268,
      "##бок": 3269,
      "верит": 3270,
      "следующем": 3271,
      "украл": 3272,
      "пианино": 3273,
      "##йца": 3274,
      "первым": 3275,
      "хорошее": 3276,
      "разговаривал": 3277,
      "играл": 3278,
      "закончить": 3279,
      "##пустил": 3280,
      "Зна": 3281,
      "включ": 3282,
      "ждёт": 3283,
      "фак": 3284,
      "##ету": 3285,
      "лицо": 3286,
      "языка": 3287,
      "информа": 3288,
      "##нди": 3289,
      "навест": 3290,
      "прибы": 3291,
      "##бор": 3292,
      "согласился": 3293,
      "едва": 3294,
      "Собака": 3295,
      "подозре": 3296,
      "##шо": 3297,
      "##рам": 3298,
      "край": 3299,
      "##нюю": 3300,
      "##ранда": 3301,
      "скорее": 3302,
      "сах": 3303,
      "##пы": 3304,
      "забуд": 3305,
      "исправ": 3306,
      "карти": 3307,
      "повто": 3308,
      "плак": 3309,
      "месяца": 3310,
      "Больше": 3311,
      "Ино": 3312,
      "Твой": 3313,
      "лы": 3314,
      "мас": 3315,
      "уми": 3316,
      "чи": 3317,
      "##рался": 3318,
      "##атель": 3319,
      "##нт": 3320,
      "немедленно": 3321,
      "думать": 3322,
      "Франц": 3323,
      "##еро": 3324,
      "##еда": 3325,
      "лучший": 3326,
      "чувство": 3327,
      "выглядишь": 3328,
      "ненавижу": 3329,
      "ноги": 3330,
      "захот": 3331,
      "ездил": 3332,
      "зуб": 3333,
      "необходимо": 3334,
      "Без": 3335,
      "##что": 3336,
      "##него": 3337,
      "имени": 3338,
      "##спод": 3339,
      "учить": 3340,
      "последнее": 3341,
      "моложе": 3342,
      "отношения": 3343,
      "шум": 3344,
      "пог": 3345,
      "##нику": 3346,
      "приня": 3347,
      "пойдёт": 3348,
      "ошибки": 3349,
      "непри": 3350,
      "недостаточно": 3351,
      "дости": 3352,
      "пару": 3353,
      "Позво": 3354,
      "Дже": 3355,
      "вд": 3356,
      "китай": 3357,
      "##режд": 3358,
      "других": 3359,
      "остался": 3360,
      "приглаш": 3361,
      "захоч": 3362,
      "одолжить": 3363,
      "провёл": 3364,
      "бросить": 3365,
      "гряз": 3366,
      "ем": 3367,
      "##пера": 3368,
      "##ником": 3369,
      "вырос": 3370,
      "каранда": 3371,
      "преступ": 3372,
      "##мент": 3373,
      "поблагода": 3374,
      "Сами": 3375,
      "уходить": 3376,
      "цве": 3377,
      "##омина": 3378,
      "постро": 3379,
      "##тие": 3380,
      "другу": 3381,
      "нор": 3382,
      "неправильно": 3383,
      "Спрос": 3384,
      "##нто": 3385,
      "##жа": 3386,
      "##хо": 3387,
      "##оман": 3388,
      "побы": 3389,
      "##ников": 3390,
      "любил": 3391,
      "умереть": 3392,
      "##емати": 3393,
      "сердце": 3394,
      "вести": 3395,
      "гром": 3396,
      "неза": 3397,
      "горя": 3398,
      "Этого": 3399,
      "полити": 3400,
      "намер": 3401,
      "посет": 3402,
      "открыть": 3403,
      "искал": 3404,
      "обещал": 3405,
      "ужасно": 3406,
      "ребёнка": 3407,
      "##еке": 3408,
      "##су": 3409,
      "##нему": 3410,
      "##нием": 3411,
      "наша": 3412,
      "началь": 3413,
      "Сам": 3414,
      "авари": 3415,
      "вся": 3416,
      "дв": 3417,
      "сначала": 3418,
      "выяс": 3419,
      "##ству": 3420,
      "##вых": 3421,
      "##лека": 3422,
      "волну": 3423,
      "Ваша": 3424,
      "жаль": 3425,
      "хват": 3426,
      "проиг": 3427,
      "говоря": 3428,
      "Кажд": 3429,
      "случа": 3430,
      "решили": 3431,
      "скуча": 3432,
      "##ствия": 3433,
      "##чество": 3434,
      "замеча": 3435,
      "дан": 3436,
      "##скому": 3437,
      "##кам": 3438,
      "танце": 3439,
      "планы": 3440,
      "победит": 3441,
      "весело": 3442,
      "семье": 3443,
      "глупо": 3444,
      "сва": 3445,
      "##сов": 3446,
      "отк": 3447,
      "стало": 3448,
      "Надо": 3449,
      "одежду": 3450,
      "све": 3451,
      "удо": 3452,
      "##нился": 3453,
      "##гать": 3454,
      "задать": 3455,
      "какую": 3456,
      "полез": 3457,
      "##сии": 3458,
      "позвол": 3459,
      "познакомился": 3460,
      "Перестань": 3461,
      "Пусть": 3462,
      "велел": 3463,
      "Эй": 3464,
      "теч": 3465,
      "##тоэ": 3466,
      "##алку": 3467,
      "##ерги": 3468,
      "##илия": 3469,
      "состав": 3470,
      "##надца": 3471,
      "умерла": 3472,
      "двери": 3473,
      "Люб": 3474,
      "готова": 3475,
      "##шинство": 3476,
      "верить": 3477,
      "##жусь": 3478,
      "##баты": 3479,
      "мужчина": 3480,
      "Возь": 3481,
      "победить": 3482,
      "отвез": 3483,
      "упал": 3484,
      "фотографию": 3485,
      "вокруг": 3486,
      "!\"": 3487,
      "Там": 3488,
      "##скую": 3489,
      "##уст": 3490,
      "##жест": 3491,
      "неболь": 3492,
      "принес": 3493,
      "Наш": 3494,
      "закончил": 3495,
      "никаких": 3496,
      "Пойдём": 3497,
      "бл": 3498,
      "кли": 3499,
      "##ано": 3500,
      "##кет": 3501,
      "##щим": 3502,
      "##нев": 3503,
      "французского": 3504,
      "родителей": 3505,
      "новости": 3506,
      "каждое": 3507,
      "##жен": 3508,
      "пошла": 3509,
      "##титься": 3510,
      "##нусь": 3511,
      "каз": 3512,
      "насчёт": 3513,
      "конце": 3514,
      "стороны": 3515,
      "Род": 3516,
      "##ия": 3517,
      "##мать": 3518,
      "##няя": 3519,
      "кошка": 3520,
      "серьёзно": 3521,
      "удивлён": 3522,
      "Лучше": 3523,
      "##ское": 3524,
      "##вен": 3525,
      "отмен": 3526,
      "обла": 3527,
      "влюб": 3528,
      "глубо": 3529,
      "сад": 3530,
      "тих": 3531,
      "повер": 3532,
      "##низ": 3533,
      "никуда": 3534,
      "полностью": 3535,
      "завтрак": 3536,
      "деть": 3537,
      "игру": 3538,
      "съезд": 3539,
      "Иногда": 3540,
      "шу": 3541,
      "##грам": 3542,
      "одному": 3543,
      "старый": 3544,
      "определ": 3545,
      "уговори": 3546,
      "Татоэ": 3547,
      "коробку": 3548,
      "сб": 3549,
      "##оне": 3550,
      "##чка": 3551,
      "##рии": 3552,
      "##няться": 3553,
      "будто": 3554,
      "соба": 3555,
      "##поко": 3556,
      "взрос": 3557,
      "начать": 3558,
      "научиться": 3559,
      "услышал": 3560,
      "Вра": 3561,
      "Кому": 3562,
      "аб": 3563,
      "бейс": 3564,
      "мёрт": 3565,
      "##ёк": 3566,
      "##ейн": 3567,
      "стро": 3568,
      "чемода": 3569,
      "заплат": 3570,
      "странно": 3571,
      "случайно": 3572,
      "билет": 3573,
      "детьми": 3574,
      "зел": 3575,
      "хол": 3576,
      "##пе": 3577,
      "##нах": 3578,
      "прогу": 3579,
      "##стой": 3580,
      "##спера": 3581,
      "почув": 3582,
      "возможность": 3583,
      "Расскажите": 3584,
      "яблоко": 3585,
      "шляпу": 3586,
      "восемь": 3587,
      "вме": 3588,
      "##хра": 3589,
      "##ёд": 3590,
      "##тол": 3591,
      "##ерп": 3592,
      "##неч": 3593,
      "##руч": 3594,
      "виде": 3595,
      "другие": 3596,
      "твоём": 3597,
      "вещ": 3598,
      "ботин": 3599,
      "##ельси": 3600,
      "иметь": 3601,
      "голоден": 3602,
      "Уб": 3603,
      "##ерб": 3604,
      "##десят": 3605,
      "##езло": 3606,
      "сон": 3607,
      "##альная": 3608,
      "##вайся": 3609,
      "помогли": 3610,
      "встал": 3611,
      "парке": 3612,
      "милли": 3613,
      "Жиз": 3614,
      "##дания": 3615,
      "принима": 3616,
      "##ляю": 3617,
      "хорошие": 3618,
      "##ондо": 3619,
      "существ": 3620,
      "скажет": 3621,
      "словарь": 3622,
      "##пустить": 3623,
      "постели": 3624,
      "мясо": 3625,
      "##ье": 3626,
      "##нести": 3627,
      "прип": 3628,
      "##стая": 3629,
      "дост": 3630,
      "понимаешь": 3631,
      "замужем": 3632,
      "пьёт": 3633,
      "собирался": 3634,
      "галсту": 3635,
      "жела": 3636,
      "##ания": 3637,
      "##тки": 3638,
      "##рим": 3639,
      "##дают": 3640,
      "##лив": 3641,
      "Каждый": 3642,
      "Пари": 3643,
      "сесть": 3644,
      "счасть": 3645,
      "кана": 3646,
      "больнице": 3647,
      "возду": 3648,
      "красивый": 3649,
      "считает": 3650,
      "поеду": 3651,
      "занимается": 3652,
      "рестора": 3653,
      "Германии": 3654,
      "перезво": 3655,
      "свадь": 3656,
      "Жизнь": 3657,
      "Доб": 3658,
      "пок": 3659,
      "##рик": 3660,
      "наказ": 3661,
      "кост": 3662,
      "плакать": 3663,
      "улицу": 3664,
      "Ли": 3665,
      "еды": 3666,
      "жарко": 3667,
      "нал": 3668,
      "нел": 3669,
      "##рили": 3670,
      "приходить": 3671,
      "подпис": 3672,
      "##уйте": 3673,
      "болез": 3674,
      "умеешь": 3675,
      "считаю": 3676,
      "собаки": 3677,
      "попробовать": 3678,
      "шокол": 3679,
      "пишет": 3680,
      "дочери": 3681,
      "ор": 3682,
      "##уже": 3683,
      "##айся": 3684,
      "собираетесь": 3685,
      "ищет": 3686,
      "молока": 3687,
      "любовь": 3688,
      "Ком": 3689,
      "зл": 3690,
      "пяти": 3691,
      "зар": 3692,
      "правила": 3693,
      "##тым": 3694,
      "женился": 3695,
      "##ницей": 3696,
      "Конечно": 3697,
      "##полож": 3698,
      "пораньше": 3699,
      "Одна": 3700,
      "погиб": 3701,
      "рыбалку": 3702,
      "Рождество": 3703,
      "цент": 3704,
      "##лагаю": 3705,
      "##альные": 3706,
      "вашего": 3707,
      "месяце": 3708,
      "называется": 3709,
      "Насколько": 3710,
      "попытался": 3711,
      "хра": 3712,
      "##сон": 3713,
      "##сте": 3714,
      "делается": 3715,
      "стали": 3716,
      "подож": 3717,
      "полно": 3718,
      "##фици": 3719,
      "рассказывал": 3720,
      "пользоваться": 3721,
      "##сперанто": 3722,
      "Лондо": 3723,
      "гу": 3724,
      "оз": 3725,
      "счёт": 3726,
      "##рки": 3727,
      "##цев": 3728,
      "##вели": 3729,
      "##дят": 3730,
      "сами": 3731,
      "стара": 3732,
      "пиц": 3733,
      "ошибок": 3734,
      "двадцать": 3735,
      "написать": 3736,
      "знакомы": 3737,
      "заплатил": 3738,
      "лекарство": 3739,
      "зарпла": 3740,
      "Дер": 3741,
      "сходить": 3742,
      "##ого": 3743,
      "##мите": 3744,
      "##чай": 3745,
      "закон": 3746,
      "провод": 3747,
      "иск": 3748,
      "цвета": 3749,
      "возраста": 3750,
      "невинов": 3751,
      "Жаль": 3752,
      "Мама": 3753,
      "Ст": 3754,
      "сработ": 3755,
      "##сно": 3756,
      "##тся": 3757,
      "##мож": 3758,
      "##дан": 3759,
      "##дайте": 3760,
      "##шься": 3761,
      "погода": 3762,
      "предложил": 3763,
      "сделаем": 3764,
      "другого": 3765,
      "пытаюсь": 3766,
      "известно": 3767,
      "Ваше": 3768,
      "радио": 3769,
      "Ал": 3770,
      "дальше": 3771,
      "кил": 3772,
      "ров": 3773,
      "##ялись": 3774,
      "##щем": 3775,
      "##неваюсь": 3776,
      "чувствовал": 3777,
      "утвер": 3778,
      "рыбу": 3779,
      "фотографии": 3780,
      "нерв": 3781,
      "Исп": 3782,
      "Муж": 3783,
      "роман": 3784,
      "уход": 3785,
      "хожу": 3786,
      "заключ": 3787,
      "стен": 3788,
      "родствен": 3789,
      "семья": 3790,
      "телевизо": 3791,
      "кататься": 3792,
      "Рос": 3793,
      "##вание": 3794,
      "##имой": 3795,
      "поговорил": 3796,
      "поговорим": 3797,
      "вашу": 3798,
      "испан": 3799,
      "контро": 3800,
      "выбора": 3801,
      "спрашивал": 3802,
      "сожал": 3803,
      "специ": 3804,
      "Вер": 3805,
      "ушла": 3806,
      "##товал": 3807,
      "##нав": 3808,
      "новая": 3809,
      "##ковь": 3810,
      "##адь": 3811,
      "летом": 3812,
      "танцевать": 3813,
      "мен": 3814,
      "ши": 3815,
      "##чен": 3816,
      "##ыми": 3817,
      "поговор": 3818,
      "помогает": 3819,
      "искус": 3820,
      "плохой": 3821,
      "##ражение": 3822,
      "инст": 3823,
      "пытается": 3824,
      "использов": 3825,
      "математи": 3826,
      "Извините": 3827,
      "##ана": 3828,
      "##рия": 3829,
      "##рила": 3830,
      "##овали": 3831,
      "отдох": 3832,
      "вошёл": 3833,
      "##енави": 3834,
      "которая": 3835,
      "которого": 3836,
      "жениться": 3837,
      "полицию": 3838,
      "убедить": 3839,
      "Мальчик": 3840,
      "вряд": 3841,
      "клу": 3842,
      "##рыг": 3843,
      "##сию": 3844,
      "##енность": 3845,
      "увиде": 3846,
      "слышали": 3847,
      "игры": 3848,
      "холодиль": 3849,
      "выучить": 3850,
      "шахматы": 3851,
      "##перату": 3852,
      "##вом": 3853,
      "##кт": 3854,
      "неве": 3855,
      "дороге": 3856,
      "большую": 3857,
      "##щество": 3858,
      "выпить": 3859,
      "студент": 3860,
      "состоянии": 3861,
      "днём": 3862,
      "хуже": 3863,
      "выпол": 3864,
      "выходить": 3865,
      "##уду": 3866,
      "изоб": 3867,
      "##чик": 3868,
      "##ехала": 3869,
      "несчаст": 3870,
      "получить": 3871,
      "читает": 3872,
      "сумас": 3873,
      "обеда": 3874,
      "принадлежит": 3875,
      "Дел": 3876,
      "##коном": 3877,
      "зад": 3878,
      "начала": 3879,
      "сестры": 3880,
      "Подоз": 3881,
      "##алею": 3882,
      "выпил": 3883,
      "ресторан": 3884,
      "\",": 3885,
      "Жен": 3886,
      "бор": 3887,
      "цер": 3888,
      "##цем": 3889,
      "##кти": 3890,
      "##эн": 3891,
      "популя": 3892,
      "учиться": 3893,
      "женщины": 3894,
      "попросили": 3895,
      "скучать": 3896,
      "поцеловал": 3897,
      "отвечать": 3898,
      "Джек": 3899,
      "жур": 3900,
      "мира": 3901,
      "##сол": 3902,
      "##хват": 3903,
      "##нике": 3904,
      "зат": 3905,
      "прож": 3906,
      "обязательно": 3907,
      "каком": 3908,
      "лично": 3909,
      "возраж": 3910,
      "учени": 3911,
      "гитаре": 3912,
      "канадец": 3913,
      "Подозре": 3914,
      "##ёж": 3915,
      "отцом": 3916,
      "станет": 3917,
      "##мально": 3918,
      "пиво": 3919,
      "вечер": 3920,
      "угодно": 3921,
      "корот": 3922,
      "зарабаты": 3923,
      "лыж": 3924,
      "сумасшед": 3925,
      "ого": 3926,
      "нужда": 3927,
      "стрел": 3928,
      "##ильный": 3929,
      "стране": 3930,
      "телефону": 3931,
      "велосипеде": 3932,
      "бумаж": 3933,
      "Франци": 3934,
      "мере": 3935,
      "##вез": 3936,
      "##енным": 3937,
      "##ольше": 3938,
      "изб": 3939,
      "Моё": 3940,
      "комната": 3941,
      "Хотел": 3942,
      "потеряла": 3943,
      "потреб": 3944,
      "воскресенье": 3945,
      "впечатление": 3946,
      "Де": 3947,
      "му": 3948,
      "детям": 3949,
      "скучно": 3950,
      "груп": 3951,
      "доволен": 3952,
      "рассказывать": 3953,
      "рубашку": 3954,
      "обсуд": 3955,
      "вспомнить": 3956,
      "День": 3957,
      "Ненави": 3958,
      "дала": 3959,
      "##боч": 3960,
      "##тно": 3961,
      "##ывает": 3962,
      "разоз": 3963,
      "доволь": 3964,
      "##едине": 3965,
      "единственная": 3966,
      "внимание": 3967,
      "услышать": 3968,
      "список": 3969,
      "восполь": 3970,
      "кухне": 3971,
      "ночи": 3972,
      "пообещал": 3973,
      "ушли": 3974,
      "##чал": 3975,
      "столи": 3976,
      "которое": 3977,
      "напуга": 3978,
      "изменить": 3979,
      "покупать": 3980,
      "пригласил": 3981,
      "зубы": 3982,
      "обсуж": 3983,
      "Хорошо": 3984,
      "ботинки": 3985,
      "поговорю": 3986,
      "Прав": 3987,
      "Ско": 3988,
      "Тут": 3989,
      "гре": 3990,
      "сна": 3991,
      "##щё": 3992,
      "приходит": 3993,
      "всему": 3994,
      "##станов": 3995,
      "##ктор": 3996,
      "история": 3997,
      "огром": 3998,
      "пал": 3999,
      "##шки": 4000,
      "##меня": 4001,
      "##ху": 4002,
      "##них": 4003,
      "спеш": 4004,
      "Попрос": 4005,
      "твоему": 4006,
      "##ровали": 4007,
      "готовить": 4008,
      "предпочит": 4009,
      "коль": 4010,
      "##сла": 4011,
      "поезде": 4012,
      "##нули": 4013,
      "помнишь": 4014,
      "счастлива": 4015,
      "готовит": 4016,
      "ищу": 4017,
      "никакого": 4018,
      "молоко": 4019,
      "Один": 4020,
      "обяз": 4021,
      "пожен": 4022,
      "слышать": 4023,
      "чувства": 4024,
      "научил": 4025,
      "использу": 4026,
      "защитить": 4027,
      "зелё": 4028,
      "СШ": 4029,
      "уво": 4030,
      "фрук": 4031,
      "перес": 4032,
      "##ским": 4033,
      "прези": 4034,
      "карандаш": 4035,
      "США": 4036,
      "Тот": 4037,
      "снял": 4038,
      "уехать": 4039,
      "##лем": 4040,
      "##ляй": 4041,
      "##ходя": 4042,
      "полу": 4043,
      "поправ": 4044,
      "ответа": 4045,
      "повед": 4046,
      "концерт": 4047,
      "поверил": 4048,
      "пользу": 4049,
      "разбил": 4050,
      "прекрасно": 4051,
      "выбор": 4052,
      "станции": 4053,
      "Подозреваю": 4054,
      "обязан": 4055,
      "пен": 4056,
      "эсперанто": 4057,
      "яйца": 4058,
      "##крат": 4059,
      "##чки": 4060,
      "люд": 4061,
      "человеком": 4062,
      "##ческий": 4063,
      "письма": 4064,
      "заставил": 4065,
      "закрыл": 4066,
      "##честве": 4067,
      "предупрежд": 4068,
      "прежнему": 4069,
      "убий": 4070,
      "тюрьме": 4071,
      "универ": 4072,
      "случае": 4073,
      "Па": 4074,
      "##ожди": 4075,
      "##ейте": 4076,
      "избав": 4077,
      "больницу": 4078,
      "##вещ": 4079,
      "твоим": 4080,
      "##ёшься": 4081,
      "новые": 4082,
      "скажешь": 4083,
      "чувству": 4084,
      "высокий": 4085,
      "сильный": 4086,
      "Ненавижу": 4087,
      "##кова": 4088,
      "забол": 4089,
      "выстрел": 4090,
      "Поезд": 4091,
      "стакан": 4092,
      "пойдём": 4093,
      "встречу": 4094,
      "ударил": 4095,
      "животных": 4096,
      "Ит": 4097,
      "чис": 4098,
      "потра": 4099,
      "поигра": 4100,
      "##лаг": 4101,
      "Постара": 4102,
      "пива": 4103,
      "другим": 4104,
      "нашла": 4105,
      "здоро": 4106,
      "учителем": 4107,
      "ящик": 4108,
      "ее": 4109,
      "медленно": 4110,
      "##лял": 4111,
      "##ект": 4112,
      "пожал": 4113,
      "запер": 4114,
      "ошибка": 4115,
      "всеми": 4116,
      "заплатить": 4117,
      "носит": 4118,
      "опасно": 4119,
      "займ": 4120,
      "съездить": 4121,
      "дяд": 4122,
      "##енное": 4123,
      "##нам": 4124,
      "##рещ": 4125,
      "##зап": 4126,
      "человеч": 4127,
      "понимаете": 4128,
      "Позвольте": 4129,
      "лыжах": 4130,
      "Увер": 4131,
      "зр": 4132,
      "сим": 4133,
      "целов": 4134,
      "наруш": 4135,
      "обож": 4136,
      "##учит": 4137,
      "доку": 4138,
      "плат": 4139,
      "ошиба": 4140,
      "иностран": 4141,
      "свит": 4142,
      "удоволь": 4143,
      "разозл": 4144,
      "лест": 4145,
      "##шадь": 4146,
      "##енной": 4147,
      "##тах": 4148,
      "поднял": 4149,
      "тридцати": 4150,
      "Прошло": 4151,
      "опозда": 4152,
      "надеялся": 4153,
      "Уви": 4154,
      "поконч": 4155,
      "могло": 4156,
      "Над": 4157,
      "направ": 4158,
      "просить": 4159,
      "карто": 4160,
      "мяч": 4161,
      "Женщи": 4162,
      "пам": 4163,
      "нему": 4164,
      "наступ": 4165,
      "##неси": 4166,
      "##дую": 4167,
      "любить": 4168,
      "Поп": 4169,
      "плачет": 4170,
      "девять": 4171,
      "научился": 4172,
      "Говори": 4173,
      "Ваши": 4174,
      "умира": 4175,
      "бейсбол": 4176,
      "Лу": 4177,
      "Ос": 4178,
      "скажите": 4179,
      "##ога": 4180,
      "прит": 4181,
      "сты": 4182,
      "##ряж": 4183,
      "Кого": 4184,
      "повезло": 4185,
      "##ование": 4186,
      "сможешь": 4187,
      "десяти": 4188,
      "едет": 4189,
      "попросила": 4190,
      "тысячи": 4191,
      "Родители": 4192,
      "Нью": 4193,
      "Сов": 4194,
      "Челов": 4195,
      "##драв": 4196,
      "##стов": 4197,
      "разу": 4198,
      "##щищ": 4199,
      "сидит": 4200,
      "голова": 4201,
      "счастливым": 4202,
      "английском": 4203,
      "конф": 4204,
      "познакомиться": 4205,
      "зонт": 4206,
      "прочёл": 4207,
      "перестал": 4208,
      "##солют": 4209,
      "дали": 4210,
      "##дой": 4211,
      "появ": 4212,
      "хоть": 4213,
      "прове": 4214,
      "##рует": 4215,
      "##видно": 4216,
      "напи": 4217,
      "страшно": 4218,
      "суб": 4219,
      "оскор": 4220,
      "чувствует": 4221,
      "использ": 4222,
      "пьян": 4223,
      "Маши": 4224,
      "аэропор": 4225,
      "шоколад": 4226,
      "сожалению": 4227,
      "Англи": 4228,
      "пло": 4229,
      "##ости": 4230,
      "##сот": 4231,
      "думают": 4232,
      "пуст": 4233,
      "испол": 4234,
      "понравился": 4235,
      "Говор": 4236,
      "апельси": 4237,
      "виноват": 4238,
      "Дом": 4239,
      "Ран": 4240,
      "такую": 4241,
      "##жин": 4242,
      "Наша": 4243,
      "напуг": 4244,
      "помогла": 4245,
      "##полне": 4246,
      "женщин": 4247,
      "другое": 4248,
      "поедет": 4249,
      "терпеть": 4250,
      "компании": 4251,
      "Сто": 4252,
      "кров": 4253,
      "теп": 4254,
      "явно": 4255,
      "##ваются": 4256,
      "##еду": 4257,
      "посуду": 4258,
      "водитель": 4259,
      "окруж": 4260,
      "истории": 4261,
      "становится": 4262,
      "Европ": 4263,
      "нормально": 4264,
      "Маш": 4265,
      "огра": 4266,
      "устро": 4267,
      "хватит": 4268,
      "##фес": 4269,
      "програм": 4270,
      "запрещ": 4271,
      "страны": 4272,
      "##соеди": 4273,
      "смеяться": 4274,
      "совершил": 4275,
      "думали": 4276,
      "электро": 4277,
      "##аппа": 4278,
      "Поб": 4279,
      "зло": 4280,
      "пром": 4281,
      "##хов": 4282,
      "##гов": 4283,
      "забл": 4284,
      "вый": 4285,
      "отри": 4286,
      "##езно": 4287,
      "##ушки": 4288,
      "сидеть": 4289,
      "двадца": 4290,
      "ходили": 4291,
      "право": 4292,
      "ездить": 4293,
      "сломал": 4294,
      "американ": 4295,
      "костю": 4296,
      "еда": 4297,
      "пью": 4298,
      "туп": 4299,
      "##юрод": 4300,
      "##учи": 4301,
      "слу": 4302,
      "всём": 4303,
      "переехал": 4304,
      "добраться": 4305,
      "температу": 4306,
      "понедельника": 4307,
      "ребёнком": 4308,
      "чашку": 4309,
      "Говорят": 4310,
      "благо": 4311,
      "лу": 4312,
      "сд": 4313,
      "##пер": 4314,
      "##фон": 4315,
      "##шить": 4316,
      "##шите": 4317,
      "##мет": 4318,
      "##чная": 4319,
      "##нись": 4320,
      "слеп": 4321,
      "вода": 4322,
      "видишь": 4323,
      "Давно": 4324,
      "боялся": 4325,
      "начали": 4326,
      "фотоаппа": 4327,
      "ужина": 4328,
      "Сделай": 4329,
      "существует": 4330,
      "Дожд": 4331,
      "лег": 4332,
      "пил": 4333,
      "тала": 4334,
      "##сказ": 4335,
      "##голо": 4336,
      "##вания": 4337,
      "продать": 4338,
      "отдел": 4339,
      "##слуш": 4340,
      "##валась": 4341,
      "играю": 4342,
      "##крати": 4343,
      "##тельный": 4344,
      "остановиться": 4345,
      "беспокоит": 4346,
      "сумку": 4347,
      "магазине": 4348,
      "##рудно": 4349,
      "особенно": 4350,
      "уволили": 4351,
      "лж": 4352,
      "оружи": 4353,
      "ул": 4354,
      "неуда": 4355,
      "##стри": 4356,
      "##ольф": 4357,
      "##оты": 4358,
      "Пока": 4359,
      "Покажите": 4360,
      "##вец": 4361,
      "давай": 4362,
      "нашего": 4363,
      "##ительный": 4364,
      "исключ": 4365,
      "съесть": 4366,
      "Марии": 4367,
      "относ": 4368,
      "представить": 4369,
      "двоюрод": 4370,
      "посоветовал": 4371,
      "Реб": 4372,
      "га": 4373,
      "зву": 4374,
      "остро": 4375,
      "##дж": 4376,
      "Нес": 4377,
      "##езда": 4378,
      "таких": 4379,
      "новое": 4380,
      "расскажу": 4381,
      "убе": 4382,
      "помогал": 4383,
      "сделаешь": 4384,
      "украли": 4385,
      "круп": 4386,
      "предупредить": 4387,
      "достиг": 4388,
      "собакой": 4389,
      "припарко": 4390,
      "указ": 4391,
      "части": 4392,
      "##рёт": 4393,
      "##таль": 4394,
      "##рин": 4395,
      "##тиво": 4396,
      "##руз": 4397,
      "любима": 4398,
      "##чив": 4399,
      "##ёмся": 4400,
      "умный": 4401,
      "увижу": 4402,
      "родителями": 4403,
      "начинается": 4404,
      "абсолют": 4405,
      "Ки": 4406,
      "Пи": 4407,
      "кас": 4408,
      "##лак": 4409,
      "некото": 4410,
      "бывал": 4411,
      "защищ": 4412,
      "морож": 4413,
      "подальше": 4414,
      "Чтобы": 4415,
      "опыт": 4416,
      "случиться": 4417,
      "хотя": 4418,
      "##ерите": 4419,
      "сист": 4420,
      "проснулся": 4421,
      "родителям": 4422,
      "полицей": 4423,
      "отлично": 4424,
      "отсут": 4425,
      "##рабль": 4426,
      "подруга": 4427,
      "##жество": 4428,
      "Ещё": 4429,
      "Сом": 4430,
      "ово": 4431,
      "##нала": 4432,
      "служ": 4433,
      "##ством": 4434,
      "самой": 4435,
      "самому": 4436,
      "пути": 4437,
      "забыть": 4438,
      "теря": 4439,
      "женаты": 4440,
      "Твои": 4441,
      "забудьте": 4442,
      "влюблён": 4443,
      "смысл": 4444,
      "Учитель": 4445,
      "течение": 4446,
      "университ": 4447,
      "Попроб": 4448,
      "##рип": 4449,
      "кос": 4450,
      "сохра": 4451,
      "Покажи": 4452,
      "убили": 4453,
      "##ежать": 4454,
      "забыла": 4455,
      "большое": 4456,
      "конч": 4457,
      "девушку": 4458,
      "неправда": 4459,
      "учителя": 4460,
      "расстроен": 4461,
      "воскресень": 4462,
      "библиотеке": 4463,
      "пляж": 4464,
      "дядя": 4465,
      "ешь": 4466,
      "жа": 4467,
      "ти": 4468,
      "чет": 4469,
      "Никому": 4470,
      "языках": 4471,
      "##лые": 4472,
      "добав": 4473,
      "сможем": 4474,
      "узнали": 4475,
      "команда": 4476,
      "связаться": 4477,
      "креп": 4478,
      "Идите": 4479,
      "лод": 4480,
      "сдерж": 4481,
      "тё": 4482,
      "управ": 4483,
      "##пал": 4484,
      "##емен": 4485,
      "##тая": 4486,
      "кошек": 4487,
      "##комен": 4488,
      "##нцы": 4489,
      "самого": 4490,
      "свитер": 4491,
      "эн": 4492,
      "пото": 4493,
      "поёт": 4494,
      "знамен": 4495,
      "опла": 4496,
      "опис": 4497,
      "руках": 4498,
      "учё": 4499,
      "мног": 4500,
      "держать": 4501,
      "поцеловать": 4502,
      "30": 4503,
      "Зак": 4504,
      "Оч": 4505,
      "басс": 4506,
      "тре": 4507,
      "##кл": 4508,
      "##ыта": 4509,
      "##нори": 4510,
      "радо": 4511,
      "##рым": 4512,
      "##ствует": 4513,
      "лиш": 4514,
      "сегодняш": 4515,
      "напомина": 4516,
      "понравилась": 4517,
      "##вайтесь": 4518,
      "едят": 4519,
      "Большинство": 4520,
      "тихо": 4521,
      "зо": 4522,
      "сот": 4523,
      "##ьше": 4524,
      "##роду": 4525,
      "обес": 4526,
      "вон": 4527,
      "смогли": 4528,
      "пах": 4529,
      "повес": 4530,
      "дождя": 4531,
      "деревья": 4532,
      "смерть": 4533,
      "газету": 4534,
      "путешествовать": 4535,
      "впервые": 4536,
      "взяли": 4537,
      "небольш": 4538,
      "ресторане": 4539,
      "популяр": 4540,
      "людям": 4541,
      "Раньше": 4542,
      "любимая": 4543,
      "вполне": 4544,
      "##жда": 4545,
      "##роль": 4546,
      "помните": 4547,
      "##чим": 4548,
      "стала": 4549,
      "##анта": 4550,
      "попал": 4551,
      "посад": 4552,
      "##айтесь": 4553,
      "получится": 4554,
      "самолёт": 4555,
      "201": 4556,
      "Земля": 4557,
      "захотел": 4558,
      "Возьми": 4559,
      "Всем": 4560,
      "Йор": 4561,
      "Ла": 4562,
      "срав": 4563,
      "##ума": 4564,
      "присоеди": 4565,
      "поменя": 4566,
      "исч": 4567,
      "свидание": 4568,
      "##ермар": 4569,
      "тысяч": 4570,
      "минуту": 4571,
      "суббот": 4572,
      "Ве": 4573,
      "покажу": 4574,
      "наедине": 4575,
      "##ота": 4576,
      "отчёт": 4577,
      "поддерж": 4578,
      "новой": 4579,
      "хорошим": 4580,
      "опера": 4581,
      "делаем": 4582,
      "пыталась": 4583,
      "надеется": 4584,
      "##ован": 4585,
      "найду": 4586,
      "бутерб": 4587,
      "мечта": 4588,
      "лесу": 4589,
      "галстук": 4590,
      "крова": 4591,
      "ль": 4592,
      "чист": 4593,
      "##уб": 4594,
      "также": 4595,
      "пирог": 4596,
      "##мотря": 4597,
      "вашему": 4598,
      "дорога": 4599,
      "рыба": 4600,
      "Подожди": 4601,
      "концов": 4602,
      "ногу": 4603,
      "войны": 4604,
      "опасности": 4605,
      "паспорт": 4606,
      "плакал": 4607,
      "дай": 4608,
      "праз": 4609,
      "секу": 4610,
      "##гой": 4611,
      "противо": 4612,
      "тороп": 4613,
      "твоих": 4614,
      "одном": 4615,
      "меш": 4616,
      "ведёт": 4617,
      "грузов": 4618,
      "подумать": 4619,
      "Посмотрите": 4620,
      "попробу": 4621,
      "собрание": 4622,
      "Врач": 4623,
      "почувствовал": 4624,
      "бас": 4625,
      "гольф": 4626,
      "зал": 4627,
      "##евер": 4628,
      "##овой": 4629,
      "приказ": 4630,
      "##нуться": 4631,
      "куплю": 4632,
      "смеш": 4633,
      "задание": 4634,
      "войти": 4635,
      "осторожен": 4636,
      "перевести": 4637,
      "супермар": 4638,
      "привлека": 4639,
      "Оставь": 4640,
      "навестить": 4641,
      "здание": 4642,
      "##бку": 4643,
      "##нка": 4644,
      "##дов": 4645,
      "зако": 4646,
      "##матри": 4647,
      "отлож": 4648,
      "видно": 4649,
      "мор": 4650,
      "умнее": 4651,
      "вашем": 4652,
      "разговор": 4653,
      "умеете": 4654,
      "читаю": 4655,
      "бук": 4656,
      "братом": 4657,
      "объяснил": 4658,
      "эксп": 4659,
      "познакомились": 4660,
      "похожи": 4661,
      "##альное": 4662,
      "маленький": 4663,
      "присут": 4664,
      "вставать": 4665,
      "поспать": 4666,
      "забуду": 4667,
      "кольцо": 4668,
      "зооп": 4669,
      "бело": 4670,
      "ги": 4671,
      "гуля": 4672,
      "фи": 4673,
      "##чные": 4674,
      "пово": 4675,
      "##енная": 4676,
      "##емо": 4677,
      "заг": 4678,
      "##лага": 4679,
      "рав": 4680,
      "проголо": 4681,
      "разд": 4682,
      "раздел": 4683,
      "море": 4684,
      "достав": 4685,
      "##цией": 4686,
      "плавает": 4687,
      "веж": 4688,
      "детстве": 4689,
      "подарил": 4690,
      "девушки": 4691,
      "пригласили": 4692,
      "состоит": 4693,
      "аварии": 4694,
      "Очень": 4695,
      "Дев": 4696,
      "дра": 4697,
      "шести": 4698,
      "некоторые": 4699,
      "##лаб": 4700,
      "Вами": 4701,
      "останусь": 4702,
      "родилась": 4703,
      "слышала": 4704,
      "поймал": 4705,
      "глав": 4706,
      "плеч": 4707,
      "слушает": 4708,
      "многих": 4709,
      "лето": 4710,
      "лошадь": 4711,
      "Солнце": 4712,
      "Дождь": 4713,
      "Бил": 4714,
      "Время": 4715,
      "Май": 4716,
      "##иму": 4717,
      "##нется": 4718,
      "##ёст": 4719,
      "##иты": 4720,
      "приезж": 4721,
      "привид": 4722,
      "помы": 4723,
      "оче": 4724,
      "решила": 4725,
      "другую": 4726,
      "##ралась": 4727,
      "добро": 4728,
      "красивые": 4729,
      "непро": 4730,
      "удоб": 4731,
      "рассчитывать": 4732,
      "нелегко": 4733,
      "абсолютно": 4734,
      "дот": 4735,
      "лежит": 4736,
      "сод": 4737,
      "тело": 4738,
      "школь": 4739,
      "##рей": 4740,
      "##жай": 4741,
      "##ково": 4742,
      "выра": 4743,
      "рады": 4744,
      "пробы": 4745,
      "привет": 4746,
      "душ": 4747,
      "делала": 4748,
      "делай": 4749,
      "любой": 4750,
      "Пора": 4751,
      "##сия": 4752,
      "одним": 4753,
      "забыли": 4754,
      "полиции": 4755,
      "странный": 4756,
      "музыка": 4757,
      "границу": 4758,
      "лов": 4759,
      "соч": 4760,
      "##тку": 4761,
      "##ёв": 4762,
      "покры": 4763,
      "прият": 4764,
      "##шев": 4765,
      "больна": 4766,
      "подроб": 4767,
      "верно": 4768,
      "##мок": 4769,
      "языков": 4770,
      "вечно": 4771,
      "беспла": 4772,
      "##ерить": 4773,
      "остановился": 4774,
      "Подожд": 4775,
      "заставить": 4776,
      "фильмы": 4777,
      "найдёт": 4778,
      "постра": 4779,
      "самостоя": 4780,
      "дорогой": 4781,
      "скучаю": 4782,
      "чемодан": 4783,
      "пиццу": 4784,
      "Скоро": 4785,
      "займёт": 4786,
      "Кни": 4787,
      "Обы": 4788,
      "Француз": 4789,
      "мус": 4790,
      "##дент": 4791,
      "##чать": 4792,
      "##ёй": 4793,
      "наше": 4794,
      "##рас": 4795,
      "##тишь": 4796,
      "##рев": 4797,
      "спуст": 4798,
      "##ходил": 4799,
      "правило": 4800,
      "оправ": 4801,
      "которых": 4802,
      "парня": 4803,
      "врача": 4804,
      "солнце": 4805,
      "сильнее": 4806,
      "половины": 4807,
      "вокз": 4808,
      "офисе": 4809,
      "внутрь": 4810,
      "худож": 4811,
      "Лин": 4812,
      "Трудно": 4813,
      "фам": 4814,
      "чт": 4815,
      "##рались": 4816,
      "##хом": 4817,
      "забот": 4818,
      "##лан": 4819,
      "##лады": 4820,
      "проду": 4821,
      "##верг": 4822,
      "рев": 4823,
      "французскому": 4824,
      "напол": 4825,
      "учу": 4826,
      "жену": 4827,
      "скажете": 4828,
      "работаешь": 4829,
      "бабушка": 4830,
      "движ": 4831,
      "крайней": 4832,
      "##навли": 4833,
      "Кол": 4834,
      "Эту": 4835,
      "##рита": 4836,
      "##ерд": 4837,
      "##лиз": 4838,
      "приятно": 4839,
      "Постав": 4840,
      "Какую": 4841,
      "Какого": 4842,
      "живёшь": 4843,
      "##мента": 4844,
      "пара": 4845,
      "Кошка": 4846,
      "ездит": 4847,
      "Будьте": 4848,
      "весьма": 4849,
      "никак": 4850,
      "поблагодарить": 4851,
      "##запно": 4852,
      "фотоаппарат": 4853,
      "Ку": 4854,
      "Оста": 4855,
      "Уже": 4856,
      "трог": 4857,
      "чему": 4858,
      "##интерес": 4859,
      "##нён": 4860,
      "##шен": 4861,
      "подел": 4862,
      "##стер": 4863,
      "##ляйте": 4864,
      "разруш": 4865,
      "##док": 4866,
      "нравлюсь": 4867,
      "многое": 4868,
      "случив": 4869,
      "заняться": 4870,
      "вашим": 4871,
      "Вода": 4872,
      "смогла": 4873,
      "дважды": 4874,
      "похожа": 4875,
      "стороне": 4876,
      "восхи": 4877,
      "очередь": 4878,
      "захочет": 4879,
      "церковь": 4880,
      "Франции": 4881,
      "Итали": 4882,
      "двадцатого": 4883,
      "Кот": 4884,
      "Стра": 4885,
      "кла": 4886,
      "лени": 4887,
      "##нку": 4888,
      "##дение": 4889,
      "неда": 4890,
      "##наче": 4891,
      "рай": 4892,
      "##няет": 4893,
      "##рых": 4894,
      "переб": 4895,
      "##тур": 4896,
      "самых": 4897,
      "веришь": 4898,
      "жесто": 4899,
      "##пуска": 4900,
      "сестру": 4901,
      "горжусь": 4902,
      "коли": 4903,
      "##канчи": 4904,
      "потряс": 4905,
      "преподава": 4906,
      "курсе": 4907,
      "##тически": 4908,
      "видео": 4909,
      "журнал": 4910,
      "Сомневаюсь": 4911,
      "исчез": 4912,
      "самостоятельно": 4913,
      "##кнул": 4914,
      "##гами": 4915,
      "##чного": 4916,
      "неб": 4917,
      "##нимал": 4918,
      "тринадцать": 4919,
      "нашу": 4920,
      "слышу": 4921,
      "врать": 4922,
      "##вяз": 4923,
      "беспокоиться": 4924,
      "извинился": 4925,
      "отказы": 4926,
      "корм": 4927,
      "неприят": 4928,
      "увидеться": 4929,
      "Мол": 4930,
      "Нель": 4931,
      "Чер": 4932,
      "дис": 4933,
      "муд": 4934,
      "неиз": 4935,
      "замен": 4936,
      "##лия": 4937,
      "профес": 4938,
      "##овый": 4939,
      "большие": 4940,
      "созна": 4941,
      "##ременно": 4942,
      "##менты": 4943,
      "красный": 4944,
      "использовать": 4945,
      "предпочитаю": 4946,
      "избавиться": 4947,
      "Дверь": 4948,
      "италь": 4949,
      "рем": 4950,
      "уши": 4951,
      "##жно": 4952,
      "зак": 4953,
      "##едливо": 4954,
      "любила": 4955,
      "столом": 4956,
      "возмож": 4957,
      "##ялась": 4958,
      "Авто": 4959,
      "пытались": 4960,
      "слушал": 4961,
      "Полож": 4962,
      "Господ": 4963,
      "внимательно": 4964,
      "плохого": 4965,
      "домашнее": 4966,
      "отпуск": 4967,
      "разочарован": 4968,
      "двена": 4969,
      "талант": 4970,
      "содерж": 4971,
      "Два": 4972,
      "Ле": 4973,
      "Сначала": 4974,
      "вёл": 4975,
      "речь": 4976,
      "член": 4977,
      "##дом": 4978,
      "приехали": 4979,
      "слег": 4980,
      "##илии": 4981,
      "дому": 4982,
      "одни": 4983,
      "кус": 4984,
      "разговаривает": 4985,
      "разговаривали": 4986,
      "голодный": 4987,
      "дива": 4988,
      "тео": 4989,
      "класс": 4990,
      "списке": 4991,
      "банк": 4992,
      "арестовали": 4993,
      "Позвони": 4994,
      "телевизору": 4995,
      "воспользоваться": 4996,
      "Человек": 4997,
      "Ребёнок": 4998,
      "Нельзя": 4999,
      "Браз": 5000,
      "Кото": 5001,
      "вез": 5002,
      "ды": 5003,
      "ждали": 5004,
      "##пку": 5005,
      "##агаю": 5006,
      "##ске": 5007,
      "##чить": 5008,
      "принимать": 5009,
      "##лоп": 5010,
      "##еза": 5011,
      "видите": 5012,
      "##тые": 5013,
      "Кана": 5014,
      "машиной": 5015,
      "живём": 5016,
      "занятие": 5017,
      "планирую": 5018,
      "##несите": 5019,
      "белый": 5020,
      "команде": 5021,
      "доверяю": 5022,
      "дерева": 5023,
      "пообед": 5024,
      "смысла": 5025,
      "сработает": 5026,
      "груд": 5027,
      "дни": 5028,
      "интер": 5029,
      "трое": 5030,
      "укра": 5031,
      "укус": 5032,
      "цель": 5033,
      "##роз": 5034,
      "наших": 5035,
      "выступ": 5036,
      "##лая": 5037,
      "отдал": 5038,
      "любви": 5039,
      "насколько": 5040,
      "стоя": 5041,
      "##альных": 5042,
      "##ённый": 5043,
      "родной": 5044,
      "языки": 5045,
      "играют": 5046,
      "нашем": 5047,
      "боле": 5048,
      "перево": 5049,
      "##вление": 5050,
      "опоздает": 5051,
      "сможете": 5052,
      "минутку": 5053,
      "необязательно": 5054,
      "шутка": 5055,
      "среди": 5056,
      "ручку": 5057,
      "Обещаю": 5058,
      "отдохнуть": 5059,
      "знаменит": 5060,
      "вну": 5061,
      "##шку": 5062,
      "повы": 5063,
      "##рока": 5064,
      "##рось": 5065,
      "быв": 5066,
      "##тими": 5067,
      "Выб": 5068,
      "##няли": 5069,
      "каш": 5070,
      "##нца": 5071,
      "полот": 5072,
      "стоял": 5073,
      "пожалуй": 5074,
      "руке": 5075,
      "беспол": 5076,
      "оставили": 5077,
      "##лым": 5078,
      "солгал": 5079,
      "лоша": 5080,
      "застен": 5081,
      "адвокат": 5082,
      "орга": 5083,
      "Обычно": 5084,
      "Ар": 5085,
      "##рко": 5086,
      "##нится": 5087,
      "##вёр": 5088,
      "##раво": 5089,
      "зага": 5090,
      "##деся": 5091,
      "низ": 5092,
      "прибли": 5093,
      "нетерп": 5094,
      "живёте": 5095,
      "будущее": 5096,
      "похоро": 5097,
      "играли": 5098,
      "Японию": 5099,
      "кошки": 5100,
      "настоящий": 5101,
      "провели": 5102,
      "возрасте": 5103,
      "автомобил": 5104,
      "внутри": 5105,
      "бутылку": 5106,
      "##ндии": 5107,
      "мёртв": 5108,
      "Кон": 5109,
      "Три": 5110,
      "мел": 5111,
      "охот": 5112,
      "##дить": 5113,
      "##омет": 5114,
      "обра": 5115,
      "вось": 5116,
      "##телем": 5117,
      "##редит": 5118,
      "нравишься": 5119,
      "игруш": 5120,
      "усы": 5121,
      "##летряс": 5122,
      "маленькая": 5123,
      "Перед": 5124,
      "вызвал": 5125,
      "Девоч": 5126,
      "убежд": 5127,
      "Автобу": 5128,
      "иначе": 5129,
      "мяс": 5130,
      "офици": 5131,
      "##шую": 5132,
      "##аки": 5133,
      "конечно": 5134,
      "разоб": 5135,
      "канику": 5136,
      "пожар": 5137,
      "чуде": 5138,
      "боятся": 5139,
      "##ётесь": 5140,
      "##сажи": 5141,
      "работают": 5142,
      "однажды": 5143,
      "сделаете": 5144,
      "неплох": 5145,
      "найдём": 5146,
      "мальчика": 5147,
      "Джоном": 5148,
      "присмот": 5149,
      "ножом": 5150,
      "шляпа": 5151,
      "возвращаться": 5152,
      "кота": 5153,
      "гордится": 5154,
      "возьму": 5155,
      "сахар": 5156,
      "Алжи": 5157,
      "слегка": 5158,
      "Кар": 5159,
      "Сп": 5160,
      "дж": 5161,
      "ков": 5162,
      "##фек": 5163,
      "##вёл": 5164,
      "##года": 5165,
      "пройти": 5166,
      "##нулись": 5167,
      "смотрю": 5168,
      "конца": 5169,
      "колл": 5170,
      "обещание": 5171,
      "жалов": 5172,
      "Слуш": 5173,
      "девочка": 5174,
      "Смотрите": 5175,
      "студентов": 5176,
      "Спроси": 5177,
      "напуган": 5178,
      "снаружи": 5179,
      "Уверен": 5180,
      "Увидимся": 5181,
      "ев": 5182,
      "иен": 5183,
      "трав": 5184,
      "шпи": 5185,
      "заканчи": 5186,
      "##телен": 5187,
      "первой": 5188,
      "Нач": 5189,
      "лиф": 5190,
      "правил": 5191,
      "##елиги": 5192,
      "бесс": 5193,
      "плохая": 5194,
      "плохое": 5195,
      "звонить": 5196,
      "уснул": 5197,
      "песни": 5198,
      "спорить": 5199,
      "новость": 5200,
      "##важно": 5201,
      "четыр": 5202,
      "След": 5203,
      "здоровье": 5204,
      "квартиру": 5205,
      "Держи": 5206,
      "улуч": 5207,
      "кровати": 5208,
      "Подождите": 5209,
      "Долж": 5210,
      "Мать": 5211,
      "граж": 5212,
      "срочно": 5213,
      "##дем": 5214,
      "постара": 5215,
      "##ента": 5216,
      "навещ": 5217,
      "завер": 5218,
      "выж": 5219,
      "провести": 5220,
      "##шими": 5221,
      "##вим": 5222,
      "подготов": 5223,
      "реку": 5224,
      "идём": 5225,
      "пойма": 5226,
      "получили": 5227,
      "сыгра": 5228,
      "##чески": 5229,
      "туф": 5230,
      "надеяться": 5231,
      "семьи": 5232,
      "сторону": 5233,
      "одина": 5234,
      "совета": 5235,
      "угрож": 5236,
      "октябре": 5237,
      "вещь": 5238,
      "инстру": 5239,
      "бумажник": 5240,
      "Нем": 5241,
      "двое": 5242,
      "жар": 5243,
      "кровать": 5244,
      "##нду": 5245,
      "##енные": 5246,
      "##говор": 5247,
      "##ологи": 5248,
      "##ляется": 5249,
      "поддержи": 5250,
      "Наконец": 5251,
      "##чая": 5252,
      "счастливой": 5253,
      "считают": 5254,
      "ненавидел": 5255,
      "отправил": 5256,
      "удивился": 5257,
      "америка": 5258,
      "грустно": 5259,
      "сахара": 5260,
      "огонь": 5261,
      "Кен": 5262,
      "биз": 5263,
      "жёл": 5264,
      "кно": 5265,
      "ото": 5266,
      "означ": 5267,
      "тём": 5268,
      "уто": 5269,
      "цели": 5270,
      "ша": 5271,
      "##юр": 5272,
      "нарочно": 5273,
      "занимаю": 5274,
      "##ожа": 5275,
      "прог": 5276,
      "гос": 5277,
      "горы": 5278,
      "##отреб": 5279,
      "откуда": 5280,
      "##учу": 5281,
      "спаль": 5282,
      "останавли": 5283,
      "жены": 5284,
      "поху": 5285,
      "Привет": 5286,
      "помощью": 5287,
      "Положи": 5288,
      "беспокоится": 5289,
      "кошку": 5290,
      "множество": 5291,
      "ближай": 5292,
      "птиц": 5293,
      "Америке": 5294,
      "беспокойся": 5295,
      "цветов": 5296,
      "##ергия": 5297,
      "оскорб": 5298,
      "Боб": 5299,
      "дайте": 5300,
      "ны": 5301,
      "урок": 5302,
      "храб": 5303,
      "шта": 5304,
      "##нете": 5305,
      "##щему": 5306,
      "##нин": 5307,
      "##ответ": 5308,
      "помнит": 5309,
      "##гими": 5310,
      "мар": 5311,
      "платить": 5312,
      "оптими": 5313,
      "будущем": 5314,
      "##дых": 5315,
      "смотрели": 5316,
      "показы": 5317,
      "победил": 5318,
      "солда": 5319,
      "закрыть": 5320,
      "песня": 5321,
      "склон": 5322,
      "вечеринке": 5323,
      "целый": 5324,
      "стул": 5325,
      "побыть": 5326,
      "громко": 5327,
      "поиграть": 5328,
      "заблуд": 5329,
      "бутерброд": 5330,
      "Французский": 5331,
      "недавно": 5332,
      "Вся": 5333,
      "араб": 5334,
      "зерк": 5335,
      "зимой": 5336,
      "рак": 5337,
      "##третьего": 5338,
      "##ален": 5339,
      "поис": 5340,
      "нав": 5341,
      "нак": 5342,
      "господ": 5343,
      "причина": 5344,
      "отцу": 5345,
      "мысли": 5346,
      "##ант": 5347,
      "распро": 5348,
      "располож": 5349,
      "##альной": 5350,
      "##альным": 5351,
      "давайте": 5352,
      "Пробл": 5353,
      "выглядите": 5354,
      "парк": 5355,
      "встрече": 5356,
      "карты": 5357,
      "полиция": 5358,
      "необы": 5359,
      "занимался": 5360,
      "выигры": 5361,
      "бумаги": 5362,
      "немецки": 5363,
      "мужчин": 5364,
      "успеха": 5365,
      "стес": 5366,
      "обнаружил": 5367,
      "заплатили": 5368,
      "поженились": 5369,
      "Автобус": 5370,
      "учит": 5371,
      "задал": 5372,
      "выходит": 5373,
      "прошёл": 5374,
      "восто": 5375,
      "разли": 5376,
      "##сион": 5377,
      "пожале": 5378,
      "кури": 5379,
      "семью": 5380,
      "мужа": 5381,
      "бана": 5382,
      "Будем": 5383,
      "недоо": 5384,
      "терпели": 5385,
      "животное": 5386,
      "образом": 5387,
      "идиот": 5388,
      "кровь": 5389,
      "электрон": 5390,
      "идут": 5391,
      "чрез": 5392,
      "##нению": 5393,
      "##ключи": 5394,
      "рабо": 5395,
      "пришел": 5396,
      "отрав": 5397,
      "отпустить": 5398,
      "всей": 5399,
      "воро": 5400,
      "##чий": 5401,
      "полтретьего": 5402,
      "нравился": 5403,
      "старая": 5404,
      "##ботиться": 5405,
      "вечера": 5406,
      "остались": 5407,
      "поняли": 5408,
      "звонит": 5409,
      "терять": 5410,
      "простуд": 5411,
      "фотография": 5412,
      "нового": 5413,
      "Работ": 5414,
      "камень": 5415,
      "мужчины": 5416,
      "ванну": 5417,
      "начальник": 5418,
      "выяснить": 5419,
      "нервнич": 5420,
      "Англии": 5421,
      "воскресеньям": 5422,
      "моб": 5423,
      "физ": 5424,
      "посе": 5425,
      "наж": 5426,
      "##коп": 5427,
      "##стати": 5428,
      "##няла": 5429,
      "слёз": 5430,
      "##тели": 5431,
      "перен": 5432,
      "мысл": 5433,
      "хорошую": 5434,
      "женой": 5435,
      "молода": 5436,
      "написала": 5437,
      "работаете": 5438,
      "коллек": 5439,
      "сделано": 5440,
      "свободен": 5441,
      "поступил": 5442,
      "тяжело": 5443,
      "Прекрати": 5444,
      "месяцев": 5445,
      "намерен": 5446,
      "лестнице": 5447,
      "случивш": 5448,
      "полотен": 5449,
      "религи": 5450,
      "сму": 5451,
      "фер": 5452,
      "##уществ": 5453,
      "##щую": 5454,
      "##каф": 5455,
      "вызы": 5456,
      "##ланд": 5457,
      "говорим": 5458,
      "моря": 5459,
      "##айт": 5460,
      "живет": 5461,
      "хорошей": 5462,
      "##ённым": 5463,
      "##енности": 5464,
      "идёшь": 5465,
      "##знаком": 5466,
      "игнори": 5467,
      "##ческие": 5468,
      "бага": 5469,
      "многие": 5470,
      "вызвать": 5471,
      "спросила": 5472,
      "роста": 5473,
      "немецкий": 5474,
      "братья": 5475,
      "крови": 5476,
      "аэропорт": 5477,
      "факт": 5478,
      "картину": 5479,
      "Спросите": 5480,
      "президен": 5481,
      "стыдно": 5482,
      "Вз": 5483,
      "Са": 5484,
      "сдал": 5485,
      "тек": 5486,
      "##гер": 5487,
      "##нешь": 5488,
      "##асть": 5489,
      "##вис": 5490,
      "винов": 5491,
      "##анное": 5492,
      "переста": 5493,
      "смотрите": 5494,
      "существо": 5495,
      "оставила": 5496,
      "искать": 5497,
      "основ": 5498,
      "идеи": 5499,
      "ненавидят": 5500,
      "Полагаю": 5501,
      "отправить": 5502,
      "начинаю": 5503,
      "##корм": 5504,
      "##кройте": 5505,
      "сомне": 5506,
      "второй": 5507,
      "электри": 5508,
      "заслуживает": 5509,
      "приедет": 5510,
      "прибыл": 5511,
      "Позвоните": 5512,
      "уговорить": 5513,
      "утверж": 5514,
      "Машина": 5515,
      "Мал": 5516,
      "Ри": 5517,
      "Си": 5518,
      "Суд": 5519,
      "ждём": 5520,
      "прыг": 5521,
      "тел": 5522,
      "уед": 5523,
      "ушло": 5524,
      "##бер": 5525,
      "##вей": 5526,
      "##лот": 5527,
      "##уют": 5528,
      "##чным": 5529,
      "##роваться": 5530,
      "##вобод": 5531,
      "##лик": 5532,
      "##ольз": 5533,
      "##реж": 5534,
      "обув": 5535,
      "##лят": 5536,
      "ката": 5537,
      "подходит": 5538,
      "предо": 5539,
      "##удар": 5540,
      "лучшая": 5541,
      "останется": 5542,
      "пусто": 5543,
      "сига": 5544,
      "Принеси": 5545,
      "##тельная": 5546,
      "война": 5547,
      "животные": 5548,
      "признал": 5549,
      "взяла": 5550,
      "Делай": 5551,
      "случившемся": 5552,
      "Мар": 5553,
      "##где": 5554,
      "##коре": 5555,
      "##нужд": 5556,
      "домом": 5557,
      "##ствую": 5558,
      "нравилось": 5559,
      "руль": 5560,
      "путь": 5561,
      "собираемся": 5562,
      "пережи": 5563,
      "водой": 5564,
      "недель": 5565,
      "##ческой": 5566,
      "##имость": 5567,
      "##едлен": 5568,
      "продолжать": 5569,
      "яблоки": 5570,
      "совету": 5571,
      "##опыт": 5572,
      "длинные": 5573,
      "алл": 5574,
      "прочитал": 5575,
      "Поверить": 5576,
      "доказать": 5577,
      "сбежать": 5578,
      "исправить": 5579,
      "прожил": 5580,
      "празд": 5581,
      "баскет": 5582,
      "Ба": 5583,
      "роз": 5584,
      "уров": 5585,
      "эконом": 5586,
      "##пли": 5587,
      "##рами": 5588,
      "##ними": 5589,
      "провал": 5590,
      "слома": 5591,
      "видит": 5592,
      "расскаж": 5593,
      "през": 5594,
      "боишься": 5595,
      "основа": 5596,
      "смешно": 5597,
      "вернулись": 5598,
      "Япония": 5599,
      "поедем": 5600,
      "настоящее": 5601,
      "японский": 5602,
      "проводить": 5603,
      "ровес": 5604,
      "оружие": 5605,
      "Киото": 5606,
      "напоминает": 5607,
      "»,": 5608,
      "Вой": 5609,
      "Чика": 5610,
      "аг": 5611,
      "бой": 5612,
      "вред": 5613,
      "дыш": 5614,
      "слад": 5615,
      "схват": 5616,
      "шкаф": 5617,
      "##скать": 5618,
      "##хода": 5619,
      "##ып": 5620,
      "несп": 5621,
      "небе": 5622,
      "##ристи": 5623,
      "##ковать": 5624,
      "##лично": 5625,
      "выта": 5626,
      "проек": 5627,
      "##лось": 5628,
      "руками": 5629,
      "решать": 5630,
      "##ования": 5631,
      "канадка": 5632,
      "участи": 5633,
      "двум": 5634,
      "центре": 5635,
      "пенсию": 5636,
      "Парк": 5637,
      "жили": 5638,
      "жерт": 5639,
      "рот": 5640,
      "чая": 5641,
      "##кс": 5642,
      "нечто": 5643,
      "заинтерес": 5644,
      "корабль": 5645,
      "##стья": 5646,
      "разница": 5647,
      "##доров": 5648,
      "людь": 5649,
      "стола": 5650,
      "правдой": 5651,
      "реке": 5652,
      "тринадца": 5653,
      "убит": 5654,
      "Прод": 5655,
      "рассказала": 5656,
      "вари": 5657,
      "ваших": 5658,
      "перео": 5659,
      "английского": 5660,
      "письмен": 5661,
      "научить": 5662,
      "узнает": 5663,
      "убедил": 5664,
      "улыбнулся": 5665,
      "перестать": 5666,
      "двиг": 5667,
      "уйдёт": 5668,
      "хлеба": 5669,
      "Сделайте": 5670,
      "спорт": 5671,
      "менее": 5672,
      "зарабатывает": 5673,
      "раздраж": 5674,
      "кнопку": 5675,
      "работой": 5676,
      "обувь": 5677,
      "людьми": 5678,
      "ге": 5679,
      "##сю": 5680,
      "##хе": 5681,
      "##тон": 5682,
      "##рон": 5683,
      "наиз": 5684,
      "продал": 5685,
      "будьте": 5686,
      "Напи": 5687,
      "##вее": 5688,
      "планет": 5689,
      "рассме": 5690,
      "жене": 5691,
      "Вооб": 5692,
      "пау": 5693,
      "французским": 5694,
      "умерли": 5695,
      "Больш": 5696,
      "встречается": 5697,
      "ладно": 5698,
      "землетряс": 5699,
      "приготовил": 5700,
      "трубку": 5701,
      "значения": 5702,
      "Бога": 5703,
      "данный": 5704,
      "зрения": 5705,
      "итальян": 5706,
      "Чикаго": 5707,
      "\"?": 5708,
      "Би": 5709,
      "Теле": 5710,
      "днев": 5711,
      "пси": 5712,
      "##реты": 5713,
      "##зм": 5714,
      "##веди": 5715,
      "##лку": 5716,
      "##тое": 5717,
      "##тоци": 5718,
      "небо": 5719,
      "ненад": 5720,
      "##риться": 5721,
      "проще": 5722,
      "приступ": 5723,
      "спеть": 5724,
      "сок": 5725,
      "матер": 5726,
      "вернулась": 5727,
      "##пусти": 5728,
      "получила": 5729,
      "разгово": 5730,
      "последние": 5731,
      "согласиться": 5732,
      "трудом": 5733,
      "жизнью": 5734,
      "успе": 5735,
      "покупа": 5736,
      "молодой": 5737,
      "чёрный": 5738,
      "врачом": 5739,
      "назвал": 5740,
      "поймали": 5741,
      "значение": 5742,
      "каждого": 5743,
      "заказал": 5744,
      "выключил": 5745,
      "злится": 5746,
      "означает": 5747,
      "влия": 5748,
      "зме": 5749,
      "##шение": 5750,
      "##ёта": 5751,
      "##ограм": 5752,
      "ниже": 5753,
      "провер": 5754,
      "общ": 5755,
      "##ляют": 5756,
      "каким": 5757,
      "помол": 5758,
      "больно": 5759,
      "старые": 5760,
      "расслаб": 5761,
      "переезж": 5762,
      "получилось": 5763,
      "Джейн": 5764,
      "доверял": 5765,
      "практи": 5766,
      "изучает": 5767,
      "семьёй": 5768,
      "одолжил": 5769,
      "прочесть": 5770,
      "Соеди": 5771,
      "толст": 5772,
      "форму": 5773,
      "дурак": 5774,
      "пляже": 5775,
      "отвезти": 5776,
      "стараюсь": 5777,
      "поведение": 5778,
      "костюм": 5779,
      "пострадал": 5780,
      "несправ": 5781,
      "Продолж": 5782,
      "Те": 5783,
      "осо": 5784,
      "ше": 5785,
      "ясно": 5786,
      "##они": 5787,
      "##ясь": 5788,
      "##ыты": 5789,
      "поуж": 5790,
      "##дам": 5791,
      "##дании": 5792,
      "ранен": 5793,
      "конец": 5794,
      "##шись": 5795,
      "размер": 5796,
      "моз": 5797,
      "расст": 5798,
      "умр": 5799,
      "учеб": 5800,
      "боли": 5801,
      "испуг": 5802,
      "имеют": 5803,
      "##ческая": 5804,
      "##пись": 5805,
      "считал": 5806,
      "солнеч": 5807,
      "подождал": 5808,
      "успеш": 5809,
      "границей": 5810,
      "свидет": 5811,
      "акт": 5812,
      "потеряли": 5813,
      "обвиня": 5814,
      "зависит": 5815,
      "алкого": 5816,
      "очереди": 5817,
      "вместо": 5818,
      "зарплата": 5819,
      "##чайно": 5820,
      "человечес": 5821,
      "диване": 5822,
      "10": 5823,
      "Сло": 5824,
      "бар": 5825,
      "оре": 5826,
      "увели": 5827,
      "##фри": 5828,
      "##лав": 5829,
      "всерьёз": 5830,
      "##рус": 5831,
      "спят": 5832,
      "любопыт": 5833,
      "работали": 5834,
      "подчи": 5835,
      "верите": 5836,
      "школа": 5837,
      "разговариваю": 5838,
      "##бий": 5839,
      "ищешь": 5840,
      "Помог": 5841,
      "птицы": 5842,
      "взглянуть": 5843,
      "судь": 5844,
      "звучит": 5845,
      "настроении": 5846,
      "собрании": 5847,
      "баскетбол": 5848,
      "Куп": 5849,
      "сэ": 5850,
      "##тал": 5851,
      "##рис": 5852,
      "нашим": 5853,
      "обез": 5854,
      "переры": 5855,
      "столь": 5856,
      "рука": 5857,
      "##ласс": 5858,
      "страну": 5859,
      "курит": 5860,
      "несколь": 5861,
      "вчераш": 5862,
      "##ительство": 5863,
      "поехали": 5864,
      "папа": 5865,
      "согласится": 5866,
      "упала": 5867,
      "писал": 5868,
      "команды": 5869,
      "разрешения": 5870,
      "торт": 5871,
      "влюблена": 5872,
      "специально": 5873,
      "##шевле": 5874,
      "неприятности": 5875,
      "Проблема": 5876,
      "матерью": 5877,
      "Вели": 5878,
      "Доро": 5879,
      "Неб": 5880,
      "ию": 5881,
      "исти": 5882,
      "сф": 5883,
      "скам": 5884,
      "яи": 5885,
      "##ись": 5886,
      "##цени": 5887,
      "##лась": 5888,
      "##образ": 5889,
      "##ойти": 5890,
      "##няка": 5891,
      "разум": 5892,
      "##алат": 5893,
      "##ителей": 5894,
      "##гах": 5895,
      "насел": 5896,
      "стоить": 5897,
      "коммента": 5898,
      "верёв": 5899,
      "совпа": 5900,
      "языком": 5901,
      "получше": 5902,
      "сыну": 5903,
      "каждую": 5904,
      "встретить": 5905,
      "успоко": 5906,
      "Твоё": 5907,
      "белая": 5908,
      "пригласить": 5909,
      "доверяет": 5910,
      "Послед": 5911,
      "ложь": 5912,
      "близко": 5913,
      "здоровья": 5914,
      "квартире": 5915,
      "уставшим": 5916,
      "разбудить": 5917,
      "взрослый": 5918,
      "Париже": 5919,
      "память": 5920,
      "овощи": 5921,
      "Ан": 5922,
      "Га": 5923,
      "Дэн": 5924,
      "бал": 5925,
      "бежать": 5926,
      "зря": 5927,
      "##дая": 5928,
      "задерж": 5929,
      "ран": 5930,
      "##кими": 5931,
      "##рец": 5932,
      "##ляться": 5933,
      "мотоци": 5934,
      "##естра": 5935,
      "перча": 5936,
      "плач": 5937,
      "вернуть": 5938,
      "пишу": 5939,
      "прекра": 5940,
      "прекрат": 5941,
      "запах": 5942,
      "занятия": 5943,
      "паци": 5944,
      "имеешь": 5945,
      "согласны": 5946,
      "устали": 5947,
      "закончили": 5948,
      "друзьям": 5949,
      "##щества": 5950,
      "недоста": 5951,
      "высокая": 5952,
      "землю": 5953,
      "Именно": 5954,
      "поставил": 5955,
      "Оставьте": 5956,
      "посетить": 5957,
      "Любов": 5958,
      "достал": 5959,
      "килограм": 5960,
      "сумасшедший": 5961,
      "Попроси": 5962,
      "Европе": 5963,
      "пахнет": 5964,
      "поводу": 5965,
      "багаж": 5966,
      "Шта": 5967,
      "дож": 5968,
      "ждут": 5969,
      "круг": 5970,
      "мнения": 5971,
      "оке": 5972,
      "рос": 5973,
      "сюр": 5974,
      "##ий": 5975,
      "##ири": 5976,
      "##аются": 5977,
      "##дался": 5978,
      "##ъяс": 5979,
      "нев": 5980,
      "недал": 5981,
      "##еное": 5982,
      "##ерва": 5983,
      "вынужд": 5984,
      "принести": 5985,
      "отеле": 5986,
      "общего": 5987,
      "##бые": 5988,
      "помеш": 5989,
      "долг": 5990,
      "##ителем": 5991,
      "##ственность": 5992,
      "##утся": 5993,
      "лица": 5994,
      "правды": 5995,
      "вещей": 5996,
      "лучшее": 5997,
      "другому": 5998,
      "##мора": 5999,
      "слышно": 6000,
      "сид": 6001,
      "которым": 6002,
      "испыты": 6003,
      "##отографи": 6004,
      "планируете": 6005,
      "увидела": 6006,
      "Пойди": 6007,
      "попрощ": 6008,
      "младше": 6009,
      "беспокойтесь": 6010,
      "приняли": 6011,
      "Татоэба": 6012,
      "широ": 6013,
      "Джексон": 6014,
      "Ладно": 6015,
      "очевидно": 6016,
      "государ": 6017,
      "аллергия": 6018,
      "Гол": 6019,
      "Интер": 6020,
      "Китай": 6021,
      "Нуж": 6022,
      "ам": 6023,
      "тёт": 6024,
      "трат": 6025,
      "фун": 6026,
      "##пет": 6027,
      "##тый": 6028,
      "##мой": 6029,
      "##хран": 6030,
      "##чных": 6031,
      "##ёзы": 6032,
      "поти": 6033,
      "##ерен": 6034,
      "##ливый": 6035,
      "##стаи": 6036,
      "##шишь": 6037,
      "додел": 6038,
      "любили": 6039,
      "смен": 6040,
      "триста": 6041,
      "книж": 6042,
      "книге": 6043,
      "послал": 6044,
      "остаётся": 6045,
      "учится": 6046,
      "произвести": 6047,
      "##сок": 6048,
      "карту": 6049,
      "смеялся": 6050,
      "изучаю": 6051,
      "снега": 6052,
      "деревне": 6053,
      "поцел": 6054,
      "самоу": 6055,
      "рубашка": 6056,
      "тюрьмы": 6057,
      "Америку": 6058,
      "минуты": 6059,
      "опаздывает": 6060,
      "метро": 6061,
      "дедушка": 6062,
      "темноты": 6063,
      "хватать": 6064,
      "подожду": 6065,
      "невиновен": 6066,
      "километ": 6067,
      "стену": 6068,
      "России": 6069,
      "клуб": 6070,
      "уволить": 6071,
      "потратил": 6072,
      "Совет": 6073,
      "звук": 6074,
      "Положите": 6075,
      "чрезвы": 6076,
      "Вообще": 6077,
      "скамей": 6078,
      "сюрпри": 6079,
      "18": 6080,
      "Бел": 6081,
      "Ешь": 6082,
      "брю": 6083,
      "нали": 6084,
      "сни": 6085,
      "##ании": 6086,
      "##вую": 6087,
      "##лён": 6088,
      "##ьё": 6089,
      "##еля": 6090,
      "нау": 6091,
      "провед": 6092,
      "процен": 6093,
      "придёшь": 6094,
      "##лок": 6095,
      "разв": 6096,
      "##чишь": 6097,
      "стрит": 6098,
      "подруж": 6099,
      "##екси": 6100,
      "##тыми": 6101,
      "рукой": 6102,
      "мини": 6103,
      "завтрака": 6104,
      "головой": 6105,
      "повред": 6106,
      "словами": 6107,
      "##ствием": 6108,
      "##енок": 6109,
      "польз": 6110,
      "скучает": 6111,
      "птица": 6112,
      "тяжёл": 6113,
      "обидел": 6114,
      "печенье": 6115,
      "маме": 6116,
      "Знаешь": 6117,
      "волнует": 6118,
      "Париж": 6119,
      "холодильнике": 6120,
      "Деньги": 6121,
      "зоопарк": 6122,
      "##лизости": 6123,
      "мяса": 6124,
      "Любовь": 6125,
      "джин": 6126,
      "лев": 6127,
      "меди": 6128,
      "пя": 6129,
      "свер": 6130,
      "##бом": 6131,
      "##овлет": 6132,
      "принимаю": 6133,
      "##ходят": 6134,
      "Поэ": 6135,
      "плачу": 6136,
      "став": 6137,
      "верши": 6138,
      "##мого": 6139,
      "осень": 6140,
      "семи": 6141,
      "старший": 6142,
      "единственным": 6143,
      "беспокоюсь": 6144,
      "задачу": 6145,
      "выбрать": 6146,
      "носить": 6147,
      "приходится": 6148,
      "предпочёл": 6149,
      "сожалею": 6150,
      "билеты": 6151,
      "арми": 6152,
      "##питан": 6153,
      "родственники": 6154,
      "Постарайся": 6155,
      "притвори": 6156,
      "Девушка": 6157,
      "физи": 6158,
      "двумя": 6159,
      "ито": 6160,
      "кис": 6161,
      "пле": 6162,
      "рома": 6163,
      "##щен": 6164,
      "##куп": 6165,
      "перего": 6166,
      "##люб": 6167,
      "напряж": 6168,
      "##колеп": 6169,
      "миро": 6170,
      "передо": 6171,
      "звонок": 6172,
      "поможешь": 6173,
      "##чества": 6174,
      "планируешь": 6175,
      "называют": 6176,
      "держит": 6177,
      "встречался": 6178,
      "глазами": 6179,
      "богатый": 6180,
      "обманы": 6181,
      "вдруг": 6182,
      "глубоко": 6183,
      "учеников": 6184,
      "здорово": 6185,
      "Прошлой": 6186,
      "касается": 6187,
      "тёп": 6188,
      "##коменд": 6189,
      "Книга": 6190,
      "загад": 6191,
      "чрезвычайно": 6192,
      "Кстати": 6193,
      "врёт": 6194,
      "кредит": 6195,
      "пел": 6196,
      "##цеп": 6197,
      "##чей": 6198,
      "##ьёт": 6199,
      "##стил": 6200,
      "##стре": 6201,
      "чтоб": 6202,
      "проигра": 6203,
      "присл": 6204,
      "откро": 6205,
      "конь": 6206,
      "сорок": 6207,
      "носки": 6208,
      "деньгами": 6209,
      "смотришь": 6210,
      "пароль": 6211,
      "##атр": 6212,
      "просили": 6213,
      "##рится": 6214,
      "Коро": 6215,
      "порт": 6216,
      "интересует": 6217,
      "положить": 6218,
      "ездили": 6219,
      "голове": 6220,
      "настоящему": 6221,
      "попробую": 6222,
      "поступить": 6223,
      "Помоги": 6224,
      "записку": 6225,
      "пассажи": 6226,
      "принадлеж": 6227,
      "прочитать": 6228,
      "нуждается": 6229,
      "Правда": 6230,
      "Попробуй": 6231,
      "2013": 6232,
      "треть": 6233,
      "честь": 6234,
      "##око": 6235,
      "##жду": 6236,
      "##жёг": 6237,
      "##чной": 6238,
      "##ывал": 6239,
      "##етти": 6240,
      "нарко": 6241,
      "##итая": 6242,
      "##тики": 6243,
      "прошла": 6244,
      "отель": 6245,
      "##итера": 6246,
      "избеж": 6247,
      "большим": 6248,
      "##туи": 6249,
      "##уюсь": 6250,
      "попасть": 6251,
      "предсказ": 6252,
      "плана": 6253,
      "писто": 6254,
      "умол": 6255,
      "девя": 6256,
      "довери": 6257,
      "врачу": 6258,
      "изучал": 6259,
      "извиняться": 6260,
      "скрип": 6261,
      "свободно": 6262,
      "улыбается": 6263,
      "прекрасный": 6264,
      "цветок": 6265,
      "Перестаньте": 6266,
      "принесу": 6267,
      "болезнь": 6268,
      "Мужчина": 6269,
      "обсудить": 6270,
      "предупреждал": 6271,
      "выстрелил": 6272,
      "небольшой": 6273,
      "грузовик": 6274,
      "Бразилии": 6275,
      "застенчи": 6276,
      "##едленнее": 6277,
      "Ост": 6278,
      "дя": 6279,
      "ели": 6280,
      "мерт": 6281,
      "##оруж": 6282,
      "##нений": 6283,
      "##лов": 6284,
      "##яю": 6285,
      "##щил": 6286,
      "##щение": 6287,
      "нед": 6288,
      "##елю": 6289,
      "выраз": 6290,
      "отп": 6291,
      "##нят": 6292,
      "##нятия": 6293,
      "делайте": 6294,
      "разм": 6295,
      "таком": 6296,
      "монет": 6297,
      "полчас": 6298,
      "##ителен": 6299,
      "##щик": 6300,
      "речи": 6301,
      "давать": 6302,
      "машин": 6303,
      "убира": 6304,
      "позвонит": 6305,
      "начался": 6306,
      "пойдёшь": 6307,
      "ошибкой": 6308,
      "посмотрим": 6309,
      "туал": 6310,
      "опоздали": 6311,
      "автобуса": 6312,
      "положиться": 6313,
      "поездку": 6314,
      "отправился": 6315,
      "Хотя": 6316,
      "держал": 6317,
      "разбира": 6318,
      "глух": 6319,
      "силён": 6320,
      "разочарова": 6321,
      "настроение": 6322,
      "медвед": 6323,
      "позволил": 6324,
      "столица": 6325,
      "восьми": 6326,
      "чудес": 6327,
      "недалеко": 6328,
      "полчаса": 6329,
      "Много": 6330,
      "тест": 6331,
      "эго": 6332,
      "##аюсь": 6333,
      "##лез": 6334,
      "##юз": 6335,
      "наив": 6336,
      "проте": 6337,
      "проси": 6338,
      "знак": 6339,
      "##очку": 6340,
      "копи": 6341,
      "сплю": 6342,
      "Погода": 6343,
      "##редото": 6344,
      "ношу": 6345,
      "##часто": 6346,
      "##ушку": 6347,
      "хорошего": 6348,
      "##ровала": 6349,
      "запол": 6350,
      "открыта": 6351,
      "собаке": 6352,
      "старался": 6353,
      "подождём": 6354,
      "возможности": 6355,
      "великолеп": 6356,
      "уезжать": 6357,
      "засме": 6358,
      "Извини": 6359,
      "чаще": 6360,
      "предупредил": 6361,
      "владе": 6362,
      "сбежал": 6363,
      "тепло": 6364,
      "профессион": 6365,
      "потише": 6366,
      "Лей": 6367,
      "Мир": 6368,
      "Най": 6369,
      "Тем": 6370,
      "аль": 6371,
      "втор": 6372,
      "еж": 6373,
      "леж": 6374,
      "оцен": 6375,
      "упа": 6376,
      "шар": 6377,
      "##нк": 6378,
      "##рий": 6379,
      "##рич": 6380,
      "заго": 6381,
      "проп": 6382,
      "проц": 6383,
      "коров": 6384,
      "спро": 6385,
      "первого": 6386,
      "##ителя": 6387,
      "опу": 6388,
      "позвонила": 6389,
      "деш": 6390,
      "ходила": 6391,
      "контра": 6392,
      "узнала": 6393,
      "поможем": 6394,
      "встречались": 6395,
      "коробке": 6396,
      "преподаёт": 6397,
      "требуется": 6398,
      "благодарен": 6399,
      "Самол": 6400,
      "миллион": 6401,
      "палец": 6402,
      "энерги": 6403,
      "продук": 6404,
      "утверждает": 6405,
      "участие": 6406,
      "Бер": 6407,
      "Брось": 6408,
      "Держ": 6409,
      "Единствен": 6410,
      "См": 6411,
      "ат": 6412,
      "сч": 6413,
      "уста": 6414,
      "шаг": 6415,
      "##ьи": 6416,
      "незнаком": 6417,
      "##енты": 6418,
      "##рога": 6419,
      "##вос": 6420,
      "заду": 6421,
      "пробуд": 6422,
      "изменя": 6423,
      "##естно": 6424,
      "хороших": 6425,
      "##выми": 6426,
      "взры": 6427,
      "играешь": 6428,
      "голу": 6429,
      "предложений": 6430,
      "сыр": 6431,
      "##ёрз": 6432,
      "горло": 6433,
      "музей": 6434,
      "услови": 6435,
      "простит": 6436,
      "ищете": 6437,
      "выбрали": 6438,
      "продолжал": 6439,
      "приходил": 6440,
      "жалоб": 6441,
      "предпочита": 6442,
      "Полицей": 6443,
      "тратить": 6444,
      "звёз": 6445,
      "удовлет": 6446,
      "благодар": 6447,
      "пробовал": 6448,
      "повторя": 6449,
      "независ": 6450,
      "блед": 6451,
      "принимает": 6452,
      "свадьбу": 6453,
      "лжёт": 6454,
      "помыть": 6455,
      "фамилия": 6456,
      "везёт": 6457,
      "итоге": 6458,
      "Игра": 6459,
      "Сказ": 6460,
      "юмора": 6461,
      "невер": 6462,
      "##роят": 6463,
      "вышли": 6464,
      "такими": 6465,
      "##реди": 6466,
      "расп": 6467,
      "##ального": 6468,
      "##ильник": 6469,
      "кук": 6470,
      "##ственный": 6471,
      "начн": 6472,
      "исслед": 6473,
      "молча": 6474,
      "волно": 6475,
      "встретимся": 6476,
      "красное": 6477,
      "любимое": 6478,
      "терпение": 6479,
      "поцеловала": 6480,
      "попробовал": 6481,
      "словно": 6482,
      "ветер": 6483,
      "доказатель": 6484,
      "подозревал": 6485,
      "приглашение": 6486,
      "казалось": 6487,
      "уговорил": 6488,
      "Лондон": 6489,
      "Лондоне": 6490,
      "чувствуешь": 6491,
      "Надень": 6492,
      "мороженое": 6493,
      "попробуем": 6494,
      "Девочка": 6495,
      "четырёх": 6496,
      "туфли": 6497,
      "бизнес": 6498,
      "##сюду": 6499,
      "дневник": 6500,
      "сюрприз": 6501,
      "Бол": 6502,
      "плю": 6503,
      "нео": 6504,
      "непо": 6505,
      "поре": 6506,
      "покаж": 6507,
      "##нор": 6508,
      "##стить": 6509,
      "заработ": 6510,
      "##тий": 6511,
      "приоб": 6512,
      "придёте": 6513,
      "дур": 6514,
      "изо": 6515,
      "##чины": 6516,
      "соблю": 6517,
      "стану": 6518,
      "##ённо": 6519,
      "летать": 6520,
      "собираются": 6521,
      "переехать": 6522,
      "Принесите": 6523,
      "красива": 6524,
      "написано": 6525,
      "конс": 6526,
      "подарки": 6527,
      "##пустите": 6528,
      "странное": 6529,
      "Будет": 6530,
      "мяг": 6531,
      "способен": 6532,
      "путешествие": 6533,
      "причин": 6534,
      "домашнюю": 6535,
      "оказался": 6536,
      "поставить": 6537,
      "созда": 6538,
      "послушать": 6539,
      "счастье": 6540,
      "Однажды": 6541,
      "Маша": 6542,
      "температура": 6543,
      "крепко": 6544,
      "Через": 6545,
      "зеркало": 6546,
      "Афри": 6547,
      "Бра": 6548,
      "Этим": 6549,
      "жале": 6550,
      "ощу": 6551,
      "сход": 6552,
      "сайт": 6553,
      "##онов": 6554,
      "##тк": 6555,
      "##усь": 6556,
      "##усп": 6557,
      "нечасто": 6558,
      "порез": 6559,
      "##енка": 6560,
      "##етари": 6561,
      "обу": 6562,
      "##няется": 6563,
      "коп": 6564,
      "##лялся": 6565,
      "сопро": 6566,
      "подходя": 6567,
      "почерк": 6568,
      "##егетари": 6569,
      "даст": 6570,
      "даёт": 6571,
      "##ждал": 6572,
      "соврем": 6573,
      "боитесь": 6574,
      "куль": 6575,
      "увидимся": 6576,
      "##сона": 6577,
      "встать": 6578,
      "проблемой": 6579,
      "сестрой": 6580,
      "объяснять": 6581,
      "езжу": 6582,
      "света": 6583,
      "убедиться": 6584,
      "риск": 6585,
      "король": 6586,
      "##ничто": 6587,
      "сложный": 6588,
      "одиночку": 6589,
      "заснул": 6590,
      "внеш": 6591,
      "ситуация": 6592,
      "рассчиты": 6593,
      "покрасн": 6594,
      "крайне": 6595,
      "контроль": 6596,
      "математике": 6597,
      "стреля": 6598,
      "Женщины": 6599,
      "аэропорту": 6600,
      "выйдет": 6601,
      "ненадолго": 6602,
      "нескольких": 6603,
      "Вне": 6604,
      "Дет": 6605,
      "Оп": 6606,
      "Сне": 6607,
      "блю": 6608,
      "древ": 6609,
      "оконч": 6610,
      "тран": 6611,
      "уходит": 6612,
      "##фа": 6613,
      "##леч": 6614,
      "надеть": 6615,
      "выстав": 6616,
      "вызов": 6617,
      "рабоч": 6618,
      "##уди": 6619,
      "разные": 6620,
      "доступ": 6621,
      "большин": 6622,
      "##чие": 6623,
      "##туг": 6624,
      "##туда": 6625,
      "старин": 6626,
      "Прошу": 6627,
      "бокал": 6628,
      "##тельным": 6629,
      "дороже": 6630,
      "##ческую": 6631,
      "согласились": 6632,
      "тури": 6633,
      "слушаю": 6634,
      "ненавидишь": 6635,
      "##ствии": 6636,
      "выбрал": 6637,
      "поможете": 6638,
      "скучал": 6639,
      "банке": 6640,
      "сломан": 6641,
      "сидели": 6642,
      "отношение": 6643,
      "золото": 6644,
      "вперёд": 6645,
      "ванной": 6646,
      "Предлагаю": 6647,
      "информация": 6648,
      "влюбился": 6649,
      "болезни": 6650,
      "ровно": 6651,
      "Попросите": 6652,
      "Постарайтесь": 6653,
      "поднялся": 6654,
      "проверить": 6655,
      "запрещено": 6656,
      "бассейн": 6657,
      "субботу": 6658,
      "Весь": 6659,
      "мусор": 6660,
      "лошади": 6661,
      "посещ": 6662,
      "мысль": 6663,
      "Большое": 6664,
      "Соединён": 6665,
      "Помогите": 6666,
      "Гре": 6667,
      "Кита": 6668,
      "Осторож": 6669,
      "Остань": 6670,
      "Пти": 6671,
      "Ры": 6672,
      "бро": 6673,
      "вниз": 6674,
      "вегетари": 6675,
      "ля": 6676,
      "руж": 6677,
      "ска": 6678,
      "чуж": 6679,
      "##зво": 6680,
      "##тами": 6681,
      "##дна": 6682,
      "##жде": 6683,
      "##стях": 6684,
      "загля": 6685,
      "замок": 6686,
      "выпи": 6687,
      "просп": 6688,
      "##ман": 6689,
      "отдых": 6690,
      "##руют": 6691,
      "##реп": 6692,
      "тон": 6693,
      "##дись": 6694,
      "делу": 6695,
      "мост": 6696,
      "перек": 6697,
      "одоб": 6698,
      "##седа": 6699,
      "преда": 6700,
      "простой": 6701,
      "решения": 6702,
      "идёте": 6703,
      "Отк": 6704,
      "Ответ": 6705,
      "смотри": 6706,
      "смотрят": 6707,
      "передать": 6708,
      "##ческих": 6709,
      "##ражения": 6710,
      "закончился": 6711,
      "закончилась": 6712,
      "надеемся": 6713,
      "усер": 6714,
      "усилия": 6715,
      "##пустили": 6716,
      "изменится": 6717,
      "Буду": 6718,
      "постель": 6719,
      "статью": 6720,
      "обоих": 6721,
      "естест": 6722,
      "ценю": 6723,
      "позабот": 6724,
      "близнец": 6725,
      "форме": 6726,
      "бегать": 6727,
      "вмеши": 6728,
      "искрен": 6729,
      "секунду": 6730,
      "гулять": 6731,
      "коллед": 6732,
      "Ин": 6733,
      "Оба": 6734,
      "анг": 6735,
      "бе": 6736,
      "геро": 6737,
      "клет": 6738,
      "мимо": 6739,
      "сяд": 6740,
      "юб": 6741,
      "##уем": 6742,
      "##мени": 6743,
      "нанять": 6744,
      "##несли": 6745,
      "##тировать": 6746,
      "##вич": 6747,
      "подс": 6748,
      "Наши": 6749,
      "реки": 6750,
      "реально": 6751,
      "одет": 6752,
      "пик": 6753,
      "##товый": 6754,
      "осталась": 6755,
      "последним": 6756,
      "дороги": 6757,
      "Джону": 6758,
      "сестре": 6759,
      "смеялись": 6760,
      "моими": 6761,
      "женщину": 6762,
      "странным": 6763,
      "простил": 6764,
      "Марию": 6765,
      "называть": 6766,
      "беремен": 6767,
      "скрыть": 6768,
      "тюрьму": 6769,
      "ящике": 6770,
      "ситуации": 6771,
      "спрятал": 6772,
      "довольны": 6773,
      "фрукты": 6774,
      "обеспоко": 6775,
      "Билл": 6776,
      "Летом": 6777,
      "усынов": 6778,
      "дешё": 6779,
      "Рим": 6780,
      "меб": 6781,
      "роб": 6782,
      "флаг": 6783,
      "##сом": 6784,
      "##ушек": 6785,
      "##мос": 6786,
      "##чил": 6787,
      "невы": 6788,
      "##алу": 6789,
      "поста": 6790,
      "##гови": 6791,
      "ничем": 6792,
      "протя": 6793,
      "отстав": 6794,
      "отдать": 6795,
      "обду": 6796,
      "##ойдёт": 6797,
      "вор": 6798,
      "##телей": 6799,
      "##нцев": 6800,
      "прев": 6801,
      "##ствовали": 6802,
      "запом": 6803,
      "##бур": 6804,
      "побеж": 6805,
      "поехала": 6806,
      "имеете": 6807,
      "новых": 6808,
      "сыном": 6809,
      "встречи": 6810,
      "враг": 6811,
      "женщиной": 6812,
      "надолго": 6813,
      "покупает": 6814,
      "встречаться": 6815,
      "выиграли": 6816,
      "уезжает": 6817,
      "свете": 6818,
      "гитару": 6819,
      "братьев": 6820,
      "возьми": 6821,
      "маму": 6822,
      "отличается": 6823,
      "##носить": 6824,
      "спокойно": 6825,
      "платят": 6826,
      "двенадцать": 6827,
      "нетерпением": 6828,
      "занимаюсь": 6829,
      "Поэтому": 6830,
      "пистолет": 6831,
      "Зв": 6832,
      "Ло": 6833,
      "вход": 6834,
      "пр": 6835,
      "эф": 6836,
      "##твер": 6837,
      "##цами": 6838,
      "##лём": 6839,
      "нее": 6840,
      "##итать": 6841,
      "##ковал": 6842,
      "заво": 6843,
      "зака": 6844,
      "забав": 6845,
      "##мах": 6846,
      "оттуда": 6847,
      "##реда": 6848,
      "слез": 6849,
      "слёзы": 6850,
      "##виг": 6851,
      "соответ": 6852,
      "##рям": 6853,
      "##рядок": 6854,
      "правиль": 6855,
      "Проч": 6856,
      "завтраш": 6857,
      "учился": 6858,
      "остров": 6859,
      "остальные": 6860,
      "поблизости": 6861,
      "испор": 6862,
      "работаем": 6863,
      "девушкой": 6864,
      "наверняка": 6865,
      "сделана": 6866,
      "днях": 6867,
      "магазинам": 6868,
      "компьютером": 6869,
      "богатым": 6870,
      "причины": 6871,
      "уйду": 6872,
      "пятницу": 6873,
      "пятнадцать": 6874,
      "блест": 6875,
      "налил": 6876,
      "специали": 6877,
      "затем": 6878,
      "документ": 6879,
      "умирает": 6880,
      "восхищ": 6881,
      "Италии": 6882,
      "количество": 6883,
      "сфотографи": 6884,
      "Нужно": 6885,
      "Две": 6886,
      "Слишком": 6887,
      "Терп": 6888,
      "Уга": 6889,
      "драз": 6890,
      "драться": 6891,
      "жила": 6892,
      "упор": 6893,
      "##лении": 6894,
      "##рости": 6895,
      "##роды": 6896,
      "назнач": 6897,
      "зайти": 6898,
      "хоб": 6899,
      "пропустил": 6900,
      "горит": 6901,
      "приди": 6902,
      "большинство": 6903,
      "стри": 6904,
      "##ходы": 6905,
      "поле": 6906,
      "Пошли": 6907,
      "##слыш": 6908,
      "Каким": 6909,
      "нравилась": 6910,
      "надоело": 6911,
      "##арь": 6912,
      "##ушкой": 6913,
      "соврал": 6914,
      "заплак": 6915,
      "миним": 6916,
      "##разум": 6917,
      "##пати": 6918,
      "пусты": 6919,
      "##ительная": 6920,
      "побежал": 6921,
      "##нимите": 6922,
      "плот": 6923,
      "упом": 6924,
      "захва": 6925,
      "прошлый": 6926,
      "войне": 6927,
      "увидели": 6928,
      "головы": 6929,
      "встречал": 6930,
      "столк": 6931,
      "японски": 6932,
      "самолёте": 6933,
      "одиночестве": 6934,
      "застря": 6935,
      "лекарства": 6936,
      "внезапно": 6937,
      "студенты": 6938,
      "чисто": 6939,
      "преступление": 6940,
      "Возьмите": 6941,
      "число": 6942,
      "Самолёт": 6943,
      "порекоменд": 6944,
      "Вод": 6945,
      "еди": 6946,
      "зли": 6947,
      "ух": 6948,
      "уничто": 6949,
      "##еки": 6950,
      "##аги": 6951,
      "зашёл": 6952,
      "##очка": 6953,
      "свое": 6954,
      "поми": 6955,
      "качестве": 6956,
      "Навер": 6957,
      "стоят": 6958,
      "направо": 6959,
      "возник": 6960,
      "##зии": 6961,
      "##елье": 6962,
      "согласна": 6963,
      "остановились": 6964,
      "девушке": 6965,
      "подумы": 6966,
      "источ": 6967,
      "обещали": 6968,
      "велосипеда": 6969,
      "музыкан": 6970,
      "вернёшься": 6971,
      "начинает": 6972,
      "Передай": 6973,
      "газеты": 6974,
      "смотрела": 6975,
      "поймать": 6976,
      "проводит": 6977,
      "включил": 6978,
      "удовольствие": 6979,
      "переби": 6980,
      "осозна": 6981,
      "хобби": 6982,
      "Гру": 6983,
      "Кра": 6984,
      "Между": 6985,
      "Хри": 6986,
      "астро": 6987,
      "бре": 6988,
      "вал": 6989,
      "дрож": 6990,
      "лгать": 6991,
      "фа": 6992,
      "хво": 6993,
      "##шил": 6994,
      "##шем": 6995,
      "##енных": 6996,
      "##ковы": 6997,
      "хозя": 6998,
      "##едли": 6999,
      "прошу": 7000,
      "##мат": 7001,
      "сделан": 7002,
      "души": 7003,
      "##доро": 7004,
      "соби": 7005,
      "мышь": 7006,
      "##гий": 7007,
      "тарел": 7008,
      "верят": 7009,
      "напом": 7010,
      "превос": 7011,
      "убраться": 7012,
      "умру": 7013,
      "Приходи": 7014,
      "добер": 7015,
      "##ьюте": 7016,
      "посмотрели": 7017,
      "объяснение": 7018,
      "выходных": 7019,
      "изменил": 7020,
      "найдёшь": 7021,
      "найдёте": 7022,
      "выбира": 7023,
      "пятьдесят": 7024,
      "компьюте": 7025,
      "ужасный": 7026,
      "глазах": 7027,
      "деревом": 7028,
      "держаться": 7029,
      "яблок": 7030,
      "гостинице": 7031,
      "берег": 7032,
      "##страи": 7033,
      "приготовить": 7034,
      "выучил": 7035,
      "степ": 7036,
      "разбудил": 7037,
      "информацию": 7038,
      "китайский": 7039,
      "невероятно": 7040,
      "Папа": 7041,
      "слух": 7042,
      "добавить": 7043,
      "Майк": 7044,
      "ревну": 7045,
      "возможное": 7046,
      "смущ": 7047,
      "процентов": 7048,
      "Рад": 7049,
      "Цены": 7050,
      "дог": 7051,
      "нале": 7052,
      "окон": 7053,
      "тему": 7054,
      "уволь": 7055,
      "установ": 7056,
      "##нилось": 7057,
      "##цент": 7058,
      "##дил": 7059,
      "##мом": 7060,
      "неожи": 7061,
      "поел": 7062,
      "пошел": 7063,
      "выжи": 7064,
      "каких": 7065,
      "первая": 7066,
      "Почти": 7067,
      "##ций": 7068,
      "##циони": 7069,
      "преув": 7070,
      "рассказали": 7071,
      "начало": 7072,
      "пуг": 7073,
      "побольше": 7074,
      "##нилась": 7075,
      "добр": 7076,
      "##зови": 7077,
      "закончилось": 7078,
      "рыбы": 7079,
      "важное": 7080,
      "весит": 7081,
      "изменилось": 7082,
      "непод": 7083,
      "этаже": 7084,
      "граду": 7085,
      "сосредото": 7086,
      "Пойдите": 7087,
      "Важно": 7088,
      "удивлена": 7089,
      "земля": 7090,
      "спросили": 7091,
      "необходим": 7092,
      "библиотеку": 7093,
      "ручка": 7094,
      "русский": 7095,
      "желание": 7096,
      "центр": 7097,
      "белое": 7098,
      "бесплатно": 7099,
      "схватил": 7100,
      "перерыв": 7101,
      "самоубий": 7102,
      "Осторожно": 7103,
      "усердно": 7104,
      "налево": 7105,
      "преувели": 7106,
      "Веч": 7107,
      "арен": 7108,
      "яр": 7109,
      "##сор": 7110,
      "##нный": 7111,
      "##вались": 7112,
      "полон": 7113,
      "##носит": 7114,
      "народа": 7115,
      "прой": 7116,
      "прист": 7117,
      "кап": 7118,
      "##слов": 7119,
      "##пос": 7120,
      "##сплох": 7121,
      "попла": 7122,
      "ревно": 7123,
      "купаться": 7124,
      "старую": 7125,
      "верил": 7126,
      "##ождение": 7127,
      "поговорили": 7128,
      "позволю": 7129,
      "##елее": 7130,
      "переда": 7131,
      "доба": 7132,
      "девушек": 7133,
      "ошибается": 7134,
      "врасплох": 7135,
      "встретились": 7136,
      "Всел": 7137,
      "##ресси": 7138,
      "##мерть": 7139,
      "выходной": 7140,
      "писатель": 7141,
      "одинок": 7142,
      "жалуется": 7143,
      "собственной": 7144,
      "погибли": 7145,
      "информации": 7146,
      "масло": 7147,
      "стене": 7148,
      "симпати": 7149,
      "аэропорта": 7150,
      "##десяти": 7151,
      "Небо": 7152,
      "Снег": 7153,
      "Англий": 7154,
      "Вет": 7155,
      "Зам": 7156,
      "Ис": 7157,
      "Сы": 7158,
      "Ту": 7159,
      "ан": 7160,
      "бом": 7161,
      "лам": 7162,
      "##рение": 7163,
      "##лей": 7164,
      "##шеб": 7165,
      "##шему": 7166,
      "##гла": 7167,
      "##явля": 7168,
      "##тора": 7169,
      "некогда": 7170,
      "##носта": 7171,
      "##нами": 7172,
      "Вып": 7173,
      "Выгля": 7174,
      "##нув": 7175,
      "##лянусь": 7176,
      "какого": 7177,
      "любом": 7178,
      "подвал": 7179,
      "подтвер": 7180,
      "времена": 7181,
      "##узы": 7182,
      "однов": 7183,
      "##чное": 7184,
      "##товала": 7185,
      "##осо": 7186,
      "страш": 7187,
      "кусок": 7188,
      "##рился": 7189,
      "звоните": 7190,
      "##ществу": 7191,
      "беспокоить": 7192,
      "подум": 7193,
      "нога": 7194,
      "прошлое": 7195,
      "ожидали": 7196,
      "пряч": 7197,
      "связи": 7198,
      "являются": 7199,
      "пьяный": 7200,
      "позаботиться": 7201,
      "произойти": 7202,
      "##едьмого": 7203,
      "ситуацию": 7204,
      "хватало": 7205,
      "подождёт": 7206,
      "Женщина": 7207,
      "Побуд": 7208,
      "тупой": 7209,
      "супермарк": 7210,
      "непросто": 7211,
      "распростран": 7212,
      "килограмм": 7213,
      "избежать": 7214,
      "Бу": 7215,
      "Гар": 7216,
      "Еда": 7217,
      "Мед": 7218,
      "Чья": 7219,
      "Эли": 7220,
      "вдох": 7221,
      "дольше": 7222,
      "сраж": 7223,
      "уехала": 7224,
      "##нки": 7225,
      "##лены": 7226,
      "##ьем": 7227,
      "народ": 7228,
      "настаи": 7229,
      "##расы": 7230,
      "##кай": 7231,
      "##лировать": 7232,
      "##аку": 7233,
      "выслуш": 7234,
      "прилож": 7235,
      "##руб": 7236,
      "обяза": 7237,
      "##очек": 7238,
      "моет": 7239,
      "любое": 7240,
      "##нцес": 7241,
      "##исс": 7242,
      "распис": 7243,
      "поздрав": 7244,
      "правильный": 7245,
      "пирога": 7246,
      "рассерд": 7247,
      "лучшего": 7248,
      "посколь": 7249,
      "позвонили": 7250,
      "вступ": 7251,
      "дешевле": 7252,
      "ответственность": 7253,
      "передал": 7254,
      "##ческое": 7255,
      "добрался": 7256,
      "ходите": 7257,
      "красивое": 7258,
      "звонили": 7259,
      "плем": 7260,
      "##еного": 7261,
      "Город": 7262,
      "успеть": 7263,
      "простить": 7264,
      "молоды": 7265,
      "голодные": 7266,
      "мальчиков": 7267,
      "секреты": 7268,
      "Пойду": 7269,
      "##лонился": 7270,
      "Прези": 7271,
      "беден": 7272,
      "растёт": 7273,
      "сомневаюсь": 7274,
      "спорта": 7275,
      "##хотвор": 7276,
      "обидеть": 7277,
      "выключить": 7278,
      "стек": 7279,
      "бросила": 7280,
      "провожу": 7281,
      "необходимости": 7282,
      "захочешь": 7283,
      "поблагодарил": 7284,
      "озеро": 7285,
      "разозлило": 7286,
      "отриц": 7287,
      "многому": 7288,
      "Поставь": 7289,
      "груди": 7290,
      "болеет": 7291,
      "яиц": 7292,
      "одновременно": 7293,
      "Вен": 7294,
      "Тогда": 7295,
      "вен": 7296,
      "ист": 7297,
      "пещ": 7298,
      "уга": 7299,
      "хи": 7300,
      "яс": 7301,
      "##тные": 7302,
      "ненор": 7303,
      "поте": 7304,
      "полагаю": 7305,
      "##рию": 7306,
      "##вок": 7307,
      "заговори": 7308,
      "вышло": 7309,
      "пробеж": 7310,
      "гору": 7311,
      "вскоре": 7312,
      "##кур": 7313,
      "##вишь": 7314,
      "однок": 7315,
      "лучших": 7316,
      "страдает": 7317,
      "учил": 7318,
      "бояться": 7319,
      "##ительное": 7320,
      "мето": 7321,
      "нашел": 7322,
      "Откройте": 7323,
      "ответила": 7324,
      "переду": 7325,
      "Подума": 7326,
      "надежду": 7327,
      "груб": 7328,
      "беспокоился": 7329,
      "##мысл": 7330,
      "услу": 7331,
      "высоко": 7332,
      "##ведите": 7333,
      "осторожнее": 7334,
      "крити": 7335,
      "вкусно": 7336,
      "встаёт": 7337,
      "назвать": 7338,
      "двига": 7339,
      "слабо": 7340,
      "проигры": 7341,
      "##надцати": 7342,
      "желания": 7343,
      "изобрет": 7344,
      "понедельникам": 7345,
      "систем": 7346,
      "##ёстры": 7347,
      "Алжир": 7348,
      "экономи": 7349,
      "перчатки": 7350,
      "ежед": 7351,
      "Мист": 7352,
      "бежал": 7353,
      "гри": 7354,
      "дл": 7355,
      "соль": 7356,
      "сила": 7357,
      "чуд": 7358,
      "##нились": 7359,
      "##лена": 7360,
      "покорм": 7361,
      "начи": 7362,
      "##низу": 7363,
      "##лим": 7364,
      "##вад": 7365,
      "ничто": 7366,
      "приехала": 7367,
      "отъ": 7368,
      "помыл": 7369,
      "доста": 7370,
      "##илию": 7371,
      "капитан": 7372,
      "##верх": 7373,
      "позвать": 7374,
      "##альную": 7375,
      "Забудь": 7376,
      "занял": 7377,
      "несмотря": 7378,
      "водит": 7379,
      "синий": 7380,
      "замёрз": 7381,
      "##ентя": 7382,
      "трудный": 7383,
      "брату": 7384,
      "находятся": 7385,
      "весной": 7386,
      "наверх": 7387,
      "употреб": 7388,
      "прошлого": 7389,
      "обещания": 7390,
      "скром": 7391,
      "свободное": 7392,
      "пальцев": 7393,
      "подошёл": 7394,
      "осторожны": 7395,
      "Послуш": 7396,
      "певец": 7397,
      "##арак": 7398,
      "назвали": 7399,
      "завис": 7400,
      "##чься": 7401,
      "бегло": 7402,
      "утрам": 7403,
      "покинул": 7404,
      "телевизора": 7405,
      "покончил": 7406,
      "Несмотря": 7407,
      "Закрой": 7408,
      "укусила": 7409,
      "каникулы": 7410,
      "медици": 7411,
      "беременна": 7412,
      "Благода": 7413,
      "Вто": 7414,
      "Друз": 7415,
      "вил": 7416,
      "дес": 7417,
      "ждёшь": 7418,
      "кожа": 7419,
      "логи": 7420,
      "мод": 7421,
      "сели": 7422,
      "фанта": 7423,
      "хими": 7424,
      "##рёл": 7425,
      "поезда": 7426,
      "нахожу": 7427,
      "проект": 7428,
      "приго": 7429,
      "##еним": 7430,
      "разницы": 7431,
      "таки": 7432,
      "первом": 7433,
      "##чивать": 7434,
      "сор": 7435,
      "##онт": 7436,
      "миру": 7437,
      "##гляды": 7438,
      "##зия": 7439,
      "##лых": 7440,
      "Джим": 7441,
      "интересная": 7442,
      "Возвращ": 7443,
      "надёж": 7444,
      "изменился": 7445,
      "ногти": 7446,
      "грам": 7447,
      "Хочу": 7448,
      "чёрная": 7449,
      "Сооб": 7450,
      "углу": 7451,
      "богата": 7452,
      "скрывает": 7453,
      "взгляд": 7454,
      "кухню": 7455,
      "одежда": 7456,
      "состояние": 7457,
      "компанию": 7458,
      "част": 7459,
      "повторится": 7460,
      "плакала": 7461,
      "вдвое": 7462,
      "избег": 7463,
      "зелёный": 7464,
      "трево": 7465,
      "спустя": 7466,
      "Слушай": 7467,
      "предостав": 7468,
      "Китае": 7469,
      "сосредоточ": 7470,
      "Вес": 7471,
      "Вряд": 7472,
      "Сем": 7473,
      "Уда": 7474,
      "Эк": 7475,
      "лад": 7476,
      "хлоп": 7477,
      "##печ": 7478,
      "##ненно": 7479,
      "##дя": 7480,
      "##мей": 7481,
      "пота": 7482,
      "##странц": 7483,
      "нанял": 7484,
      "##рак": 7485,
      "##кает": 7486,
      "##нек": 7487,
      "##дами": 7488,
      "годы": 7489,
      "привести": 7490,
      "душе": 7491,
      "допоз": 7492,
      "доктор": 7493,
      "другими": 7494,
      "Поговори": 7495,
      "самым": 7496,
      "правде": 7497,
      "погоду": 7498,
      "Прис": 7499,
      "##тельства": 7500,
      "дорог": 7501,
      "добры": 7502,
      "##дитесь": 7503,
      "##нитесь": 7504,
      "прак": 7505,
      "другая": 7506,
      "успел": 7507,
      "постуч": 7508,
      "отличный": 7509,
      "половину": 7510,
      "мечты": 7511,
      "позавтра": 7512,
      "торго": 7513,
      "растут": 7514,
      "подобного": 7515,
      "возьм": 7516,
      "карман": 7517,
      "отклады": 7518,
      "свеж": 7519,
      "счастью": 7520,
      "Добро": 7521,
      "Мужчины": 7522,
      "испански": 7523,
      "заболе": 7524,
      "человечест": 7525,
      "документы": 7526,
      "притворя": 7527,
      "бассей": 7528,
      "присоединиться": 7529,
      "супермаркет": 7530,
      "художник": 7531,
      "диск": 7532,
      "заменить": 7533,
      "постараюсь": 7534,
      "толстый": 7535,
      "верёвку": 7536,
      "блестя": 7537,
      "уничтож": 7538,
      "##пособ": 7539,
      "Мистер": 7540,
      "допоздна": 7541,
      "звали": 7542,
      "круж": 7543,
      "ов": 7544,
      "счет": 7545,
      "шли": 7546,
      "шну": 7547,
      "##тать": 7548,
      "##цел": 7549,
      "##жер": 7550,
      "##ёку": 7551,
      "##ензи": 7552,
      "##невно": 7553,
      "##ваешься": 7554,
      "вытер": 7555,
      "нич": 7556,
      "нигде": 7557,
      "обуч": 7558,
      "разных": 7559,
      "подвез": 7560,
      "##покой": 7561,
      "насеком": 7562,
      "нравитесь": 7563,
      "предал": 7564,
      "##сегда": 7565,
      "лучшие": 7566,
      "напро": 7567,
      "преусп": 7568,
      "занять": 7569,
      "играете": 7570,
      "соглаш": 7571,
      "картин": 7572,
      "конвер": 7573,
      "пытаться": 7574,
      "смеётся": 7575,
      "концер": 7576,
      "музык": 7577,
      "вернёмся": 7578,
      "сообщить": 7579,
      "обвинили": 7580,
      "Прежде": 7581,
      "шоки": 7582,
      "перевед": 7583,
      "попрошу": 7584,
      "младший": 7585,
      "дворе": 7586,
      "стихотвор": 7587,
      "заранее": 7588,
      "спрятался": 7589,
      "Евро": 7590,
      "перезвоню": 7591,
      "хранить": 7592,
      "инструк": 7593,
      "увидев": 7594,
      "холодильник": 7595,
      "университет": 7596,
      "неплохо": 7597,
      "улучш": 7598,
      "Взгля": 7599,
      "Война": 7600,
      "Телефон": 7601,
      "совпадение": 7602,
      "##елюб": 7603,
      "туалет": 7604,
      "контракт": 7605,
      "Полицейский": 7606,
      "Английский": 7607,
      "однокласс": 7608,
      "Дед": 7609,
      "Оче": 7610,
      "Ре": 7611,
      "Сос": 7612,
      "Север": 7613,
      "Эм": 7614,
      "дли": 7615,
      "дых": 7616,
      "едите": 7617,
      "ждала": 7618,
      "лгал": 7619,
      "пита": 7620,
      "прят": 7621,
      "##логи": 7622,
      "пои": 7623,
      "##риз": 7624,
      "бывают": 7625,
      "##дар": 7626,
      "##одоз": 7627,
      "кора": 7628,
      "кошел": 7629,
      "##дицион": 7630,
      "разме": 7631,
      "больным": 7632,
      "первое": 7633,
      "насла": 7634,
      "расстраи": 7635,
      "имена": 7636,
      "##веть": 7637,
      "купит": 7638,
      "##ушке": 7639,
      "погоды": 7640,
      "давал": 7641,
      "дадим": 7642,
      "руко": 7643,
      "безу": 7644,
      "заподоз": 7645,
      "болел": 7646,
      "Всегда": 7647,
      "ответы": 7648,
      "следующие": 7649,
      "опоздаю": 7650,
      "театр": 7651,
      "присматри": 7652,
      "разрешение": 7653,
      "перевёл": 7654,
      "желуд": 7655,
      "желаю": 7656,
      "силы": 7657,
      "посмотрела": 7658,
      "записал": 7659,
      "бегает": 7660,
      "покрасил": 7661,
      "танцует": 7662,
      "горячий": 7663,
      "Добав": 7664,
      "губы": 7665,
      "пожениться": 7666,
      "пожаловать": 7667,
      "зрение": 7668,
      "опоздаешь": 7669,
      "дорогая": 7670,
      "фигу": 7671,
      "привидения": 7672,
      "районе": 7673,
      "преподаватель": 7674,
      "Господин": 7675,
      "убеждён": 7676,
      "шпион": 7677,
      "навсегда": 7678,
      "вытащил": 7679,
      "Интернет": 7680,
      "Друзья": 7681,
      "Честно": 7682,
      "ас": 7683,
      "везде": 7684,
      "кло": 7685,
      "рес": 7686,
      "рода": 7687,
      "салат": 7688,
      "церк": 7689,
      "##нский": 7690,
      "##ген": 7691,
      "пожи": 7692,
      "понимать": 7693,
      "##енем": 7694,
      "##нож": 7695,
      "##ната": 7696,
      "##вании": 7697,
      "Этому": 7698,
      "оча": 7699,
      "винить": 7700,
      "татуи": 7701,
      "стака": 7702,
      "рулём": 7703,
      "детях": 7704,
      "##ительные": 7705,
      "осуществ": 7706,
      "освобод": 7707,
      "новым": 7708,
      "ходят": 7709,
      "потерп": 7710,
      "волшеб": 7711,
      "каждым": 7712,
      "посмотри": 7713,
      "интересуется": 7714,
      "Объяс": 7715,
      "ехал": 7716,
      "едем": 7717,
      "Тони": 7718,
      "задавать": 7719,
      "сумка": 7720,
      "прошлым": 7721,
      "уроками": 7722,
      "выиграла": 7723,
      "футболь": 7724,
      "##ейсбу": 7725,
      "воспри": 7726,
      "ложиться": 7727,
      "Старик": 7728,
      "переводчи": 7729,
      "тайне": 7730,
      "канадцы": 7731,
      "грязные": 7732,
      "достать": 7733,
      "искали": 7734,
      "пользуется": 7735,
      "удовольствием": 7736,
      "Йорке": 7737,
      "проголос": 7738,
      "подробно": 7739,
      "сыграть": 7740,
      "спрошу": 7741,
      "минимальная": 7742,
      "превосход": 7743,
      "Президент": 7744,
      "?!": 7745,
      "Вол": 7746,
      "Исто": 7747,
      "Новый": 7748,
      "даль": 7749,
      "жалею": 7750,
      "ори": 7751,
      "сго": 7752,
      "яй": 7753,
      "##аны": 7754,
      "##тка": 7755,
      "##усть": 7756,
      "##яла": 7757,
      "##ься": 7758,
      "##ьев": 7759,
      "неф": 7760,
      "неважно": 7761,
      "пови": 7762,
      "погу": 7763,
      "##ентов": 7764,
      "##голь": 7765,
      "##нича": 7766,
      "##аке": 7767,
      "##оглас": 7768,
      "##рест": 7769,
      "##ляешь": 7770,
      "##рыз": 7771,
      "подерж": 7772,
      "полуд": 7773,
      "##ственно": 7774,
      "Наде": 7775,
      "мыть": 7776,
      "одол": 7777,
      "предпри": 7778,
      "почте": 7779,
      "##ствовала": 7780,
      "безнад": 7781,
      "##ильм": 7782,
      "запас": 7783,
      "боро": 7784,
      "##ительным": 7785,
      "парик": 7786,
      "двадцати": 7787,
      "игрок": 7788,
      "планировал": 7789,
      "##ьтесь": 7790,
      "происше": 7791,
      "никакой": 7792,
      "кив": 7793,
      "попросите": 7794,
      "начинать": 7795,
      "##возь": 7796,
      "прекрасная": 7797,
      "признать": 7798,
      "длинный": 7799,
      "девочки": 7800,
      "Солда": 7801,
      "стир": 7802,
      "перепол": 7803,
      "##рахис": 7804,
      "проиграл": 7805,
      "Комп": 7806,
      "Россия": 7807,
      "появился": 7808,
      "огранич": 7809,
      "плечо": 7810,
      "бесполезно": 7811,
      "недооцени": 7812,
      "мобильный": 7813,
      "сломана": 7814,
      "планета": 7815,
      "прекратить": 7816,
      "обуви": 7817,
      "эффек": 7818,
      "Очевидно": 7819,
      "Зири": 7820,
      "Молод": 7821,
      "Рас": 7822,
      "Ситуа": 7823,
      "Фейсбу": 7824,
      "англи": 7825,
      "дете": 7826,
      "едешь": 7827,
      "лежал": 7828,
      "пч": 7829,
      "пут": 7830,
      "сан": 7831,
      "сёстры": 7832,
      "ухо": 7833,
      "христи": 7834,
      "##ине": 7835,
      "##бри": 7836,
      "##щите": 7837,
      "полюб": 7838,
      "##енного": 7839,
      "##народ": 7840,
      "быстр": 7841,
      "выда": 7842,
      "##делся": 7843,
      "##овала": 7844,
      "приме": 7845,
      "привл": 7846,
      "привед": 7847,
      "придет": 7848,
      "разби": 7849,
      "##жишь": 7850,
      "##гают": 7851,
      "стоять": 7852,
      "Какова": 7853,
      "сове": 7854,
      "##оск": 7855,
      "заняло": 7856,
      "читаешь": 7857,
      "открыт": 7858,
      "открытой": 7859,
      "интересный": 7860,
      "Такое": 7861,
      "свини": 7862,
      "английским": 7863,
      "гостиной": 7864,
      "удивило": 7865,
      "быстрый": 7866,
      "форте": 7867,
      "метров": 7868,
      "честен": 7869,
      "наблюдал": 7870,
      "спине": 7871,
      "построил": 7872,
      "волнуйся": 7873,
      "Пойдёмте": 7874,
      "заболел": 7875,
      "промок": 7876,
      "потороп": 7877,
      "описать": 7878,
      "сигарет": 7879,
      "наизусть": 7880,
      "орехи": 7881,
      "удовлетвор": 7882,
      "##звонил": 7883,
      "Терпеть": 7884,
      "супермаркете": 7885,
      "Ситуация": 7886,
      "Встре": 7887,
      "арахис": 7888,
      "внизу": 7889,
      "клад": 7890,
      "лис": 7891,
      "литера": 7892,
      "харак": 7893,
      "##лую": 7894,
      "##клад": 7895,
      "##явл": 7896,
      "##эл": 7897,
      "##алы": 7898,
      "пораж": 7899,
      "нару": 7900,
      "зато": 7901,
      "прид": 7902,
      "##ейт": 7903,
      "обл": 7904,
      "##тай": 7905,
      "слы": 7906,
      "воде": 7907,
      "спали": 7908,
      "полный": 7909,
      "##тура": 7910,
      "##валось": 7911,
      "позвал": 7912,
      "почту": 7913,
      "верх": 7914,
      "этими": 7915,
      "следовать": 7916,
      "бороду": 7917,
      "начнём": 7918,
      "пустой": 7919,
      "пойдёте": 7920,
      "производ": 7921,
      "сиг": 7922,
      "забывай": 7923,
      "сынов": 7924,
      "##зовите": 7925,
      "инжен": 7926,
      "положила": 7927,
      "голодна": 7928,
      "поедешь": 7929,
      "Доктор": 7930,
      "класси": 7931,
      "голосовать": 7932,
      "шутку": 7933,
      "занимаешься": 7934,
      "обращаться": 7935,
      "тяжё": 7936,
      "рост": 7937,
      "розы": 7938,
      "отвечает": 7939,
      "мужчину": 7940,
      "подруги": 7941,
      "станцию": 7942,
      "стихи": 7943,
      "отличить": 7944,
      "адвоката": 7945,
      "обожает": 7946,
      "покончить": 7947,
      "сдержать": 7948,
      "радости": 7949,
      "сотруд": 7950,
      "приезжает": 7951,
      "Колум": 7952,
      "приблиз": 7953,
      "джаз": 7954,
      "заканчивается": 7955,
      "граждан": 7956,
      "Риме": 7957,
      "Дорога": 7958,
      "мотоцикл": 7959,
      "повредил": 7960,
      "Открой": 7961,
      "отставку": 7962,
      "Элис": 7963,
      "Гла": 7964,
      "Парко": 7965,
      "анек": 7966,
      "дар": 7967,
      "пьют": 7968,
      "тща": 7969,
      "фай": 7970,
      "##бой": 7971,
      "##оны": 7972,
      "##нался": 7973,
      "##тный": 7974,
      "##чала": 7975,
      "##чными": 7976,
      "некра": 7977,
      "вылет": 7978,
      "своем": 7979,
      "поднять": 7980,
      "собы": 7981,
      "##град": 7982,
      "река": 7983,
      "рецеп": 7984,
      "##екла": 7985,
      "плане": 7986,
      "опыта": 7987,
      "Ничто": 7988,
      "взд": 7989,
      "увидите": 7990,
      "трени": 7991,
      "##конно": 7992,
      "Вопрос": 7993,
      "пыль": 7994,
      "пари": 7995,
      "умеют": 7996,
      "выглядят": 7997,
      "дорогие": 7998,
      "потерять": 7999,
      "Кофе": 8000,
      "повсюду": 8001,
      "встретила": 8002,
      "встретился": 8003,
      "считаешь": 8004,
      "совершен": 8005,
      "опоздать": 8006,
      "положение": 8007,
      "красные": 8008,
      "опасен": 8009,
      "Передайте": 8010,
      "латы": 8011,
      "цену": 8012,
      "трус": 8013,
      "особо": 8014,
      "торта": 8015,
      "##щиеся": 8016,
      "впереди": 8017,
      "Земли": 8018,
      "адвокатом": 8019,
      "требует": 8020,
      "отвезу": 8021,
      "Убери": 8022,
      "сдаться": 8023,
      "бесполез": 8024,
      "похудеть": 8025,
      "востор": 8026,
      "полотенце": 8027,
      "актёр": 8028,
      "транс": 8029,
      "##тугаль": 8030,
      "Наверное": 8031,
      "практически": 8032,
      "татуиров": 8033,
      "Жел": 8034,
      "Зел": 8035,
      "Фильм": 8036,
      "Ябло": 8037,
      "баш": 8038,
      "лот": 8039,
      "мак": 8040,
      "ну": 8041,
      "пак": 8042,
      "серь": 8043,
      "снять": 8044,
      "уте": 8045,
      "удерж": 8046,
      "фил": 8047,
      "яв": 8048,
      "##яет": 8049,
      "##явление": 8050,
      "##чек": 8051,
      "побуд": 8052,
      "##енер": 8053,
      "##етку": 8054,
      "##нови": 8055,
      "##рони": 8056,
      "##никами": 8057,
      "пропа": 8058,
      "##лой": 8059,
      "##ворить": 8060,
      "разор": 8061,
      "очков": 8062,
      "мон": 8063,
      "Потому": 8064,
      "живы": 8065,
      "попыта": 8066,
      "почитать": 8067,
      "Каков": 8068,
      "помогло": 8069,
      "вопроса": 8070,
      "несчастли": 8071,
      "публи": 8072,
      "оставлю": 8073,
      "передум": 8074,
      "выгляжу": 8075,
      "##ческого": 8076,
      "семей": 8077,
      "красиво": 8078,
      "плохие": 8079,
      "понравились": 8080,
      "Кошки": 8081,
      "##зовался": 8082,
      "сестёр": 8083,
      "##ключите": 8084,
      "слушаешь": 8085,
      "ненавидите": 8086,
      "опоздала": 8087,
      "объясню": 8088,
      "сердит": 8089,
      "солг": 8090,
      "заставили": 8091,
      "закрыт": 8092,
      "точки": 8093,
      "упраж": 8094,
      "поездка": 8095,
      "ищем": 8096,
      "Был": 8097,
      "маленьким": 8098,
      "осторожно": 8099,
      "земле": 8100,
      "##ятие": 8101,
      "тяжелее": 8102,
      "собственный": 8103,
      "соседями": 8104,
      "опаздывать": 8105,
      "справедливо": 8106,
      "кармане": 8107,
      "картина": 8108,
      "полезно": 8109,
      "составляет": 8110,
      "влюбилась": 8111,
      "определённо": 8112,
      "Татоэбе": 8113,
      "Убира": 8114,
      "подписал": 8115,
      "Студ": 8116,
      "испанский": 8117,
      "затк": 8118,
      "пробыл": 8119,
      "Поставьте": 8120,
      "присмотреть": 8121,
      "уедет": 8122,
      "тратит": 8123,
      "брюки": 8124,
      "церкви": 8125,
      "некраси": 8126,
      "Бан": 8127,
      "Боже": 8128,
      "Жена": 8129,
      "Пла": 8130,
      "Сво": 8131,
      "али": 8132,
      "ела": 8133,
      "зим": 8134,
      "сном": 8135,
      "ушел": 8136,
      "уехали": 8137,
      "убор": 8138,
      "##ада": 8139,
      "##сах": 8140,
      "##нке": 8141,
      "##юк": 8142,
      "##дения": 8143,
      "наи": 8144,
      "наг": 8145,
      "##дев": 8146,
      "##овалось": 8147,
      "##вица": 8148,
      "стрем": 8149,
      "смей": 8150,
      "##ган": 8151,
      "##тую": 8152,
      "самим": 8153,
      "самые": 8154,
      "предполож": 8155,
      "убьёт": 8156,
      "случая": 8157,
      "микро": 8158,
      "увидит": 8159,
      "получается": 8160,
      "неделя": 8161,
      "Приходите": 8162,
      "проблеме": 8163,
      "##лыть": 8164,
      "##вязы": 8165,
      "считать": 8166,
      "##дишься": 8167,
      "##сколь": 8168,
      "ищут": 8169,
      "голодная": 8170,
      "узнаю": 8171,
      "соседи": 8172,
      "номера": 8173,
      "улыбнулась": 8174,
      "приходилось": 8175,
      "шутки": 8176,
      "занимаетесь": 8177,
      "вовсе": 8178,
      "приготовила": 8179,
      "снегом": 8180,
      "отпуске": 8181,
      "Стара": 8182,
      "арестован": 8183,
      "невозмож": 8184,
      "странах": 8185,
      "метал": 8186,
      "танцев": 8187,
      "обожаю": 8188,
      "Луна": 8189,
      "проверил": 8190,
      "напишу": 8191,
      "легче": 8192,
      "мороженого": 8193,
      "привлекатель": 8194,
      "привидение": 8195,
      "теория": 8196,
      "жаловаться": 8197,
      "штаны": 8198,
      "презира": 8199,
      "свидетель": 8200,
      "жалеет": 8201,
      "помидо": 8202,
      "100": 8203,
      "Мекси": 8204,
      "Роб": 8205,
      "Ум": 8206,
      "веб": 8207,
      "вверх": 8208,
      "зла": 8209,
      "здания": 8210,
      "рейс": 8211,
      "ски": 8212,
      "##фель": 8213,
      "##яло": 8214,
      "##рост": 8215,
      "##рость": 8216,
      "бывали": 8217,
      "##дается": 8218,
      "##тивно": 8219,
      "##дели": 8220,
      "прол": 8221,
      "продел": 8222,
      "принесли": 8223,
      "##енья": 8224,
      "обнял": 8225,
      "##ляем": 8226,
      "духов": 8227,
      "##теля": 8228,
      "##теллек": 8229,
      "стой": 8230,
      "##щими": 8231,
      "табл": 8232,
      "деньгах": 8233,
      "пожел": 8234,
      "умён": 8235,
      "началось": 8236,
      "##лее": 8237,
      "последней": 8238,
      "открывается": 8239,
      "игре": 8240,
      "карта": 8241,
      "врагов": 8242,
      "каждой": 8243,
      "трудности": 8244,
      "написали": 8245,
      "посмотрю": 8246,
      "остановке": 8247,
      "португаль": 8248,
      "звонила": 8249,
      "показала": 8250,
      "единственное": 8251,
      "знакома": 8252,
      "##шают": 8253,
      "найдут": 8254,
      "песен": 8255,
      "вниматель": 8256,
      "молодости": 8257,
      "извинения": 8258,
      "диван": 8259,
      "сильная": 8260,
      "продаётся": 8261,
      "жалу": 8262,
      "возраст": 8263,
      "вкусный": 8264,
      "встаю": 8265,
      "оказалось": 8266,
      "бабушки": 8267,
      "подозри": 8268,
      "гордился": 8269,
      "Обещай": 8270,
      "дружелюб": 8271,
      "послушал": 8272,
      "забудем": 8273,
      "посетил": 8274,
      "отменить": 8275,
      "счастья": 8276,
      "воздух": 8277,
      "Комната": 8278,
      "уходил": 8279,
      "группа": 8280,
      "пенсии": 8281,
      "наступления": 8282,
      "конфет": 8283,
      "Попробуйте": 8284,
      "удобно": 8285,
      "неизвест": 8286,
      "Который": 8287,
      "гражда": 8288,
      "одинако": 8289,
      "Работа": 8290,
      "ферме": 8291,
      "поужина": 8292,
      "вынужден": 8293,
      "тётя": 8294,
      "владеет": 8295,
      "передумал": 8296,
      "ежедневно": 8297,
      "фортепи": 8298,
      "Парковой": 8299,
      "Дру": 8300,
      "Ме": 8301,
      "Свет": 8302,
      "бензи": 8303,
      "здании": 8304,
      "мило": 8305,
      "роль": 8306,
      "ув": 8307,
      "фин": 8308,
      "цены": 8309,
      "шам": 8310,
      "##ию": 8311,
      "##ину": 8312,
      "##ощ": 8313,
      "##вра": 8314,
      "##лё": 8315,
      "##at": 8316,
      "неу": 8317,
      "незам": 8318,
      "##роза": 8319,
      "##нар": 8320,
      "##иле": 8321,
      "##неет": 8322,
      "засы": 8323,
      "##овался": 8324,
      "прич": 8325,
      "принцес": 8326,
      "отре": 8327,
      "обстоя": 8328,
      "##ляр": 8329,
      "видим": 8330,
      "договори": 8331,
      "больших": 8332,
      "Посколь": 8333,
      "##анд": 8334,
      "##анка": 8335,
      "предлага": 8336,
      "##ебята": 8337,
      "возле": 8338,
      "##нгви": 8339,
      "слышит": 8340,
      "оставляй": 8341,
      "разговаривайте": 8342,
      "большом": 8343,
      "игро": 8344,
      "следующее": 8345,
      "словаре": 8346,
      "закончится": 8347,
      "##влеч": 8348,
      "странная": 8349,
      "поездке": 8350,
      "отправляется": 8351,
      "вернётесь": 8352,
      "ближе": 8353,
      "голоса": 8354,
      "кричать": 8355,
      "понадобиться": 8356,
      "занимает": 8357,
      "одиноко": 8358,
      "желез": 8359,
      "Америки": 8360,
      "растения": 8361,
      "квартира": 8362,
      "гордиться": 8363,
      "поспеш": 8364,
      "Видишь": 8365,
      "счастливыми": 8366,
      "аварию": 8367,
      "искусство": 8368,
      "заднем": 8369,
      "обсуждать": 8370,
      "президент": 8371,
      "чувствуете": 8372,
      "окружаю": 8373,
      "программи": 8374,
      "двоюродный": 8375,
      "противоре": 8376,
      "Должно": 8377,
      "Малень": 8378,
      "несправедливо": 8379,
      "пассажиров": 8380,
      "начнётся": 8381,
      "Внезапно": 8382,
      "проспал": 8383,
      "собиралась": 8384,
      "степени": 8385,
      "добавля": 8386,
      "##ществуют": 8387,
      "племян": 8388,
      "грамма": 8389,
      "Компьют": 8390,
      "Поскольку": 8391,
      "Бес": 8392,
      "Жи": 8393,
      "Мат": 8394,
      "Пот": 8395,
      "Пря": 8396,
      "вр": 8397,
      "осл": 8398,
      "реч": 8399,
      "твёр": 8400,
      "чаю": 8401,
      "##под": 8402,
      "##лам": 8403,
      "##уки": 8404,
      "##ьет": 8405,
      "некуда": 8406,
      "##ройте": 8407,
      "национ": 8408,
      "##оле": 8409,
      "выр": 8410,
      "выраж": 8411,
      "рака": 8412,
      "горь": 8413,
      "спя": 8414,
      "спала": 8415,
      "спут": 8416,
      "докто": 8417,
      "##упре": 8418,
      "##утбу": 8419,
      "мыш": 8420,
      "пози": 8421,
      "рекомен": 8422,
      "предмет": 8423,
      "##траф": 8424,
      "убью": 8425,
      "умрёт": 8426,
      "##публи": 8427,
      "Откры": 8428,
      "пунк": 8429,
      "действия": 8430,
      "ошибался": 8431,
      "вращ": 8432,
      "объяв": 8433,
      "##порта": 8434,
      "надежда": 8435,
      "отврат": 8436,
      "подума": 8437,
      "сообщения": 8438,
      "иностранц": 8439,
      "починил": 8440,
      "продавать": 8441,
      "коробка": 8442,
      "беру": 8443,
      "возвращается": 8444,
      "расстроена": 8445,
      "сомнения": 8446,
      "200": 8447,
      "чаше": 8448,
      "покинуть": 8449,
      "троих": 8450,
      "спину": 8451,
      "верится": 8452,
      "приняла": 8453,
      "замечательный": 8454,
      "Испании": 8455,
      "Делайте": 8456,
      "довольна": 8457,
      "заперта": 8458,
      "некоторых": 8459,
      "Йорк": 8460,
      "пробыть": 8461,
      "приятный": 8462,
      "евро": 8463,
      "Смит": 8464,
      "ненорм": 8465,
      "анекд": 8466,
      "фортепиано": 8467,
      "15": 8468,
      "Аль": 8469,
      "Китая": 8470,
      "Фуд": 8471,
      "Чей": 8472,
      "ави": 8473,
      "бель": 8474,
      "вку": 8475,
      "зима": 8476,
      "змей": 8477,
      "лже": 8478,
      "леч": 8479,
      "пели": 8480,
      "срок": 8481,
      "север": 8482,
      "участ": 8483,
      "##исти": 8484,
      "##инал": 8485,
      "##ост": 8486,
      "##плом": 8487,
      "##суд": 8488,
      "##сестра": 8489,
      "##чную": 8490,
      "##ётом": 8491,
      "##тоя": 8492,
      "пола": 8493,
      "##стями": 8494,
      "нарис": 8495,
      "##водит": 8496,
      "забор": 8497,
      "##ванием": 8498,
      "выражение": 8499,
      "##тина": 8500,
      "гостей": 8501,
      "приём": 8502,
      "##уча": 8503,
      "##винуть": 8504,
      "мокры": 8505,
      "##чивает": 8506,
      "##чивый": 8507,
      "стены": 8508,
      "смело": 8509,
      "смерт": 8510,
      "лице": 8511,
      "часами": 8512,
      "убрать": 8513,
      "##ённые": 8514,
      "посоль": 8515,
      "идите": 8516,
      "Моему": 8517,
      "пустая": 8518,
      "встали": 8519,
      "голуб": 8520,
      "поняла": 8521,
      "открытым": 8522,
      "просит": 8523,
      "каждому": 8524,
      "посмотрите": 8525,
      "мужем": 8526,
      "##лух": 8527,
      "удивля": 8528,
      "сердца": 8529,
      "колено": 8530,
      "весна": 8531,
      "закрыты": 8532,
      "выбер": 8533,
      "молодым": 8534,
      "деревьев": 8535,
      "Такого": 8536,
      "продолжил": 8537,
      "Быть": 8538,
      "покупками": 8539,
      "риску": 8540,
      "акку": 8541,
      "актри": 8542,
      "продаёт": 8543,
      "набрал": 8544,
      "уезжаю": 8545,
      "Прекрат": 8546,
      "##игры": 8547,
      "апте": 8548,
      "отпуска": 8549,
      "сдаст": 8550,
      "переводить": 8551,
      "уважаю": 8552,
      "подобное": 8553,
      "честно": 8554,
      "честный": 8555,
      "Повер": 8556,
      "темноте": 8557,
      "подозреваем": 8558,
      "позволит": 8559,
      "Дерев": 8560,
      "Верни": 8561,
      "Хотелось": 8562,
      "группе": 8563,
      "ошибаешься": 8564,
      "Машу": 8565,
      "острове": 8566,
      "Несколько": 8567,
      "четвёр": 8568,
      "поддержку": 8569,
      "дотро": 8570,
      "сознание": 8571,
      "угрожал": 8572,
      "заблудился": 8573,
      "бананы": 8574,
      "электронной": 8575,
      "Напиши": 8576,
      "любопытно": 8577,
      "джинсы": 8578,
      "притворился": 8579,
      "консерва": 8580,
      "ружьё": 8581,
      "берегу": 8582,
      "десерт": 8583,
      "кошелёк": 8584,
      "Прекратите": 8585,
      "Иис": 8586,
      "Крас": 8587,
      "Ок": 8588,
      "Прос": 8589,
      "Реш": 8590,
      "Час": 8591,
      "бос": 8592,
      "дым": 8593,
      "ждёте": 8594,
      "рож": 8595,
      "сдать": 8596,
      "##фы": 8597,
      "##лев": 8598,
      "##клю": 8599,
      "##хла": 8600,
      "##чали": 8601,
      "порядок": 8602,
      "##рака": 8603,
      "##рава": 8604,
      "зазвонил": 8605,
      "выхожу": 8606,
      "раб": 8607,
      "приб": 8608,
      "Неважно": 8609,
      "вооруж": 8610,
      "развед": 8611,
      "спаг": 8612,
      "вину": 8613,
      "Понятия": 8614,
      "##жима": 8615,
      "марок": 8616,
      "##туру": 8617,
      "раскры": 8618,
      "расстоя": 8619,
      "##вало": 8620,
      "позд": 8621,
      "позов": 8622,
      "##веж": 8623,
      "пищу": 8624,
      "безупре": 8625,
      "Проверь": 8626,
      "курил": 8627,
      "началась": 8628,
      "сух": 8629,
      "читали": 8630,
      "дорож": 8631,
      "красив": 8632,
      "карте": 8633,
      "##рилли": 8634,
      "звоню": 8635,
      "словам": 8636,
      "показалось": 8637,
      "##ресс": 8638,
      "отвёз": 8639,
      "Обе": 8640,
      "понимают": 8641,
      "солнц": 8642,
      "заставила": 8643,
      "заставляй": 8644,
      "следующим": 8645,
      "красная": 8646,
      "поездки": 8647,
      "молодо": 8648,
      "связа": 8649,
      "деревян": 8650,
      "известный": 8651,
      "вечеринка": 8652,
      "Настоя": 8653,
      "Собаки": 8654,
      "толстая": 8655,
      "пьёшь": 8656,
      "рубашки": 8657,
      "сердится": 8658,
      "куртку": 8659,
      "становятся": 8660,
      "Земле": 8661,
      "дураком": 8662,
      "кроли": 8663,
      "посоветовала": 8664,
      "отменили": 8665,
      "картошку": 8666,
      "памяти": 8667,
      "Говорите": 8668,
      "система": 8669,
      "университете": 8670,
      "экспери": 8671,
      "содержит": 8672,
      "приближ": 8673,
      "Держись": 8674,
      "утонул": 8675,
      "виновен": 8676,
      "агресси": 8677,
      "дышать": 8678,
      "сиденье": 8679,
      "амби": 8680,
      "километров": 8681,
      "скамейке": 8682,
      "коньках": 8683,
      "вегетариа": 8684,
      "пикник": 8685,
      "злишься": 8686,
      "шнурки": 8687,
      "корабл": 8688,
      "алиби": 8689,
      "спагетти": 8690,
      ".\"": 8691,
      "Кем": 8692,
      "Клянусь": 8693,
      "Пар": 8694,
      "Су": 8695,
      "Сяд": 8696,
      "Смерть": 8697,
      "Цвет": 8698,
      "Швей": 8699,
      "вар": 8700,
      "двер": 8701,
      "лг": 8702,
      "оза": 8703,
      "рожде": 8704,
      "улет": 8705,
      "эмо": 8706,
      "##фу": 8707,
      "##вший": 8708,
      "##лением": 8709,
      "##шила": 8710,
      "##елый": 8711,
      "##стка": 8712,
      "##волю": 8713,
      "##итки": 8714,
      "##кос": 8715,
      "завод": 8716,
      "завести": 8717,
      "выно": 8718,
      "проз": 8719,
      "##удоб": 8720,
      "менять": 8721,
      "##енько": 8722,
      "обруч": 8723,
      "своя": 8724,
      "разно": 8725,
      "##еса": 8726,
      "сошёл": 8727,
      "работала": 8728,
      "поднима": 8729,
      "##туры": 8730,
      "одета": 8731,
      "старом": 8732,
      "старой": 8733,
      "##кола": 8734,
      "убежал": 8735,
      "опуст": 8736,
      "взвол": 8737,
      "позвоните": 8738,
      "думаем": 8739,
      "человеку": 8740,
      "языку": 8741,
      "увидишь": 8742,
      "Отправ": 8743,
      "пуль": 8744,
      "##тивен": 8745,
      "интересным": 8746,
      "звони": 8747,
      "считается": 8748,
      "женщине": 8749,
      "интеллек": 8750,
      "надежды": 8751,
      "уснуть": 8752,
      "заплачет": 8753,
      "наверху": 8754,
      "заставляет": 8755,
      "странные": 8756,
      "упрям": 8757,
      "обещала": 8758,
      "сумке": 8759,
      "поедим": 8760,
      "писем": 8761,
      "угодить": 8762,
      "##инан": 8763,
      "телефоном": 8764,
      "начинаются": 8765,
      "осторожным": 8766,
      "доверяешь": 8767,
      "обвинил": 8768,
      "богаты": 8769,
      "спросите": 8770,
      "Америка": 8771,
      "камеру": 8772,
      "связь": 8773,
      "уважать": 8774,
      "которому": 8775,
      "бутылки": 8776,
      "спиной": 8777,
      "уволят": 8778,
      "относится": 8779,
      "Вероятно": 8780,
      "вокзал": 8781,
      "ленивый": 8782,
      "игрушки": 8783,
      "населения": 8784,
      "тяжёлый": 8785,
      "прислал": 8786,
      "Останься": 8787,
      "ничему": 8788,
      "дыхание": 8789,
      "филосо": 8790,
      "Дэ": 8791,
      "Дело": 8792,
      "Индии": 8793,
      "Мил": 8794,
      "Рез": 8795,
      "бле": 8796,
      "идей": 8797,
      "кучу": 8798,
      "лом": 8799,
      "лает": 8800,
      "сез": 8801,
      "сель": 8802,
      "уходите": 8803,
      "фра": 8804,
      "##ины": 8805,
      "##анию": 8806,
      "##тили": 8807,
      "##фт": 8808,
      "##цар": 8809,
      "##шения": 8810,
      "##чок": 8811,
      "##енную": 8812,
      "##етра": 8813,
      "напо": 8814,
      "заеду": 8815,
      "ходим": 8816,
      "##огра": 8817,
      "вымы": 8818,
      "отпустил": 8819,
      "всп": 8820,
      "##сток": 8821,
      "##сторон": 8822,
      "сделай": 8823,
      "##учить": 8824,
      "будильник": 8825,
      "досто": 8826,
      "ступ": 8827,
      "ноутбу": 8828,
      "лицу": 8829,
      "##гип": 8830,
      "попала": 8831,
      "предлагаю": 8832,
      "##нья": 8833,
      "##бора": 8834,
      "пищи": 8835,
      "пидж": 8836,
      "Затк": 8837,
      "##мотреть": 8838,
      "занятий": 8839,
      "идет": 8840,
      "детства": 8841,
      "забывайте": 8842,
      "чувствовать": 8843,
      "последняя": 8844,
      "открыты": 8845,
      "выглядеть": 8846,
      "парт": 8847,
      "парнем": 8848,
      "##рела": 8849,
      "##вольно": 8850,
      "скажем": 8851,
      "подар": 8852,
      "идеально": 8853,
      "солнца": 8854,
      "улицы": 8855,
      "поверит": 8856,
      "сумки": 8857,
      "пытаются": 8858,
      "отказаться": 8859,
      "планируют": 8860,
      "доллара": 8861,
      "одеяло": 8862,
      "##немся": 8863,
      "доверяете": 8864,
      "газете": 8865,
      "величай": 8866,
      "шутит": 8867,
      "коробки": 8868,
      "шанса": 8869,
      "земли": 8870,
      "тысяча": 8871,
      "золот": 8872,
      "двоих": 8873,
      "настроен": 8874,
      "перепис": 8875,
      "высказ": 8876,
      "обнаружили": 8877,
      "навестил": 8878,
      "отношениях": 8879,
      "хватило": 8880,
      "казался": 8881,
      "свадьбе": 8882,
      "наказан": 8883,
      "озере": 8884,
      "несчастный": 8885,
      "напиток": 8886,
      "защищать": 8887,
      "сохранять": 8888,
      "посадил": 8889,
      "потрясаю": 8890,
      "кроватью": 8891,
      "оптимисти": 8892,
      "солдат": 8893,
      "президентом": 8894,
      "бойся": 8895,
      "змея": 8896,
      "шарф": 8897,
      "процес": 8898,
      "энергии": 8899,
      "Звучит": 8900,
      "поплавать": 8901,
      "стихотворение": 8902,
      "безнадёж": 8903,
      "кивнул": 8904,
      "рождествен": 8905,
      "Али": 8906,
      "Гэ": 8907,
      "Дома": 8908,
      "Кур": 8909,
      "Ночь": 8910,
      "Хо": 8911,
      "брал": 8912,
      "гара": 8913,
      "мила": 8914,
      "пей": 8915,
      "удел": 8916,
      "фли": 8917,
      "##фо": 8918,
      "##хнул": 8919,
      "поро": 8920,
      "пости": 8921,
      "потя": 8922,
      "наруч": 8923,
      "##кови": 8924,
      "застрел": 8925,
      "прок": 8926,
      "горе": 8927,
      "меняется": 8928,
      "##ужд": 8929,
      "спел": 8930,
      "доске": 8931,
      "перей": 8932,
      "##чива": 8933,
      "подал": 8934,
      "##анди": 8935,
      "расши": 8936,
      "расходы": 8937,
      "предот": 8938,
      "преиму": 8939,
      "рук": 8940,
      "помоги": 8941,
      "взор": 8942,
      "пусть": 8943,
      "получает": 8944,
      "похит": 8945,
      "оставлять": 8946,
      "открыла": 8947,
      "разговаривай": 8948,
      "череп": 8949,
      "красивой": 8950,
      "Корабль": 8951,
      "##тивный": 8952,
      "##полаг": 8953,
      "словар": 8954,
      "устра": 8955,
      "##рована": 8956,
      "обычного": 8957,
      "холодный": 8958,
      "важнее": 8959,
      "продл": 8960,
      "поверили": 8961,
      "сделают": 8962,
      "заставило": 8963,
      "фильма": 8964,
      "Готов": 8965,
      "постри": 8966,
      "прошлые": 8967,
      "голодны": 8968,
      "диплом": 8969,
      "попросишь": 8970,
      "привычка": 8971,
      "##началу": 8972,
      "попытаться": 8973,
      "шестьдесят": 8974,
      "труда": 8975,
      "соседей": 8976,
      "длинная": 8977,
      "привёл": 8978,
      "матч": 8979,
      "свеч": 8980,
      "девочку": 8981,
      "крыше": 8982,
      "обман": 8983,
      "чашки": 8984,
      "выросла": 8985,
      "откло": 8986,
      "откров": 8987,
      "принесла": 8988,
      "чемоданы": 8989,
      "воздуха": 8990,
      "конферен": 8991,
      "оскорбл": 8992,
      "апельсин": 8993,
      "Закройте": 8994,
      "восхища": 8995,
      "пообедал": 8996,
      "Следую": 8997,
      "пожалеешь": 8998,
      "недооцен": 8999,
      "ровесник": 9000,
      "заинтересован": 9001,
      "переоде": 9002,
      "землетрясение": 9003,
      "Библи": 9004,
      "обезья": 9005,
      "Гавай": 9006,
      "скрипке": 9007,
      "выразить": 9008,
      "мебель": 9009,
      "преврат": 9010,
      "упорно": 9011,
      "оконча": 9012,
      "напротив": 9013,
      "яйцо": 9014,
      "подержан": 9015,
      "слышишь": 9016,
      "тщательно": 9017,
      "гараже": 9018,
      "флир": 9019,
      "Ад": 9020,
      "Ди": 9021,
      "Мам": 9022,
      "Моск": 9023,
      "вза": 9024,
      "гений": 9025,
      "дога": 9026,
      "квад": 9027,
      "огля": 9028,
      "учим": 9029,
      "шучу": 9030,
      "##били": 9031,
      "##нена": 9032,
      "##вят": 9033,
      "##етки": 9034,
      "##вана": 9035,
      "выво": 9036,
      "##тиру": 9037,
      "раду": 9038,
      "прим": 9039,
      "прибуд": 9040,
      "приехать": 9041,
      "прилично": 9042,
      "##лоу": 9043,
      "отчая": 9044,
      "обменя": 9045,
      "кораб": 9046,
      "душа": 9047,
      "помедленнее": 9048,
      "разво": 9049,
      "разницу": 9050,
      "больной": 9051,
      "подруг": 9052,
      "распла": 9053,
      "##альном": 9054,
      "старого": 9055,
      "Ника": 9056,
      "страницу": 9057,
      "пугови": 9058,
      "Австралия": 9059,
      "оставляйте": 9060,
      "читала": 9061,
      "предложили": 9062,
      "##ентль": 9063,
      "ошибке": 9064,
      "красивых": 9065,
      "дверью": 9066,
      "##пий": 9067,
      "рынок": 9068,
      "победили": 9069,
      "подождали": 9070,
      "обещаю": 9071,
      "выбрасы": 9072,
      "пытаешься": 9073,
      "##имости": 9074,
      "ужасное": 9075,
      "долгое": 9076,
      "городов": 9077,
      "сильным": 9078,
      "улыба": 9079,
      "уронил": 9080,
      "разбога": 9081,
      "терпится": 9082,
      "крик": 9083,
      "##ничать": 9084,
      "преподавал": 9085,
      "пьёте": 9086,
      "обедать": 9087,
      "признателен": 9088,
      "огня": 9089,
      "трата": 9090,
      "Рано": 9091,
      "девочек": 9092,
      "арестовала": 9093,
      "##щихся": 9094,
      "справиться": 9095,
      "результате": 9096,
      "приеду": 9097,
      "спокойствие": 9098,
      "удосто": 9099,
      "небольшая": 9100,
      "бейсболь": 9101,
      "миллионов": 9102,
      "Францию": 9103,
      "предпочитает": 9104,
      "поправился": 9105,
      "нарушил": 9106,
      "повесел": 9107,
      "вежли": 9108,
      "выращи": 9109,
      "органи": 9110,
      "правилам": 9111,
      "коллекциони": 9112,
      "псих": 9113,
      "Продолжай": 9114,
      "Держите": 9115,
      "Детям": 9116,
      "вмешиваться": 9117,
      "Христо": 9118,
      "венгер": 9119,
      "сосредоточиться": 9120,
      "полудня": 9121,
      "Глаза": 9122,
      "Прямо": 9123,
      "Бери": 9124,
      "Зво": 9125,
      "Нэн": 9126,
      "Одно": 9127,
      "Сож": 9128,
      "Свя": 9129,
      "Тол": 9130,
      "беж": 9131,
      "деж": 9132,
      "едим": 9133,
      "мг": 9134,
      "мер": 9135,
      "пан": 9136,
      "пери": 9137,
      "сей": 9138,
      "ссо": 9139,
      "села": 9140,
      "уступ": 9141,
      "шту": 9142,
      "##рч": 9143,
      "##венно": 9144,
      "##хите": 9145,
      "##хоро": 9146,
      "##торы": 9147,
      "##рист": 9148,
      "##рика": 9149,
      "##итал": 9150,
      "зажи": 9151,
      "##ожаю": 9152,
      "##тии": 9153,
      "гориз": 9154,
      "обмо": 9155,
      "обществ": 9156,
      "##очки": 9157,
      "корич": 9158,
      "дос": 9159,
      "допол": 9160,
      "сокра": 9161,
      "сопер": 9162,
      "подстри": 9163,
      "##сишь": 9164,
      "старик": 9165,
      "##бое": 9166,
      "пожил": 9167,
      "верь": 9168,
      "лучшим": 9169,
      "преслед": 9170,
      "убила": 9171,
      "запереть": 9172,
      "умная": 9173,
      "страх": 9174,
      "оставался": 9175,
      "бок": 9176,
      "Отс": 9177,
      "встала": 9178,
      "играла": 9179,
      "добрались": 9180,
      "девяти": 9181,
      "##нутся": 9182,
      "объек": 9183,
      "поврежд": 9184,
      "конт": 9185,
      "смеешь": 9186,
      "Подой": 9187,
      "холодная": 9188,
      "победу": 9189,
      "Обожаю": 9190,
      "весел": 9191,
      "##ладить": 9192,
      "едой": 9193,
      "отправиться": 9194,
      "обеих": 9195,
      "диете": 9196,
      "сообщу": 9197,
      "ударила": 9198,
      "свидания": 9199,
      "вечеринки": 9200,
      "рисковать": 9201,
      "автобусной": 9202,
      "чёрт": 9203,
      "птицу": 9204,
      "Ново": 9205,
      "причиной": 9206,
      "корзи": 9207,
      "глазом": 9208,
      "встречаемся": 9209,
      "мамы": 9210,
      "отличная": 9211,
      "Обещайте": 9212,
      "собирались": 9213,
      "результатом": 9214,
      "прибыли": 9215,
      "журнали": 9216,
      "ошибаетесь": 9217,
      "опоздаем": 9218,
      "злой": 9219,
      "отрицать": 9220,
      "некоторое": 9221,
      "смертью": 9222,
      "попробует": 9223,
      "тринадцатом": 9224,
      "герой": 9225,
      "Напишите": 9226,
      "расслабиться": 9227,
      "осенью": 9228,
      "армию": 9229,
      "плечи": 9230,
      "девяно": 9231,
      "разбираюсь": 9232,
      "вторник": 9233,
      "Соединённых": 9234,
      "заплакал": 9235,
      "упомя": 9236,
      "пугает": 9237,
      "Эмили": 9238,
      "История": 9239,
      "характер": 9240,
      "облег": 9241,
      "##юкз": 9242,
      "взволнова": 9243,
      "Нэнси": 9244,
      "мгнов": 9245,
      "Долго": 9246,
      "Оде": 9247,
      "Сад": 9248,
      "Соглас": 9249,
      "Холод": 9250,
      "брилли": 9251,
      "врал": 9252,
      "врез": 9253,
      "гне": 9254,
      "двой": 9255,
      "демо": 9256,
      "пруд": 9257,
      "схожу": 9258,
      "тела": 9259,
      "финан": 9260,
      "хран": 9261,
      "чей": 9262,
      "шест": 9263,
      "##зо": 9264,
      "##тите": 9265,
      "##цов": 9266,
      "##in": 9267,
      "##тории": 9268,
      "нез": 9269,
      "пояс": 9270,
      "##нат": 9271,
      "##ереж": 9272,
      "##тист": 9273,
      "нис": 9274,
      "гора": 9275,
      "придут": 9276,
      "##мар": 9277,
      "##енятся": 9278,
      "Выключи": 9279,
      "Невоз": 9280,
      "##дое": 9281,
      "спишь": 9282,
      "дого": 9283,
      "переж": 9284,
      "стуль": 9285,
      "жид": 9286,
      "##гант": 9287,
      "расслед": 9288,
      "##граф": 9289,
      "##сист": 9290,
      "самую": 9291,
      "рекл": 9292,
      "плавал": 9293,
      "пиж": 9294,
      "убеж": 9295,
      "##ласть": 9296,
      "краже": 9297,
      "произнос": 9298,
      "беско": 9299,
      "Можем": 9300,
      "которыми": 9301,
      "испа": 9302,
      "испёк": 9303,
      "забывать": 9304,
      "открывать": 9305,
      "открытку": 9306,
      "предложении": 9307,
      "сыг": 9308,
      "черда": 9309,
      "молния": 9310,
      "красивее": 9311,
[...]
